<pad>	0
<s>	0
</s>	0
<unk>	0
s	-3.16446
▁the	-3.21029
▁.	-3.29409
▁,	-3.45435
ed	-3.87246
▁to	-3.99576
▁a	-4.03113
"	-4.0317
▁"	-4.05552
▁of	-4.13226
▁in	-4.19783
ing	-4.21853
▁and	-4.31013
▁s	-4.37439
y	-4.44279
▁	-4.45528
e	-4.95313
▁on	-5.06971
▁said	-5.10086
▁be	-5.11761
d	-5.1246
▁for	-5.12794
▁that	-5.20753
ly	-5.28608
t	-5.34049
▁is	-5.3807
n	-5.43989
▁with	-5.46653
▁was	-5.47448
▁it	-5.64182
the	-5.64225
a	-5.65397
▁at	-5.73497
▁an	-5.74553
en	-5.74886
▁he	-5.75022
▁by	-5.77516
in	-5.81923
▁from	-5.8352
er	-5.86894
▁has	-5.87028
▁as	-5.89655
▁his	-5.91173
▁have	-5.96394
i	-5.97821
▁will	-6.02985
r	-6.06609
an	-6.08373
o	-6.08972
▁are	-6.11337
al	-6.12496
ir	-6.13153
▁t	-6.17115
▁were	-6.19553
▁not	-6.20511
▁who	-6.22324
st	-6.26007
▁u	-6.2767
p	-6.2949
on	-6.30568
▁but	-6.30793
c	-6.34268
es	-6.35872
g	-6.3725
m	-6.39542
▁after	-6.415
▁had	-6.44873
ic	-6.52764
▁this	-6.53176
▁year	-6.53612
▁korea	-6.54128
about	-6.54531
ion	-6.55076
▁president	-6.55159
▁its	-6.55205
▁people	-6.5648
b	-6.57412
▁more	-6.59531
▁new	-6.61651
ies	-6.62089
day	-6.62439
it	-6.64161
▁up	-6.6421
▁w	-6.64971
▁i	-6.66067
▁two	-6.66129
k	-6.67822
▁which	-6.68867
▁her	-6.68941
le	-6.70084
▁or	-6.71921
h	-6.72751
▁re	-6.7378
▁than	-6.73983
▁one	-6.74774
▁would	-6.74947
▁out	-6.76635
▁over	-6.76879
▁government	-6.77672
also	-6.77857
re	-6.78135
u	-6.78744
▁official	-6.78897
ers	-6.80196
▁she	-6.8098
▁we	-6.84058
▁b	-6.87514
▁other	-6.89224
ld	-6.90348
▁north	-6.92889
f	-6.94956
▁some	-6.96736
w	-6.97215
ce	-6.97251
▁first	-6.98386
th	-6.98717
▁last	-6.98888
ar	-6.993
or	-6.99747
▁police	-7.00983
▁man	-7.01279
▁all	-7.01841
▁time	-7.03468
▁south	-7.0402
▁us	-7.04161
▁no	-7.04356
▁cnn	-7.05161
▁al	-7.0566
ra	-7.06533
▁into	-7.0705
▁when	-7.07284
▁can	-7.09811
▁world	-7.10198
▁m	-7.11887
▁k	-7.12235
▁p	-7.12543
z	-7.12842
▁go	-7.14374
▁korean	-7.14802
l	-7.15252
▁di	-7.15617
▁percent	-7.15642
▁week	-7.16027
ation	-7.17165
▁so	-7.17991
ri	-7.18222
▁c	-7.18286
▁g	-7.18779
at	-7.19187
▁united	-7.19584
▁there	-7.20243
▁like	-7.21336
ish	-7.21514
▁call	-7.21884
ro	-7.22364
▁un	-7.22807
▁000	-7.232
▁could	-7.23608
▁years	-7.2464
▁state	-7.24722
ment	-7.252
▁e	-7.26352
▁million	-7.26925
▁1	-7.30596
▁iraq	-7.30937
▁you	-7.31463
▁country	-7.31981
▁national	-7.32609
▁again	-7.33161
▁says	-7.33812
te	-7.35766
▁work	-7.36516
tues	-7.36556
▁se	-7.37021
ese	-7.37154
▁three	-7.37208
▁minister	-7.38221
▁do	-7.38349
▁what	-7.3839
il	-7.38481
▁monday	-7.38854
▁group	-7.40128
▁according	-7.40437
el	-7.40564
ur	-7.40622
▁party	-7.4083
ta	-7.41806
▁militar	-7.42264
▁old	-7.4232
▁states	-7.43015
▁him	-7.43307
▁de	-7.4347
▁them	-7.43704
▁kill	-7.44456
▁day	-7.44833
▁before	-7.45784
la	-7.46101
▁down	-7.46928
able	-7.4787
▁obama	-7.47908
▁say	-7.48086
he	-7.48131
▁under	-7.48704
li	-7.48737
ednes	-7.49112
▁f	-7.49501
▁back	-7.49535
▁attack	-7.49539
▁20	-7.49628
▁show	-7.50147
▁if	-7.50394
▁sunday	-7.50804
▁city	-7.51618
ial	-7.51915
▁high	-7.52372
ve	-7.52719
ma	-7.52728
▁may	-7.53101
ive	-7.53933
▁most	-7.54428
▁take	-7.54728
▁part	-7.55164
▁where	-7.55312
▁end	-7.55344
▁just	-7.55693
▁nuclear	-7.55717
▁off	-7.5583
▁china	-7.56396
ch	-7.56474
▁japan	-7.56921
▁now	-7.56964
▁10	-7.57166
▁since	-7.57906
▁set	-7.58227
ist	-7.58355
▁nation	-7.58401
▁reported	-7.59281
▁war	-7.59471
▁bush	-7.60875
▁dur	-7.6097
▁house	-7.61626
um	-7.61859
▁thursday	-7.61902
▁near	-7.6254
▁want	-7.62589
▁securit	-7.63271
▁month	-7.63327
cause	-7.63743
tween	-7.64326
v	-7.64736
▁plan	-7.65042
us	-7.6506
▁made	-7.65887
man	-7.65919
▁2	-7.67022
▁american	-7.67126
we	-7.6716
▁news	-7.67172
▁four	-7.67539
▁200	-7.67697
uch	-7.68153
▁n	-7.68586
▁ta	-7.68633
▁home	-7.68777
ent	-7.68926
▁former	-7.6947
▁did	-7.70454
▁la	-7.71038
lo	-7.71056
na	-7.71615
▁car	-7.71977
▁co	-7.72157
▁any	-7.72283
▁help	-7.72406
▁o	-7.7281
ia	-7.73055
▁5	-7.73263
other	-7.73409
ity	-7.7357
as	-7.73611
▁including	-7.73743
▁long	-7.75008
out	-7.75376
▁how	-7.75523
▁whil	-7.76442
ck	-7.76856
▁statement	-7.77056
▁make	-7.77365
7	-7.77412
co	-7.77442
▁women	-7.77529
▁through	-7.77633
hose	-7.78026
▁expect	-7.78101
▁3	-7.78936
age	-7.79381
to	-7.79597
▁international	-7.79756
▁right	-7.80153
▁our	-7.80391
▁me	-7.80683
▁report	-7.80693
ry	-7.81425
▁d	-7.81957
est	-7.82279
▁ver	-7.82365
▁get	-7.82643
▁being	-7.82708
▁lee	-7.82754
oul	-7.83377
▁ra	-7.83768
ni	-7.83839
▁arm	-7.84303
▁won	-7.84591
land	-7.84974
▁7	-7.85616
ember	-7.85848
▁found	-7.86363
▁next	-7.86409
but	-7.86983
ol	-7.87377
▁six	-7.87436
▁court	-7.8795
▁foreign	-7.8795
▁troops	-7.88169
▁my	-7.88231
if	-7.88281
▁bank	-7.88376
ter	-7.88417
▁wh	-7.88539
▁second	-7.8899
ho	-7.89795
▁office	-7.9008
▁win	-7.90291
▁days	-7.90534
▁mo	-7.91095
4	-7.91789
▁around	-7.92177
ever	-7.92504
ha	-7.92546
▁billion	-7.92791
▁democrat	-7.93021
▁public	-7.93583
0	-7.93668
▁start	-7.93943
▁don	-7.94153
▁aid	-7.94611
▁talks	-7.94949
▁five	-7.94999
▁spokesm	-7.9504
▁prime	-7.95281
▁see	-7.95955
▁late	-7.9624
▁6	-7.96524
and	-7.96616
▁number	-7.96874
▁way	-7.96906
ian	-7.96949
▁fire	-7.96961
▁put	-7.97169
ke	-7.97599
▁press	-7.97817
▁death	-7.98593
▁know	-7.98862
▁large	-7.99166
▁announc	-7.99452
▁head	-7.99577
▁leas	-7.99606
▁reports	-7.99617
▁market	-7.99759
ul	-7.99776
company	-8.00036
▁need	-8.00059
▁8	-8.00198
▁top	-8.00555
▁com	-8.00908
▁program	-8.00915
▁open	-8.00916
▁con	-8.01047
▁come	-8.01148
▁recent	-8.01231
▁still	-8.01233
2	-8.02199
▁support	-8.02781
▁ban	-8.02901
1	-8.02964
▁york	-8.03001
▁follow	-8.03043
ous	-8.0316
▁ap	-8.03481
▁site	-8.03698
▁play	-8.03735
▁liv	-8.03854
▁r	-8.03881
▁afghan	-8.03905
one	-8.04647
ba	-8.0484
▁hour	-8.04873
▁place	-8.04948
▁leader	-8.05138
▁bas	-8.05512
ne	-8.05662
▁law	-8.05857
▁return	-8.06052
8	-8.06136
▁give	-8.0683
ether	-8.06853
ary	-8.06949
▁team	-8.06997
ty	-8.07206
▁cha	-8.07374
▁should	-8.07615
▁h	-8.07868
▁close	-8.08021
▁issue	-8.08339
ant	-8.08419
▁meeting	-8.09038
▁ve	-8.09388
▁authorit	-8.0945
▁lead	-8.09462
▁4	-8.09603
x	-8.09884
▁brit	-8.09982
un	-8.09984
▁forces	-8.10003
▁service	-8.10816
▁believe	-8.10817
▁test	-8.10894
ance	-8.10934
5	-8.11175
▁agency	-8.11618
▁good	-8.11811
▁look	-8.12137
▁case	-8.1252
is	-8.12843
▁ma	-8.13319
de	-8.13397
▁children	-8.13513
id	-8.13925
▁health	-8.14123
▁30	-8.14285
son	-8.1435
▁bo	-8.14843
▁well	-8.14974
ll	-8.15093
be	-8.15154
▁campaign	-8.15475
▁po	-8.15487
mp	-8.15555
▁political	-8.15599
▁saying	-8.15987
▁friday	-8.16502
▁power	-8.1656
▁even	-8.17198
▁sp	-8.17251
▁came	-8.17256
▁deal	-8.17321
▁washington	-8.17323
▁9	-8.17449
▁earl	-8.1749
▁think	-8.17899
ame	-8.18108
▁much	-8.18401
▁men	-8.1854
vi	-8.18568
▁left	-8.18595
ate	-8.18646
▁per	-8.18927
▁life	-8.18954
▁visit	-8.19159
▁arrest	-8.19295
▁capital	-8.19295
▁iraqi	-8.1938
▁john	-8.2008
▁ministry	-8.20362
▁host	-8.20494
▁pro	-8.20714
▁family	-8.20721
▁price	-8.20804
▁ask	-8.20994
3	-8.21001
▁both	-8.21227
▁economic	-8.21441
▁chief	-8.21447
▁sever	-8.21529
▁star	-8.21611
▁turn	-8.21809
et	-8.21896
▁try	-8.21945
▁saturday	-8.22167
▁bomb	-8.22443
iz	-8.22807
▁white	-8.229
▁chin	-8.237
▁took	-8.2372
▁night	-8.23749
ak	-8.23913
▁general	-8.24006
▁release	-8.241
▁clint	-8.24337
▁school	-8.24378
line	-8.24587
ton	-8.24645
▁countries	-8.24751
▁ex	-8.2509
▁use	-8.25098
▁game	-8.25295
▁african	-8.25649
▁center	-8.25654
▁sign	-8.25706
▁st	-8.25713
▁add	-8.25742
▁months	-8.25843
▁election	-8.25876
▁double	-8.25878
▁claim	-8.25886
▁12	-8.26194
▁11	-8.26305
▁run	-8.26457
▁fly	-8.26648
▁hong	-8.26679
▁water	-8.26795
ti	-8.26811
▁times	-8.27092
▁move	-8.27315
▁kong	-8.27861
▁final	-8.28179
▁ca	-8.2826
pe	-8.28507
▁en	-8.28512
▁iran	-8.28607
9	-8.28616
▁members	-8.28744
▁michael	-8.2934
▁own	-8.29555
▁hit	-8.29955
▁remain	-8.30127
▁civil	-8.30891
▁record	-8.30918
▁yesterday	-8.30918
▁financial	-8.30921
▁among	-8.31073
▁injur	-8.31323
▁flu	-8.31446
▁li	-8.31619
▁accus	-8.31717
ell	-8.32039
▁face	-8.32191
▁space	-8.32276
bo	-8.32497
▁name	-8.32627
▁ro	-8.33041
hi	-8.33075
▁every	-8.33535
▁air	-8.33547
▁universit	-8.33743
▁ago	-8.33762
am	-8.33872
im	-8.34089
▁che	-8.34097
istan	-8.34171
▁dead	-8.34183
▁media	-8.34197
▁secretar	-8.34557
ci	-8.34651
▁militant	-8.34976
▁system	-8.34976
▁order	-8.35079
▁business	-8.3539
no	-8.35442
▁ju	-8.35598
▁human	-8.35756
▁na	-8.36132
▁later	-8.36222
▁free	-8.36658
▁change	-8.3667
▁job	-8.36734
▁side	-8.37008
ca	-8.37048
▁dec	-8.3712
▁allow	-8.37161
▁economy	-8.37491
▁tak	-8.38288
▁concern	-8.38347
▁region	-8.38351
▁takes	-8.38406
liban	-8.38779
▁dr	-8.38802
ac	-8.38855
each	-8.39064
▁15	-8.39259
ang	-8.39496
▁kenya	-8.39638
less	-8.39681
▁half	-8.39737
nd	-8.39784
▁province	-8.39797
▁result	-8.40075
▁main	-8.40193
▁held	-8.40202
▁major	-8.40466
tic	-8.4055
▁lo	-8.4094
▁third	-8.40948
▁local	-8.40954
▁film	-8.41033
▁fla	-8.4105
▁trade	-8.4142
▁0	-8.4146
for	-8.41513
▁land	-8.41789
▁draft	-8.4183
▁term	-8.41863
▁reach	-8.41869
ill	-8.41918
j	-8.41992
thing	-8.42024
▁hu	-8.42394
▁far	-8.42733
▁past	-8.4295
▁ho	-8.42976
▁appear	-8.43139
▁department	-8.4317
▁demand	-8.43171
▁post	-8.43407
go	-8.43781
ntil	-8.43792
▁hospital	-8.43802
▁your	-8.43897
ard	-8.43982
▁explain	-8.44073
▁reduced	-8.44204
▁earlie	-8.44246
▁question	-8.44527
ga	-8.44719
▁promise	-8.4497
▁forecast	-8.44984
▁debut	-8.45091
▁vote	-8.45466
▁100	-8.45527
▁began	-8.45744
▁force	-8.45812
ad	-8.45862
▁building	-8.459
▁great	-8.45904
▁few	-8.45968
▁cut	-8.45973
ence	-8.46149
▁control	-8.46255
▁already	-8.46366
▁shift	-8.46367
▁opposition	-8.46373
mo	-8.4642
▁offer	-8.46445
▁area	-8.46629
ge	-8.46765
▁fa	-8.47312
jackson	-8.47339
▁leaders	-8.4737
▁young	-8.47374
▁park	-8.47856
▁led	-8.47946
usan	-8.4805
▁kim	-8.48182
▁effort	-8.4824
▁web	-8.48481
▁mar	-8.4853
6	-8.48582
di	-8.48632
cy	-8.48704
▁cash	-8.48751
▁morning	-8.4919
▁acros	-8.49191
▁line	-8.49357
▁fight	-8.4981
ten	-8.49866
▁operation	-8.49885
▁50	-8.4995
▁travel	-8.50149
▁weapon	-8.50149
▁money	-8.50174
▁pre	-8.50207
▁rule	-8.50449
▁street	-8.50632
▁german	-8.50633
▁cd	-8.50975
▁j	-8.51358
▁live	-8.51685
con	-8.51982
▁administration	-8.52096
▁decision	-8.52096
▁qa	-8.52116
ong	-8.52147
ness	-8.52299
▁consider	-8.52588
▁study	-8.52589
▁does	-8.52733
▁oil	-8.52735
▁l	-8.52863
▁march	-8.53166
▁mean	-8.53467
▁along	-8.53555
▁increase	-8.53581
yang	-8.5361
▁away	-8.53673
ie	-8.53725
▁these	-8.53844
▁miles	-8.53869
▁18	-8.54189
▁agree	-8.54565
▁watch	-8.54584
▁small	-8.54587
▁ka	-8.54687
▁hand	-8.54692
▁big	-8.54752
▁town	-8.54975
ver	-8.55041
pa	-8.551
formation	-8.55233
▁mak	-8.55268
▁cage	-8.55297
▁step	-8.55338
▁conference	-8.55596
▁candidate	-8.56106
ud	-8.56241
ful	-8.56354
▁199	-8.56583
▁food	-8.5715
▁strong	-8.57224
▁19	-8.57551
▁defense	-8.57653
▁central	-8.57653
▁palestinian	-8.57699
▁action	-8.57753
▁mcca	-8.57879
▁du	-8.5804
tor	-8.58067
▁orphanage	-8.58174
▁25	-8.58214
▁person	-8.58469
self	-8.58626
bi	-8.58814
▁beijing	-8.58932
▁pakistan	-8.59041
▁french	-8.59224
▁keep	-8.59224
ated	-8.59254
▁fund	-8.59314
roh	-8.59326
▁killing	-8.59657
▁confirm	-8.59748
▁source	-8.59754
▁ga	-8.59871
▁ne	-8.60029
▁israeli	-8.60071
▁ha	-8.60236
▁miss	-8.60284
ger	-8.60461
▁ama	-8.60497
▁brun	-8.60617
▁research	-8.60832
▁ba	-8.6107
▁went	-8.61176
cu	-8.61321
▁sea	-8.61324
▁bill	-8.61353
▁elepha	-8.61355
▁current	-8.61357
▁become	-8.61361
▁eight	-8.61372
▁cost	-8.61383
▁southern	-8.61407
▁anti	-8.61515
▁east	-8.61821
▁officer	-8.6183
▁might	-8.61897
▁14	-8.62035
▁count	-8.62075
tra	-8.62129
▁israel	-8.62242
▁releas	-8.62303
▁rate	-8.62333
▁global	-8.62441
▁clear	-8.62441
▁best	-8.62638
▁video	-8.62987
▁girl	-8.62988
glove	-8.63011
▁tax	-8.63068
▁bar	-8.63073
▁gra	-8.63139
▁point	-8.63146
ors	-8.63298
key	-8.63302
▁committee	-8.63539
▁safe	-8.63586
▁federal	-8.63589
▁director	-8.63668
ner	-8.63692
▁workers	-8.63975
▁hill	-8.64021
▁agreement	-8.64168
▁involv	-8.64178
▁pass	-8.64244
ick	-8.64329
▁bearing	-8.64599
▁40	-8.64671
qu	-8.64752
lu	-8.64889
▁member	-8.65123
▁include	-8.65167
▁interview	-8.65203
▁flight	-8.65221
▁direct	-8.65631
va	-8.65873
▁le	-8.65901
▁london	-8.66153
mi	-8.66708
han	-8.66794
▁airport	-8.6692
pp	-8.66981
ut	-8.67024
▁comment	-8.67036
ine	-8.67138
da	-8.67237
▁pay	-8.6734
ling	-8.6737
▁reporter	-8.67475
▁lot	-8.67551
▁possible	-8.67606
▁plann	-8.67733
▁congress	-8.68045
▁thwart	-8.68045
ng	-8.68047
▁servant	-8.68062
▁ki	-8.681
me	-8.68185
▁border	-8.68623
▁key	-8.68779
▁station	-8.68794
▁body	-8.68943
▁seven	-8.69071
▁arriv	-8.69205
▁outside	-8.69323
ung	-8.69328
▁prep	-8.6941
do	-8.69528
▁red	-8.69558
▁continue	-8.6957
▁mark	-8.69638
ok	-8.69675
▁16	-8.69872
ongdo	-8.70046
side	-8.70229
▁climat	-8.70256
▁article	-8.70377
▁black	-8.70397
whil	-8.70413
▁meetin	-8.70471
▁full	-8.70528
▁wom	-8.7077
mon	-8.70796
▁talk	-8.70895
▁ja	-8.71062
▁short	-8.71071
▁total	-8.71237
ism	-8.71254
ough	-8.71342
all	-8.71389
▁goal	-8.71432
min	-8.71443
▁barack	-8.71577
▁los	-8.71579
▁list	-8.71999
▁hope	-8.72014
▁fall	-8.72267
▁break	-8.72289
▁never	-8.723
der	-8.72585
up	-8.72615
▁associat	-8.72621
▁condition	-8.72765
▁internet	-8.72765
▁televis	-8.72766
▁stand	-8.72848
▁boy	-8.7287
▁thousand	-8.72884
▁22	-8.73251
per	-8.73285
by	-8.73316
ition	-8.7332
ja	-8.73522
▁hyun	-8.73991
▁tour	-8.74158
▁mi	-8.74222
▁soldiers	-8.74412
bb	-8.74551
▁union	-8.74648
▁hold	-8.74712
▁ahead	-8.74754
tion	-8.74878
▁points	-8.75036
▁immediate	-8.75212
▁future	-8.75212
▁interest	-8.75249
▁train	-8.756
▁russia	-8.75607
ka	-8.75637
za	-8.75682
▁january	-8.75833
▁emergenc	-8.7585
▁grand	-8.75862
▁2006	-8.75894
▁investigation	-8.75923
▁boyl	-8.76079
▁alleged	-8.76159
▁stop	-8.76274
▁attempt	-8.76458
▁launch	-8.76458
▁crisis	-8.76458
▁today	-8.76496
▁france	-8.76603
▁pe	-8.76982
▁island	-8.77005
▁target	-8.77087
▁process	-8.77087
▁must	-8.77297
▁pa	-8.77475
▁got	-8.775
▁peace	-8.77701
ru	-8.77747
ff	-8.7787
▁european	-8.77949
▁june	-8.78054
po	-8.78061
coming	-8.78159
▁here	-8.78298
▁islam	-8.78309
▁hard	-8.78821
▁gas	-8.78984
▁suggest	-8.78998
▁violence	-8.78998
▁ruling	-8.79013
▁northern	-8.79065
▁less	-8.79111
▁baghdad	-8.79217
▁davi	-8.79669
▁hundred	-8.79786
▁real	-8.79786
▁sw	-8.79813
her	-8.79826
▁students	-8.79909
▁sept	-8.80117
▁others	-8.80342
▁couple	-8.80343
▁republican	-8.80376
▁charge	-8.80632
▁movie	-8.80708
▁mid	-8.80712
▁weekend	-8.80957
▁organization	-8.80963
mb	-8.81244
▁toward	-8.8153
▁road	-8.81641
▁500	-8.81652
ber	-8.81658
led	-8.81728
▁threaten	-8.81826
▁chi	-8.82114
▁race	-8.82168
▁council	-8.82266
this	-8.82362
▁24	-8.82383
ril	-8.82614
fa	-8.82642
▁brita	-8.82717
▁cho	-8.82886
▁grow	-8.82892
little	-8.82933
▁heart	-8.8295
▁shot	-8.82952
▁gaza	-8.82954
▁13	-8.83024
fi	-8.83236
▁meet	-8.83257
▁pi	-8.83552
▁mu	-8.83553
▁jo	-8.83562
▁california	-8.83604
▁happen	-8.83604
▁olympic	-8.83604
further	-8.83605
▁develop	-8.83609
▁important	-8.83619
▁urg	-8.83638
▁fail	-8.83692
▁ship	-8.83797
after	-8.83798
ally	-8.83825
ster	-8.8385
though	-8.83972
▁ground	-8.84084
▁strike	-8.8412
bc	-8.84157
▁spokes	-8.84277
▁england	-8.8428
▁judge	-8.8428
▁round	-8.8428
▁broke	-8.8428
▁pyong	-8.84281
▁sta	-8.84505
▁event	-8.84528
▁front	-8.84552
▁elect	-8.84707
▁light	-8.8472
ious	-8.84788
har	-8.84894
▁newspaper	-8.8496
▁project	-8.8496
▁cross	-8.8496
▁su	-8.85033
mar	-8.85094
▁pen	-8.85255
▁age	-8.85535
▁view	-8.85645
▁medical	-8.85647
ler	-8.8578
bu	-8.86272
▁industry	-8.86334
▁storm	-8.86339
▁scientist	-8.86364
vo	-8.86469
▁stock	-8.86555
che	-8.86823
▁met	-8.86987
▁coast	-8.87034
gu	-8.87155
▁mother	-8.87381
▁find	-8.87652
▁really	-8.87715
▁senior	-8.87729
ier	-8.87766
ham	-8.87839
▁mil	-8.88094
▁trip	-8.88437
▁bring	-8.8847
▁send	-8.88727
▁rat	-8.8878
▁minutes	-8.8883
▁provide	-8.89101
▁search	-8.89143
▁season	-8.89192
▁wide	-8.89288
hind	-8.89313
▁son	-8.89553
▁lu	-8.89666
▁energy	-8.89856
▁poll	-8.89949
how	-8.90058
▁17	-8.90065
▁gu	-8.90115
▁va	-8.90132
▁gen	-8.90183
▁seek	-8.90224
▁base	-8.90408
ow	-8.90525
▁companies	-8.90575
▁nov	-8.90618
▁love	-8.90732
there	-8.90807
▁hav	-8.91137
▁resident	-8.913
▁writ	-8.91313
fe	-8.91314
ap	-8.91395
hu	-8.91459
▁victory	-8.91582
▁sex	-8.91939
▁commission	-8.92041
▁match	-8.92044
▁role	-8.92249
▁animal	-8.92766
▁inter	-8.92815
ical	-8.92996
▁western	-8.93143
▁cover	-8.93299
▁sh	-8.9334
▁george	-8.93506
▁approv	-8.93506
▁phone	-8.93533
wom	-8.93646
▁cell	-8.93657
▁father	-8.93694
port	-8.93697
▁operat	-8.93917
▁wor	-8.94187
▁executive	-8.9426
▁describ	-8.94344
she	-8.94357
▁fe	-8.9451
▁level	-8.9455
wa	-8.94704
▁special	-8.9486
▁disease	-8.95004
▁previous	-8.95004
▁civilian	-8.95072
mer	-8.95102
▁wall	-8.95201
▁policy	-8.955
▁60	-8.95518
ship	-8.95607
▁discuss	-8.95618
▁letter	-8.95829
▁hostage	-8.9585
▁due	-8.95852
according	-8.9611
▁par	-8.96384
▁ever	-8.9648
▁plane	-8.96519
▁incident	-8.96525
▁computer	-8.96525
▁moo	-8.96671
rice	-8.9681
▁west	-8.96946
▁idea	-8.9696
amid	-8.97199
▁protest	-8.97202
▁act	-8.97208
off	-8.97234
▁suicide	-8.97294
▁indicat	-8.97308
▁buy	-8.97321
▁cause	-8.97456
▁fan	-8.97773
▁bus	-8.97899
▁series	-8.98112
▁charges	-8.98446
▁tv	-8.98618
▁bur	-8.98835
ze	-8.98864
ney	-8.98868
▁da	-8.98902
▁prosecutor	-8.98949
▁form	-8.99084
▁feel	-8.99191
▁am	-8.99337
▁parliament	-8.99382
▁stay	-8.99497
▁suffer	-8.99641
ought	-8.99706
▁shar	-8.9978
▁27	-8.99799
ex	-8.99814
ways	-8.99843
▁suspect	-8.99914
▁tell	-9.00104
▁inside	-9.00186
ves	-9.00236
▁share	-9.00247
▁technolog	-9.00432
▁serious	-9.00436
▁tried	-9.00479
▁rais	-9.00496
▁speak	-9.0085
▁seat	-9.00867
▁homes	-9.01094
▁problems	-9.01308
▁player	-9.01715
▁schedul	-9.02039
▁decade	-9.02054
▁development	-9.02124
▁elections	-9.02215
▁walk	-9.0223
that	-9.02271
ley	-9.02294
▁america	-9.02422
lin	-9.02497
▁sell	-9.02518
▁russian	-9.026
▁europe	-9.02638
▁protect	-9.02705
▁el	-9.02734
▁soon	-9.02811
▁dollar	-9.02851
▁fuel	-9.02852
▁rebel	-9.02855
▁prison	-9.02905
▁child	-9.02965
▁beat	-9.02986
tention	-9.03141
harra	-9.03504
▁creat	-9.03541
▁address	-9.03671
▁primar	-9.03689
▁2005	-9.03788
▁damage	-9.03853
▁san	-9.03883
rac	-9.04079
▁battle	-9.0425
▁different	-9.04497
▁express	-9.04497
▁better	-9.04507
▁vi	-9.04662
▁tr	-9.04663
way	-9.04684
▁lower	-9.04769
▁receiv	-9.04913
▁sent	-9.05192
▁sen	-9.05192
▁chairm	-9.05284
▁senate	-9.0537
▁wounded	-9.05453
▁carry	-9.05497
▁association	-9.05531
▁v	-9.05772
▁min	-9.05925
▁asia	-9.06149
▁prevent	-9.06171
▁23	-9.06218
▁nine	-9.06259
▁communis	-9.06268
▁saw	-9.06308
ois	-9.06586
▁complete	-9.06659
new	-9.0696
▁21	-9.06983
▁conduct	-9.07018
▁figure	-9.07018
▁illegal	-9.07018
▁church	-9.07018
▁credit	-9.07019
▁summer	-9.07019
▁chance	-9.07022
▁history	-9.07025
▁crew	-9.07061
▁cap	-9.07116
▁ru	-9.07287
▁spend	-9.07607
▁award	-9.07724
▁exchange	-9.07873
▁situation	-9.07873
▁refus	-9.07877
▁yet	-9.0791
▁paul	-9.07931
▁mus	-9.0852
▁friend	-9.08535
▁august	-9.08735
▁camp	-9.08751
▁pressure	-9.08783
▁2008	-9.08865
▁pick	-9.08922
▁art	-9.0899
▁gav	-9.09171
▁too	-9.09222
uc	-9.09291
with	-9.09302
▁bigge	-9.09431
▁word	-9.09441
▁mission	-9.09444
▁ti	-9.09567
▁accept	-9.09605
▁district	-9.09605
▁request	-9.09605
▁position	-9.09607
▁crime	-9.09612
▁private	-9.0962
▁hotel	-9.09635
▁terrorist	-9.09848
ack	-9.09873
when	-9.10188
rk	-9.10239
▁caus	-9.10293
▁warn	-9.1046
▁february	-9.10482
▁lawmaker	-9.10494
▁rescue	-9.10509
▁rest	-9.10553
▁foot	-9.10621
▁sub	-9.10779
▁king	-9.10879
our	-9.10932
pec	-9.10948
▁australia	-9.1109
▁board	-9.11218
▁ko	-9.11243
▁den	-9.1126
▁music	-9.11306
▁negotiation	-9.11425
pped	-9.1168
▁thought	-9.11778
fer	-9.11868
▁rid	-9.11872
▁cit	-9.11917
▁politic	-9.11933
▁cat	-9.12128
▁destroy	-9.1226
▁vehicle	-9.1226
▁risk	-9.1226
▁drug	-9.12279
▁pull	-9.12279
▁super	-9.12299
▁book	-9.12304
▁fact	-9.12359
▁fo	-9.12548
▁store	-9.12609
ki	-9.12618
ult	-9.12623
▁ran	-9.12729
tan	-9.12787
▁victims	-9.12854
night	-9.12884
ize	-9.12944
▁consumer	-9.13161
▁daughter	-9.13161
▁missile	-9.1318
▁corp	-9.13309
▁leave	-9.1332
▁enter	-9.13327
ev	-9.13366
▁vice	-9.13408
▁col	-9.13708
▁port	-9.13745
▁labor	-9.14062
▁coal	-9.14074
▁staff	-9.14092
▁design	-9.14636
▁voter	-9.14667
▁ben	-9.14952
▁contract	-9.14987
▁evidence	-9.14987
▁surviv	-9.14987
▁analyst	-9.14988
▁network	-9.1499
▁scene	-9.14993
▁guard	-9.15016
▁production	-9.15133
chi	-9.15433
most	-9.15654
ko	-9.15777
▁te	-9.15825
▁affect	-9.15913
▁publish	-9.15913
▁attorney	-9.15913
▁social	-9.15914
▁link	-9.15917
▁read	-9.15939
▁lawyer	-9.15959
▁care	-9.16002
ron	-9.16169
▁passenger	-9.16848
▁crash	-9.16848
▁senator	-9.1686
▁population	-9.16871
▁story	-9.16904
▁2003	-9.16969
▁easter	-9.16989
▁green	-9.17472
▁survey	-9.17791
▁deliver	-9.17792
▁qu	-9.17792
▁dozen	-9.17793
▁river	-9.17796
▁attend	-9.17804
▁rise	-9.17849
stead	-9.17856
▁ll	-9.1799
▁pri	-9.18178
▁doing	-9.18206
▁low	-9.18244
▁australian	-9.18252
▁gun	-9.18272
▁despi	-9.18321
▁sales	-9.18331
▁gain	-9.18337
ran	-9.18339
ified	-9.1839
▁intelligen	-9.18743
▁october	-9.18743
▁document	-9.18744
▁muslim	-9.18744
▁focus	-9.18744
▁let	-9.19082
▁wa	-9.19288
ef	-9.19363
▁threat	-9.19404
▁serve	-9.19405
com	-9.19581
▁bid	-9.19622
bility	-9.1967
▁summit	-9.19705
▁broadcast	-9.19705
▁speech	-9.19705
▁middle	-9.19706
▁florid	-9.1971
▁wife	-9.1972
▁quick	-9.19724
▁cup	-9.19836
▁stage	-9.20035
▁paris	-9.20074
ide	-9.20119
▁areas	-9.20158
gan	-9.20336
unt	-9.20338
low	-9.20481
▁reason	-9.20678
▁quarter	-9.20704
▁nomination	-9.2072
▁fr	-9.20764
▁product	-9.21099
ah	-9.2111
ward	-9.2113
arian	-9.21245
▁ge	-9.21247
▁room	-9.21456
▁rose	-9.21613
▁decided	-9.21658
▁198	-9.21681
▁india	-9.2192
io	-9.22008
▁investigat	-9.22097
▁supporter	-9.22374
▁things	-9.22413
▁crowd	-9.22647
▁debate	-9.2265
▁hamas	-9.22685
▁joint	-9.2312
▁loss	-9.23367
row	-9.23456
▁gold	-9.2347
▁access	-9.23646
▁democrac	-9.23646
▁detail	-9.23647
▁famili	-9.23647
▁message	-9.23647
▁quot	-9.23649
▁push	-9.23658
▁track	-9.23663
▁paper	-9.23677
▁governor	-9.23702
ett	-9.23766
ile	-9.23944
▁seem	-9.24317
time	-9.24419
▁create	-9.24511
▁join	-9.24541
▁suspend	-9.24656
▁relat	-9.24717
car	-9.24829
▁village	-9.24984
▁sch	-9.24998
▁fil	-9.25056
let	-9.25239
▁personal	-9.25257
▁plant	-9.25276
▁pakistani	-9.25283
under	-9.25332
▁cur	-9.25523
▁treat	-9.2562
▁account	-9.25677
▁apparent	-9.25677
▁course	-9.25677
▁rival	-9.25678
▁average	-9.25678
▁gather	-9.25683
▁title	-9.25692
▁getting	-9.25708
▁done	-9.25725
known	-9.25772
more	-9.25823
▁fell	-9.2585
▁manager	-9.25889
came	-9.26094
▁sun	-9.26256
▁almo	-9.26452
▁problem	-9.2661
wide	-9.26663
▁increasing	-9.26708
▁leban	-9.26709
▁blood	-9.2671
▁delay	-9.26715
▁begin	-9.26736
▁mov	-9.26827
▁growth	-9.26852
lie	-9.26986
mark	-9.26997
▁aim	-9.27191
men	-9.27224
▁difficult	-9.27749
▁heavy	-9.2775
▁relations	-9.27756
▁justice	-9.2776
que	-9.27984
att	-9.2818
▁protester	-9.28404
▁fee	-9.28429
▁field	-9.28473
▁carrie	-9.28635
▁club	-9.28803
▁earth	-9.28803
▁trial	-9.28882
▁wait	-9.28956
▁bri	-9.29029
▁though	-9.29114
▁community	-9.29201
▁bad	-9.29444
▁polls	-9.29779
ana	-9.29806
▁initial	-9.29879
gen	-9.2999
▁rank	-9.30027
▁28	-9.30029
▁identified	-9.30116
▁deni	-9.30475
oft	-9.3062
▁id	-9.30842
league	-9.30933
▁contain	-9.30942
▁draw	-9.30942
▁thai	-9.30944
▁royal	-9.30948
▁fl	-9.30984
▁check	-9.31053
ither	-9.31196
▁sentence	-9.31212
mm	-9.31354
▁present	-9.31354
▁africa	-9.31599
▁card	-9.31677
over	-9.31883
wood	-9.31984
▁kilometer	-9.32028
▁period	-9.32028
▁matter	-9.32031
▁included	-9.32099
▁rock	-9.3211
▁serv	-9.32573
abe	-9.32683
ities	-9.32903
ern	-9.32945
▁illin	-9.33122
▁potential	-9.33127
▁brother	-9.33128
▁flood	-9.33133
▁data	-9.33218
▁assembly	-9.33226
▁lives	-9.33536
q	-9.33707
ug	-9.33872
▁wear	-9.33971
president	-9.34178
▁taiwan	-9.34238
▁radio	-9.34239
▁sarkozy	-9.34379
pent	-9.34561
▁marine	-9.34705
▁legal	-9.34818
▁ski	-9.34964
rote	-9.3529
▁oppos	-9.35355
▁neighbor	-9.35359
▁progress	-9.35362
▁accident	-9.35362
▁square	-9.35362
▁picture	-9.35362
▁block	-9.35362
▁issues	-9.35362
▁annual	-9.35363
ual	-9.35417
▁iranian	-9.35465
▁jail	-9.35483
▁manage	-9.35572
▁za	-9.3564
▁measures	-9.35783
▁estimat	-9.35835
▁kar	-9.36098
▁effect	-9.36444
▁similar	-9.36498
▁model	-9.365
some	-9.36502
▁daily	-9.36505
▁employee	-9.36513
▁running	-9.36517
▁deput	-9.36528
▁rocket	-9.3653
▁chung	-9.36557
▁treatment	-9.36578
▁researcher	-9.36628
▁tokyo	-9.36656
▁cor	-9.3674
lor	-9.36768
▁moment	-9.36801
▁mass	-9.37058
▁chicago	-9.37648
▁popular	-9.37648
▁patient	-9.37648
▁robert	-9.3765
▁session	-9.37651
▁sexual	-9.37663
▁harr	-9.37693
ign	-9.37699
▁29	-9.37789
▁rain	-9.37885
▁poor	-9.37966
▁eu	-9.38271
ible	-9.38537
▁winn	-9.38566
au	-9.38664
▁champion	-9.38797
▁resolution	-9.3881
▁recover	-9.38811
▁mountain	-9.38811
▁investment	-9.3883
▁shut	-9.38851
▁indian	-9.38851
▁unit	-9.38954
▁worth	-9.38986
ren	-9.39234
rought	-9.39481
▁estimate	-9.39494
hua	-9.39543
cient	-9.39867
▁declar	-9.39914
his	-9.39976
▁confiden	-9.39987
▁material	-9.39987
▁appeal	-9.39987
▁limit	-9.39988
▁winner	-9.40019
▁deep	-9.40028
cnn	-9.40031
▁rally	-9.40059
▁je	-9.40093
▁dog	-9.40112
▁blam	-9.40272
▁minute	-9.40507
▁class	-9.40538
▁protests	-9.40578
ada	-9.40643
▁kidnapp	-9.41177
▁facilit	-9.4118
▁remov	-9.41184
▁actual	-9.41195
▁lift	-9.41202
▁education	-9.41274
▁blast	-9.41424
▁actor	-9.4147
▁wi	-9.41534
▁page	-9.41647
ou	-9.4174
▁single	-9.41838
▁twi	-9.41871
▁imp	-9.42167
▁leav	-9.42171
▁70	-9.42172
▁sold	-9.42187
lan	-9.42202
gar	-9.42259
mate	-9.42273
▁learn	-9.42383
▁drink	-9.42383
▁image	-9.42385
▁criticiz	-9.42535
ov	-9.42845
▁spoke	-9.43063
▁gar	-9.43075
▁experts	-9.43244
▁warning	-9.43254
▁35	-9.43283
▁spot	-9.43404
▁fighter	-9.43439
▁scor	-9.43531
uff	-9.43534
▁establish	-9.43602
▁professor	-9.43602
▁response	-9.43602
▁birth	-9.43605
▁giant	-9.43634
▁provid	-9.43692
▁26	-9.43724
ash	-9.4381
▁eye	-9.43814
▁color	-9.43878
▁cla	-9.44142
▁owner	-9.44168
ju	-9.4432
em	-9.44341
▁challenge	-9.44354
gi	-9.44544
▁warm	-9.44561
ez	-9.44646
▁continued	-9.44688
pl	-9.44825
▁approach	-9.44836
▁ceremon	-9.44836
▁particular	-9.44836
▁sanction	-9.44836
▁screen	-9.44836
▁texas	-9.44836
▁parents	-9.44839
▁brain	-9.44839
▁transfer	-9.44841
▁malik	-9.44853
▁performance	-9.44861
▁prize	-9.44868
giving	-9.44883
▁euro	-9.44891
▁bodie	-9.44913
burg	-9.44919
▁argu	-9.44935
▁em	-9.4509
▁burn	-9.45189
ator	-9.45413
▁citizens	-9.45514
▁drive	-9.46015
▁colombia	-9.46086
▁husband	-9.46086
▁reject	-9.46086
▁availab	-9.46087
▁firm	-9.46089
▁electric	-9.46094
▁rising	-9.46096
▁require	-9.46182
▁majorit	-9.4621
▁indonesia	-9.46214
▁asian	-9.46318
▁arab	-9.46347
▁date	-9.4651
▁mayor	-9.46947
▁fill	-9.46954
▁jon	-9.46962
▁dispute	-9.47353
▁brown	-9.47353
▁william	-9.47356
▁brief	-9.47365
▁compar	-9.47409
▁tourist	-9.47469
▁dropp	-9.47472
ture	-9.47549
▁han	-9.47606
▁non	-9.47651
len	-9.47699
▁dow	-9.47749
▁vot	-9.47751
val	-9.47896
▁ya	-9.47969
ft	-9.48008
fu	-9.48128
▁suspected	-9.48185
▁cast	-9.48192
ure	-9.483
▁bit	-9.48302
▁fac	-9.48625
responsible	-9.48634
▁insurgent	-9.48634
▁honor	-9.48638
hutto	-9.48728
▁kind	-9.48734
▁300	-9.48768
ji	-9.48879
▁ready	-9.48988
▁prepar	-9.49206
▁commander	-9.49343
▁disc	-9.49453
ters	-9.49626
▁ambassador	-9.49933
▁certain	-9.49933
▁shiite	-9.49933
▁murder	-9.49933
▁science	-9.49934
▁trading	-9.49934
▁turkey	-9.49941
agg	-9.49982
▁airline	-9.50049
▁huge	-9.50234
well	-9.50427
ari	-9.50517
▁forward	-9.50734
▁yo	-9.50753
vin	-9.51068
▁fear	-9.51131
ek	-9.51153
▁english	-9.51249
▁century	-9.51249
▁afternoon	-9.5125
▁combat	-9.5125
▁finish	-9.5125
▁announcement	-9.51251
▁italian	-9.51252
▁replace	-9.51285
dom	-9.51438
▁cities	-9.51546
▁nor	-9.51636
win	-9.51717
pro	-9.51758
▁shooting	-9.51858
awa	-9.51972
▁respond	-9.522
▁gi	-9.52226
▁sam	-9.52241
llah	-9.52363
▁abo	-9.52415
▁doctors	-9.5243
▁dar	-9.52461
▁object	-9.52582
▁avoid	-9.52583
▁transport	-9.52588
▁nav	-9.52637
▁common	-9.52661
▁motor	-9.52682
▁everyone	-9.52692
truck	-9.52742
police	-9.52751
special	-9.52753
▁rev	-9.52824
▁nam	-9.52909
▁lack	-9.52913
▁holding	-9.53138
lip	-9.53444
▁turk	-9.53932
▁explosion	-9.53933
▁helicopter	-9.53933
▁representative	-9.53933
▁relationship	-9.53933
▁mexic	-9.53934
▁embass	-9.53935
▁blue	-9.53937
▁demonstration	-9.5399
▁hearing	-9.53994
▁90	-9.54036
▁80	-9.54233
▁insist	-9.54394
▁yu	-9.54426
▁span	-9.54729
▁author	-9.54745
▁critical	-9.54772
ade	-9.54798
▁pai	-9.54878
zi	-9.54884
▁lad	-9.55195
pain	-9.55233
▁represent	-9.55303
▁amount	-9.55304
▁pound	-9.55304
▁normal	-9.55305
ison	-9.5534
▁activities	-9.55392
▁del	-9.55443
▁tru	-9.55454
▁fish	-9.55905
▁mail	-9.55921
▁prince	-9.56511
▁success	-9.56532
▁earthquake	-9.56692
▁magazine	-9.56692
▁saudi	-9.56693
▁earn	-9.56697
▁probabl	-9.56697
▁mc	-9.56701
▁value	-9.56707
▁baby	-9.56741
▁meter	-9.56928
drew	-9.5704
▁rep	-9.57245
▁factor	-9.57322
▁reform	-9.5734
▁45	-9.5746
▁uk	-9.57642
▁often	-9.57682
▁christ	-9.57698
▁delegates	-9.57848
▁leg	-9.57859
▁propos	-9.57882
▁ice	-9.57961
▁pu	-9.57996
▁import	-9.5807
▁significant	-9.581
▁photograph	-9.58102
▁boost	-9.58107
▁historic	-9.58131
▁resume	-9.58137
▁journalist	-9.58146
head	-9.58171
▁camera	-9.58471
tri	-9.58482
ston	-9.58485
mph	-9.58518
▁cars	-9.58547
▁canno	-9.58615
▁command	-9.58747
▁levels	-9.5904
hak	-9.59062
▁heard	-9.59146
ory	-9.59205
ification	-9.59274
ches	-9.59282
nato	-9.59311
▁diplomatic	-9.59493
▁separate	-9.59529
▁standard	-9.59583
▁partner	-9.5969
▁usual	-9.59693
▁bak	-9.59901
▁critic	-9.59913
pol	-9.60093
bul	-9.60573
▁31	-9.60742
▁cabinet	-9.60978
▁surprise	-9.60978
▁territor	-9.60979
▁allegation	-9.61006
▁environmental	-9.61243
print	-9.6139
▁slow	-9.61516
▁tough	-9.61544
ox	-9.61686
▁rare	-9.6171
▁fine	-9.61755
▁jet	-9.6184
▁produc	-9.62006
▁band	-9.6201
berg	-9.62133
olog	-9.62251
▁terror	-9.62323
▁manufactur	-9.62449
▁satellite	-9.62449
▁struggl	-9.62449
▁premier	-9.62449
▁weather	-9.62449
▁queen	-9.62458
▁auto	-9.62468
▁christian	-9.62486
▁relative	-9.62527
war	-9.62546
▁raise	-9.62599
▁troop	-9.62675
room	-9.62758
▁statu	-9.62793
▁boat	-9.62798
where	-9.62806
▁dae	-9.62971
▁refugee	-9.63011
▁teen	-9.63078
▁receive	-9.63193
mean	-9.63396
▁improve	-9.63413
▁build	-9.63414
▁fata	-9.63629
▁cent	-9.63733
▁dia	-9.63847
▁seiz	-9.63866
fur	-9.63887
aught	-9.6394
▁celebrat	-9.63941
▁affair	-9.63941
▁benefit	-9.63941
▁contact	-9.63941
▁criminal	-9.63941
▁mobile	-9.63942
▁competition	-9.63953
▁commercial	-9.6396
▁index	-9.63961
▁export	-9.63995
▁massive	-9.64012
▁powerful	-9.64026
▁investor	-9.64085
▁fer	-9.64112
▁sound	-9.64384
▁engineer	-9.64423
▁career	-9.64676
back	-9.64734
▁independen	-9.64974
▁size	-9.65087
▁dan	-9.65246
▁academ	-9.65456
▁conservative	-9.65456
▁difference	-9.65456
▁review	-9.65456
▁display	-9.65458
▁voice	-9.65459
▁remarks	-9.65464
▁football	-9.65464
▁panel	-9.65473
▁richard	-9.65479
▁virginia	-9.65519
▁400	-9.65552
np	-9.6563
▁secret	-9.65777
what	-9.65814
▁finance	-9.6595
▁rich	-9.66036
last	-9.66125
▁gree	-9.66127
▁ph	-9.66427
▁roman	-9.66516
▁rob	-9.66559
ional	-9.66574
board	-9.6667
▁snow	-9.66692
lew	-9.66974
▁monitor	-9.66995
▁northeast	-9.66995
▁pacif	-9.66995
▁carolin	-9.67003
▁hurt	-9.67004
▁peaceful	-9.67042
▁uri	-9.67196
▁traditional	-9.67208
▁natural	-9.67229
▁xin	-9.67259
▁perform	-9.67295
north	-9.6738
▁moon	-9.6738
▁32	-9.67488
kept	-9.67592
af	-9.67697
▁itself	-9.68065
▁themsel	-9.6807
▁bla	-9.68198
▁abuse	-9.68199
▁toll	-9.68501
▁activist	-9.68557
▁maintain	-9.68558
▁75	-9.68592
▁2001	-9.68802
▁phil	-9.68896
▁jew	-9.68924
▁merc	-9.68927
▁nasa	-9.69275
▁hands	-9.69279
▁sharp	-9.69506
▁friends	-9.70035
▁respect	-9.70091
▁behavior	-9.70145
▁alliance	-9.70147
▁extend	-9.70147
▁smith	-9.70148
▁industrial	-9.70207
pool	-9.70209
▁james	-9.70248
▁tech	-9.70253
▁bang	-9.703
▁diplomat	-9.70319
▁jun	-9.70385
▁thing	-9.70409
▁driver	-9.70438
▁code	-9.70641
cho	-9.70678
▁regime	-9.70683
▁buil	-9.70724
▁spread	-9.70732
▁peter	-9.70886
▁shin	-9.71106
▁range	-9.71499
▁journal	-9.71706
▁opinion	-9.71758
▁responsibilit	-9.71758
▁college	-9.71758
▁female	-9.71758
▁detain	-9.71758
▁holiday	-9.71758
▁admitted	-9.71761
▁oscar	-9.71761
▁species	-9.71761
▁impos	-9.7177
▁barrel	-9.71813
▁mad	-9.71826
▁jump	-9.71873
▁trouble	-9.7188
▁constitutional	-9.72154
▁original	-9.72167
south	-9.72255
▁wood	-9.72354
▁training	-9.72391
▁ring	-9.72429
▁investigator	-9.72553
▁formal	-9.72822
lost	-9.72932
cha	-9.73108
▁experience	-9.73137
▁fast	-9.73168
▁explosive	-9.73397
▁language	-9.73397
▁nominee	-9.73397
▁opportunit	-9.73397
▁pennsylvania	-9.73397
▁militia	-9.73397
▁escap	-9.73397
▁contest	-9.73399
▁answer	-9.73399
▁capture	-9.73413
▁adviser	-9.73431
▁196	-9.73463
▁leadership	-9.73467
▁speed	-9.73589
▁flow	-9.73593
▁raid	-9.73602
▁committ	-9.73602
▁italy	-9.73668
▁discussion	-9.73712
ground	-9.73876
▁stopp	-9.73947
now	-9.73948
eva	-9.7398
▁fair	-9.74192
▁surge	-9.74271
▁content	-9.74426
▁mine	-9.74579
▁environment	-9.7476
▁truck	-9.74918
▁produce	-9.75036
▁convicted	-9.75064
▁treasur	-9.75064
▁fifth	-9.75064
▁pilot	-9.75064
▁profit	-9.75065
▁shock	-9.75067
two	-9.75091
▁agent	-9.75107
▁pet	-9.75161
▁cancel	-9.75164
▁farm	-9.75206
▁anything	-9.7526
▁born	-9.75412
▁bann	-9.75436
▁jan	-9.75439
▁song	-9.75553
friend	-9.75569
town	-9.75584
▁independent	-9.75597
▁vari	-9.75746
mir	-9.75752
▁tim	-9.75769
▁sale	-9.75779
▁abu	-9.75927
▁pla	-9.75938
▁bi	-9.76504
▁prisoner	-9.76712
▁encourag	-9.76759
▁institute	-9.76759
▁violent	-9.76759
▁adopt	-9.76759
▁defeat	-9.76759
▁device	-9.7676
▁choice	-9.76768
▁style	-9.76796
▁reactor	-9.76824
▁discovered	-9.76833
insula	-9.76844
▁197	-9.76863
▁photos	-9.76989
▁reu	-9.7704
▁2000	-9.77042
▁37	-9.77069
▁holly	-9.77099
▁sky	-9.771
▁fears	-9.7713
london	-9.77296
field	-9.77302
bar	-9.77309
even	-9.77357
▁customer	-9.77575
▁lone	-9.77688
cal	-9.77747
▁mind	-9.7812
▁pal	-9.78141
ott	-9.78193
▁prove	-9.78453
▁condemn	-9.78483
▁hurricane	-9.78483
▁positive	-9.78483
▁bridge	-9.78483
▁envoy	-9.78484
▁quake	-9.78484
▁addition	-9.78554
▁forc	-9.78574
▁communication	-9.78702
ado	-9.78715
cent	-9.78739
▁piece	-9.78767
olmer	-9.78813
▁evening	-9.78996
work	-9.7905
obama	-9.79053
▁relie	-9.79159
▁angel	-9.7935
▁ham	-9.79411
ization	-9.79425
▁cuba	-9.7947
▁student	-9.79513
▁forest	-9.79542
▁pat	-9.7962
▁micros	-9.79689
▁gate	-9.79798
▁severe	-9.798
geles	-9.79836
▁mary	-9.80112
ester	-9.802
▁bin	-9.80233
▁prosecution	-9.80237
▁supplie	-9.80237
▁suprem	-9.80237
▁prompt	-9.80238
▁pursu	-9.80241
▁kurd	-9.80243
▁cancer	-9.8025
▁spring	-9.80255
▁mosco	-9.80259
ogle	-9.80302
▁chang	-9.80306
▁hop	-9.80375
nel	-9.80513
▁movement	-9.80569
right	-9.8073
▁sure	-9.80772
▁mag	-9.80978
erson	-9.80997
▁bear	-9.81198
▁measure	-9.81354
▁pain	-9.81561
you	-9.81633
▁republic	-9.81824
▁polic	-9.81936
pat	-9.81987
▁corrupt	-9.82023
▁society	-9.82023
▁fresh	-9.82023
▁recall	-9.82024
▁cloth	-9.8205
▁syria	-9.82065
▁occurr	-9.821
▁150	-9.82222
▁finding	-9.82238
▁exist	-9.82274
vil	-9.82449
gue	-9.82479
▁hot	-9.82651
▁reserve	-9.82746
▁beach	-9.82753
600	-9.82834
light	-9.83044
ept	-9.83331
▁involve	-9.83548
▁il	-9.83567
▁wound	-9.83574
▁tibet	-9.83607
▁resign	-9.83771
▁character	-9.83841
▁electronic	-9.83841
▁georgia	-9.83841
▁restaurant	-9.83841
▁impact	-9.83841
▁religio	-9.83842
▁understand	-9.83842
▁shuttle	-9.83842
▁virus	-9.83843
▁guilt	-9.83846
▁neighborhood	-9.83846
additional	-9.8385
▁nicol	-9.83858
▁tank	-9.83862
▁adult	-9.83864
▁aircraft	-9.83864
▁dangerous	-9.83868
▁bird	-9.83876
▁abba	-9.83928
▁appearance	-9.83966
▁winds	-9.8402
▁har	-9.84079
▁pack	-9.84105
▁box	-9.84142
▁stone	-9.84215
▁decline	-9.84231
dai	-9.84378
down	-9.84515
▁ii	-9.84578
▁hair	-9.84603
omic	-9.85158
▁god	-9.85398
▁appoint	-9.8562
ise	-9.85627
▁defend	-9.85662
ego	-9.85691
▁extreme	-9.85693
▁trigger	-9.85693
▁predict	-9.85693
▁ticket	-9.85693
▁infect	-9.85693
▁favorite	-9.85694
▁christmas	-9.85696
nivers	-9.85704
cular	-9.85714
▁collapse	-9.85818
▁myung	-9.85819
ium	-9.8586
oli	-9.86137
▁pledge	-9.86332
▁barr	-9.86348
adr	-9.86404
bush	-9.86417
▁shown	-9.8648
▁row	-9.86541
iya	-9.8662
▁x	-9.86669
dur	-9.86674
▁door	-9.86688
▁gone	-9.86722
▁aide	-9.87149
▁constitution	-9.87293
▁acknowledg	-9.8758
▁conflict	-9.8758
▁audience	-9.8758
▁complex	-9.8758
▁necessar	-9.8758
▁possibilit	-9.8758
▁attract	-9.8758
▁option	-9.8758
▁supply	-9.8758
▁mosque	-9.87582
▁criticis	-9.87585
▁specific	-9.87585
▁beginning	-9.87591
▁penalt	-9.87594
terior	-9.87613
▁invit	-9.87683
▁deadline	-9.87703
▁joined	-9.87748
▁36	-9.8775
▁tree	-9.8778
▁2009	-9.87809
earlie	-9.87826
▁smoke	-9.8796
▁bay	-9.88125
▁conc	-9.8826
▁cre	-9.88345
▁wrong	-9.88372
▁sunni	-9.88436
hran	-9.88769
▁mari	-9.88793
▁mal	-9.88816
▁strip	-9.88871
▁flag	-9.89015
▁eat	-9.89024
▁terr	-9.89158
▁terroris	-9.89219
▁withdraw	-9.8928
▁violat	-9.89358
▁33	-9.89486
▁assassinat	-9.89503
▁software	-9.89503
▁venezuela	-9.89503
▁expand	-9.89503
▁happy	-9.89504
▁museum	-9.89504
▁trail	-9.89508
▁heavi	-9.89512
▁apple	-9.89512
▁advi	-9.89535
▁freedom	-9.89537
▁route	-9.89561
▁shop	-9.89569
▁hunt	-9.89667
ending	-9.89678
ram	-9.89771
▁net	-9.89801
10	-9.89874
▁nur	-9.90277
hio	-9.90298
▁broad	-9.90335
▁quit	-9.90932
part	-9.90997
▁controvers	-9.91038
▁rape	-9.91091
▁alcohol	-9.91464
▁driving	-9.91464
▁scandal	-9.91464
▁cooperati	-9.91464
▁marriage	-9.91464
▁sleep	-9.91464
▁examin	-9.91465
▁coach	-9.91473
▁francis	-9.91483
▁successful	-9.91491
▁commitment	-9.915
▁dress	-9.91506
▁tony	-9.91536
▁ceo	-9.9154
▁kids	-9.91571
▁declaration	-9.91594
▁sector	-9.91611
▁advance	-9.91765
▁et	-9.91966
jo	-9.92077
▁alone	-9.92084
▁van	-9.92187
▁riot	-9.92294
china	-9.9239
gun	-9.92672
olar	-9.92703
ically	-9.92864
▁prepared	-9.92961
▁planet	-9.93029
▁smok	-9.93078
800	-9.93273
▁discover	-9.9339
▁custody	-9.93464
▁detect	-9.93464
▁participat	-9.93464
▁tight	-9.93464
▁condoleez	-9.93464
▁anonym	-9.93464
▁fraud	-9.93464
▁unveil	-9.93464
script	-9.93465
▁tension	-9.93465
▁ocean	-9.93466
▁brand	-9.93468
▁clean	-9.93468
▁reveal	-9.93469
▁plot	-9.93478
▁assistant	-9.93482
▁championship	-9.93486
▁massac	-9.93506
▁package	-9.9351
▁herald	-9.93527
▁master	-9.93608
▁sports	-9.93615
▁wild	-9.93672
▁bl	-9.93689
▁sav	-9.93708
eath	-9.9384
▁apologiz	-9.93848
▁hall	-9.93898
▁hous	-9.93904
▁controll	-9.9395
▁cold	-9.93984
▁parliamentar	-9.9412
▁whom	-9.94244
▁visitor	-9.94253
▁rom	-9.9433
house	-9.94334
▁pope	-9.9434
mus	-9.94443
▁determine	-9.94752
▁easi	-9.94771
▁51	-9.94847
▁reduce	-9.94909
▁propert	-9.9519
▁traffic	-9.95373
▁abduct	-9.95504
▁astronaut	-9.95504
▁budget	-9.95504
▁disaster	-9.95504
▁domestic	-9.95504
▁festival	-9.95504
▁legislati	-9.95504
▁implement	-9.95504
▁southeast	-9.95505
▁overseas	-9.95505
▁spark	-9.95506
▁stress	-9.95506
▁throw	-9.95507
▁teacher	-9.9552
rizon	-9.95538
▁extra	-9.95612
▁minor	-9.95768
ood	-9.95795
▁proposal	-9.95827
▁climate	-9.9593
▁save	-9.95971
▁52	-9.96007
▁repeated	-9.96196
▁surrounding	-9.9627
htt	-9.96575
▁pledg	-9.96873
▁ball	-9.97106
▁crud	-9.9719
▁ill	-9.9726
▁declin	-9.97338
▁bag	-9.97353
▁drop	-9.97401
▁activit	-9.97452
graph	-9.97492
▁compet	-9.9758
▁headquarter	-9.97588
▁assault	-9.97588
▁solution	-9.97588
▁categor	-9.97588
▁punish	-9.97589
▁fix	-9.9759
▁zone	-9.97595
▁failure	-9.97615
▁retir	-9.97635
▁version	-9.97641
hang	-9.97669
▁else	-9.9767
▁floor	-9.97707
▁setting	-9.97708
▁roll	-9.97733
▁dark	-9.97832
▁pop	-9.97849
▁allie	-9.9827
fre	-9.98311
▁55	-9.98342
ahoo	-9.98486
despi	-9.98528
▁flo	-9.98537
▁loan	-9.98737
cra	-9.99081
▁jer	-9.99112
▁chair	-9.9919
▁feature	-9.9966
▁dismiss	-9.99715
▁individual	-9.99715
▁introduc	-9.99715
▁tournament	-9.99715
▁dream	-9.99716
▁consult	-9.99719
▁engag	-9.99746
lum	-9.99758
▁surgery	-9.99773
▁kenn	-9.99804
ilbo	-9.99825
logue	-9.99876
▁sometime	-9.99918
▁beyon	-10.0002
▁stem	-10.0003
▁trust	-10.0007
▁winter	-10.0007
▁intend	-10.0026
▁bomber	-10.0034
▁weight	-10.0052
mission	-10.0059
itting	-10.0064
hire	-10.0069
▁bal	-10.0083
cide	-10.0092
▁wave	-10.0094
▁promot	-10.0095
▁presen	-10.0101
▁negotiat	-10.0148
enna	-10.0149
nami	-10.0163
ku	-10.0168
▁govern	-10.0171
▁mel	-10.0185
▁employ	-10.0186
craft	-10.0188
▁distribut	-10.0189
▁evacuated	-10.0189
▁license	-10.0189
▁famous	-10.0189
▁actress	-10.0189
▁vessel	-10.0189
▁somali	-10.0189
▁ronald	-10.0189
▁cycl	-10.0189
▁album	-10.0189
▁correspondent	-10.0189
▁studie	-10.0189
▁text	-10.0191
▁gord	-10.0193
▁select	-10.0193
▁ongoing	-10.0194
▁jong	-10.0234
body	-10.0294
▁signal	-10.032
ida	-10.0335
▁guy	-10.034
▁male	-10.0353
ball	-10.0364
▁collect	-10.0397
▁memor	-10.0407
▁egypt	-10.0408
▁brazil	-10.0408
▁danger	-10.0411
▁convention	-10.0411
▁entertainment	-10.0411
▁practice	-10.0411
▁regular	-10.0411
▁singapore	-10.0411
▁revolution	-10.0411
▁channel	-10.0411
▁apartment	-10.0411
▁felt	-10.0412
▁assistance	-10.0413
▁paint	-10.0418
▁location	-10.0423
▁250	-10.0431
▁doctor	-10.0437
▁negotiator	-10.0438
▁stadi	-10.0443
▁combin	-10.0455
▁table	-10.0468
▁farmer	-10.0484
▁item	-10.0488
▁secure	-10.0511
since	-10.0549
▁slight	-10.0576
▁arabia	-10.0596
put	-10.0607
▁founder	-10.0612
▁emerg	-10.0633
▁speaker	-10.0635
▁8212	-10.0638
▁abandon	-10.0638
▁doubt	-10.0638
▁register	-10.0638
▁straight	-10.0638
▁contribut	-10.0638
▁trillion	-10.0638
▁conclud	-10.0638
▁alaska	-10.0638
▁referr	-10.0639
▁concert	-10.0639
▁married	-10.0639
▁type	-10.064
▁influence	-10.0643
▁zoo	-10.0648
▁tape	-10.0687
▁shap	-10.0704
▁worse	-10.0705
▁foundation	-10.0709
nix	-10.0726
salem	-10.0733
▁lake	-10.075
maker	-10.0751
speak	-10.0753
▁heat	-10.0769
not	-10.0798
▁lev	-10.0824
▁gov	-10.0824
▁welcome	-10.0869
▁affiliate	-10.0871
▁medicine	-10.0871
▁enjoy	-10.0871
▁resort	-10.0871
▁pregnan	-10.0874
▁portug	-10.0875
▁vow	-10.0875
▁rush	-10.0879
lated	-10.0884
▁resist	-10.0887
▁vega	-10.0889
long	-10.0896
▁singer	-10.0896
▁demonstrator	-10.0905
▁gang	-10.0923
▁humanit	-10.0925
20	-10.0934
▁jung	-10.0935
▁chr	-10.095
oid	-10.0964
▁mug	-10.0973
ably	-10.0991
western	-10.0993
urani	-10.1005
bol	-10.101
load	-10.104
▁charles	-10.1109
▁globe	-10.1109
▁remote	-10.1109
▁rapid	-10.1109
▁babies	-10.1109
▁palace	-10.1109
▁equal	-10.1109
▁regard	-10.1109
▁crackdown	-10.111
▁assets	-10.111
▁debt	-10.1111
▁enem	-10.1116
titude	-10.1122
▁active	-10.1126
▁194	-10.1126
▁zimbabwe	-10.1131
▁42	-10.1132
dog	-10.1132
▁inform	-10.1139
▁score	-10.114
▁diana	-10.1141
▁shoe	-10.1144
12	-10.1176
▁cri	-10.1193
▁fit	-10.1223
▁continu	-10.1229
hill	-10.1253
▁liver	-10.1258
▁organizer	-10.1283
▁witnesse	-10.1295
▁cultur	-10.1316
▁ok	-10.132
▁glas	-10.1321
▁producer	-10.1322
▁comfort	-10.1352
▁reflect	-10.1353
▁fashion	-10.1353
▁sudden	-10.1353
▁sensitiv	-10.1353
▁agenda	-10.1353
▁editor	-10.1353
▁pleas	-10.1353
▁batter	-10.1353
▁ukrain	-10.1353
ntagon	-10.1354
▁inspir	-10.1354
▁automaker	-10.1354
▁speculation	-10.1358
ssein	-10.1363
▁guest	-10.1368
▁bond	-10.1375
▁blow	-10.1382
▁feder	-10.1384
▁38	-10.1387
▁torch	-10.139
▁grave	-10.1392
▁34	-10.1392
▁54	-10.1394
▁expert	-10.1425
▁soldier	-10.143
700	-10.1431
50	-10.1451
▁resolve	-10.1483
▁pair	-10.1483
▁perve	-10.1494
▁emb	-10.151
iana	-10.1527
▁pur	-10.1558
▁apolog	-10.1561
▁prov	-10.1593
▁casualties	-10.1603
▁delegation	-10.1603
▁disappear	-10.1603
▁subject	-10.1603
▁virtual	-10.1603
▁diamond	-10.1603
▁veteran	-10.1603
▁spirit	-10.1603
▁martin	-10.1604
▁grant	-10.1604
▁spear	-10.1604
▁qualit	-10.1606
▁bailout	-10.1606
mun	-10.1608
▁log	-10.1608
▁mount	-10.1613
▁chose	-10.1619
▁whale	-10.1629
▁stall	-10.163
▁witness	-10.1663
▁edge	-10.1675
▁victim	-10.1689
▁lend	-10.1704
▁via	-10.1709
▁skin	-10.1716
▁agenc	-10.1742
▁stepp	-10.1748
▁counter	-10.1766
hick	-10.1804
▁damag	-10.1806
▁harm	-10.1831
▁generat	-10.1848
attle	-10.1853
oud	-10.1855
▁disrupt	-10.1859
▁compound	-10.1859
▁division	-10.1859
▁recession	-10.1859
▁telephone	-10.1859
▁currenc	-10.1859
▁auction	-10.1859
▁nepal	-10.186
▁ensure	-10.186
ribal	-10.1861
▁divid	-10.1861
▁nevad	-10.1861
▁enrich	-10.1862
▁pirate	-10.1863
▁highlight	-10.1867
▁artist	-10.1875
▁organ	-10.1876
▁sense	-10.1909
▁slam	-10.1912
▁tsu	-10.1916
▁hol	-10.1918
▁suit	-10.1919
▁entr	-10.1922
▁cru	-10.1942
shore	-10.1944
▁geno	-10.1953
▁hamp	-10.1961
▁citizen	-10.1979
hand	-10.1988
▁natur	-10.2004
beijing	-10.2004
▁hang	-10.2019
▁designer	-10.2024
ural	-10.2038
zai	-10.2039
▁arch	-10.2041
▁path	-10.205
▁closer	-10.205
▁constructi	-10.2052
dney	-10.208
▁steve	-10.2081
▁locat	-10.211
▁gunm	-10.2115
▁coordinat	-10.2123
▁economist	-10.2123
▁malaysia	-10.2123
▁obtain	-10.2123
▁perfect	-10.2123
▁climb	-10.2123
▁crucial	-10.2123
▁machine	-10.2123
▁enforce	-10.2123
▁dubai	-10.2123
▁nobel	-10.2123
▁prais	-10.2123
corporate	-10.2123
▁internal	-10.2123
▁halt	-10.2124
▁strain	-10.2125
▁michi	-10.2127
▁eventual	-10.2127
▁income	-10.2128
▁deployment	-10.2129
▁visa	-10.213
▁flee	-10.2133
▁stake	-10.2138
▁48	-10.215
live	-10.2159
▁catch	-10.2176
agan	-10.2177
▁kick	-10.2183
▁none	-10.2187
▁isolat	-10.2191
kov	-10.2199
vic	-10.2206
▁clashe	-10.225
kok	-10.2267
itzer	-10.2285
▁youth	-10.2294
▁trans	-10.2333
▁jur	-10.2346
▁rang	-10.2352
▁basic	-10.2373
▁lose	-10.2373
▁coup	-10.2393
▁mistake	-10.2393
▁occup	-10.2393
▁regulation	-10.2393
▁surface	-10.2393
▁symbol	-10.2393
islamabad	-10.2393
▁unemploy	-10.2393
▁narrow	-10.2393
▁teenager	-10.2393
▁modern	-10.2393
▁endanger	-10.2393
▁wheel	-10.2393
▁serbia	-10.2393
▁defin	-10.2394
▁install	-10.2394
▁transition	-10.2395
▁valle	-10.2397
▁delhi	-10.2398
▁joong	-10.2401
▁wake	-10.2404
▁effective	-10.2406
▁wire	-10.2406
▁ku	-10.2408
ubble	-10.2412
ville	-10.2414
▁bull	-10.2417
azir	-10.2417
▁strengthen	-10.2419
lanta	-10.2426
tts	-10.2438
30	-10.2441
▁scale	-10.2459
▁highway	-10.2482
▁promote	-10.2512
▁musa	-10.2514
hur	-10.2514
imply	-10.2531
▁handl	-10.2545
broad	-10.2551
▁bru	-10.2555
bow	-10.2563
stein	-10.2564
▁dam	-10.2566
▁luc	-10.2585
▁hat	-10.2599
fire	-10.2608
▁hole	-10.2624
▁multi	-10.2651
▁recommend	-10.2663
▁deploy	-10.2663
▁disappoint	-10.2671
appropriate	-10.2671
▁agricultur	-10.2671
▁guarantee	-10.2671
▁purpose	-10.2671
▁physical	-10.2671
▁sponsor	-10.2671
▁achieve	-10.2671
▁entire	-10.2671
▁exact	-10.2671
▁method	-10.2671
▁depend	-10.2671
▁carbon	-10.2671
▁orbit	-10.2673
▁clon	-10.2673
▁robot	-10.2673
▁jack	-10.2673
▁cruise	-10.2674
mouth	-10.2684
▁leak	-10.2686
▁sort	-10.269
him	-10.2696
▁pose	-10.2698
▁woo	-10.2699
▁endors	-10.2704
▁hung	-10.2705
▁henr	-10.2719
▁protection	-10.2721
▁tear	-10.273
▁worrie	-10.273
▁maker	-10.2743
▁belong	-10.2744
▁amaz	-10.2766
▁realit	-10.277
▁settl	-10.278
▁ease	-10.2785
overall	-10.2822
▁hospitaliz	-10.284
▁anger	-10.2855
ami	-10.2876
huse	-10.2893
▁favor	-10.2911
▁scot	-10.2916
▁purchase	-10.2916
lash	-10.2944
▁airstrike	-10.2956
▁exhibit	-10.2956
▁inspector	-10.2956
▁magnitude	-10.2956
▁opponent	-10.2956
▁surrender	-10.2956
▁degree	-10.2956
▁lawsuit	-10.2956
▁explor	-10.2956
▁cleric	-10.2956
▁louis	-10.2956
▁patrol	-10.2956
▁beckham	-10.2956
▁bound	-10.2957
▁wolf	-10.2957
▁tiger	-10.2964
ilateral	-10.2964
▁restriction	-10.2965
▁resignation	-10.2969
daq	-10.2969
▁ethic	-10.2971
▁violation	-10.2978
▁flame	-10.2979
▁wonder	-10.2981
▁43	-10.2982
▁sight	-10.299
▁princess	-10.2994
▁47	-10.2996
▁harv	-10.2996
▁elector	-10.3006
cher	-10.3019
▁construct	-10.3033
▁manch	-10.304
▁biolog	-10.3041
lov	-10.3129
front	-10.3133
▁angr	-10.3149
▁possibl	-10.318
▁65	-10.3226
▁connect	-10.3236
▁crack	-10.325
▁explod	-10.325
▁advantage	-10.325
▁catholic	-10.325
▁destructi	-10.325
▁knowledge	-10.325
▁prostitut	-10.325
▁reduction	-10.325
▁temporar	-10.325
▁tomorrow	-10.325
▁vietnam	-10.325
▁vladi	-10.325
▁boycott	-10.325
▁ethnic	-10.325
▁orchestra	-10.325
▁shrine	-10.325
▁choose	-10.325
▁client	-10.325
▁madrid	-10.3251
opher	-10.3251
▁drove	-10.3251
▁kosov	-10.3251
▁wealth	-10.3251
▁relay	-10.3253
▁aware	-10.3254
▁cutting	-10.3255
▁alert	-10.3258
▁task	-10.3259
▁elder	-10.326
▁era	-10.3261
▁rough	-10.3269
▁sister	-10.3272
tuck	-10.3272
▁probe	-10.3276
▁restore	-10.328
▁jim	-10.3284
▁pitt	-10.3289
▁64	-10.329
clinto	-10.3291
▁runway	-10.3314
▁true	-10.332
▁musical	-10.333
▁improv	-10.3356
▁diet	-10.3387
fare	-10.3433
▁victor	-10.3435
japan	-10.3435
space	-10.3438
▁burma	-10.3453
kim	-10.3474
▁sentenc	-10.3485
▁41	-10.3486
clusive	-10.3553
▁divorce	-10.3553
▁frequent	-10.3553
▁philippine	-10.3553
▁professional	-10.3553
▁sustain	-10.3553
▁offensive	-10.3553
▁canadian	-10.3553
▁permanent	-10.3553
▁dutch	-10.3554
▁indict	-10.3554
▁technical	-10.3554
▁faith	-10.3554
▁label	-10.3554
▁mahm	-10.3554
▁sudan	-10.3556
▁abdulla	-10.3558
▁interfer	-10.3559
▁corner	-10.3559
▁promis	-10.3564
▁suspicion	-10.3569
▁mention	-10.3572
▁68	-10.3589
▁withdrawal	-10.3589
▁44	-10.359
▁payment	-10.3593
▁culture	-10.3601
▁complaint	-10.3601
▁jose	-10.3605
chuan	-10.3644
▁determin	-10.3667
▁hiv	-10.3668
▁maca	-10.3689
▁santa	-10.373
hood	-10.3732
var	-10.374
washington	-10.3747
▁communit	-10.3747
korea	-10.3754
▁fate	-10.3783
ologist	-10.3786
▁thre	-10.3792
▁stoo	-10.3793
▁southwest	-10.3799
just	-10.3816
▁complain	-10.3817
wang	-10.3834
awi	-10.3843
▁53	-10.3845
▁freez	-10.3848
▁nominat	-10.3852
▁tall	-10.3858
▁drama	-10.386
▁authoriz	-10.3864
▁atmospher	-10.3866
▁depressi	-10.3866
▁example	-10.3866
▁identify	-10.3866
▁journey	-10.3866
▁strategy	-10.3866
▁temperature	-10.3866
▁afford	-10.3866
▁stimul	-10.3866
▁liberal	-10.3866
▁suburb	-10.3866
▁urban	-10.3866
▁household	-10.3866
▁plead	-10.3866
▁frank	-10.3866
▁remember	-10.3866
▁philip	-10.3866
▁ghaz	-10.3866
▁excit	-10.3866
▁counterpart	-10.3867
▁nadal	-10.3867
▁memorial	-10.3874
gulf	-10.3874
▁reaction	-10.3878
▁mix	-10.3881
▁collection	-10.3887
▁split	-10.39
▁comedy	-10.39
▁steven	-10.3925
▁exile	-10.3935
▁realiz	-10.3968
▁organiz	-10.3971
▁exit	-10.398
▁gap	-10.4015
▁shoot	-10.4039
spread	-10.4069
authorit	-10.407
▁rio	-10.4072
sumption	-10.4107
▁tend	-10.4151
▁weigh	-10.4153
▁hil	-10.416
▁colli	-10.4161
eigh	-10.4168
former	-10.4187
surance	-10.4188
▁equipment	-10.4189
▁exercise	-10.4189
▁institution	-10.4189
▁prospect	-10.4189
▁resource	-10.4189
▁thomas	-10.4189
▁emotion	-10.4189
▁expens	-10.4189
▁corporation	-10.4189
▁simple	-10.4189
▁profile	-10.4189
▁impress	-10.4189
▁captain	-10.4189
▁erupt	-10.4189
▁error	-10.4189
▁plung	-10.4189
▁ballot	-10.4189
yongbyon	-10.4189
▁grenad	-10.4189
▁shirt	-10.4189
▁dominat	-10.4189
▁clinic	-10.4189
▁identit	-10.4189
▁bio	-10.419
▁calm	-10.419
▁appli	-10.4193
▁featur	-10.4197
▁beaut	-10.4198
▁1980	-10.42
▁acre	-10.4202
▁jesu	-10.4205
▁1999	-10.4205
▁generation	-10.4207
▁46	-10.421
▁56	-10.422
▁tibetan	-10.423
▁osa	-10.4235
▁liter	-10.4242
▁scott	-10.4244
▁proper	-10.4255
▁reviv	-10.4264
▁writer	-10.4304
▁bone	-10.4367
▁provinc	-10.4398
among	-10.4421
four	-10.4443
haps	-10.4475
▁strength	-10.4489
▁requir	-10.4496
▁chun	-10.4506
▁departure	-10.4522
▁experiment	-10.4522
▁simpson	-10.4522
▁volunteer	-10.4522
▁arrang	-10.4522
▁funeral	-10.4522
▁typical	-10.4522
▁submit	-10.4522
▁warrant	-10.4522
▁habit	-10.4522
▁shelter	-10.4522
▁legend	-10.4522
▁sadda	-10.4523
▁solve	-10.4523
▁easy	-10.4524
▁brad	-10.4524
▁plus	-10.4524
evich	-10.4525
▁blog	-10.4525
▁bullet	-10.4526
abul	-10.4526
▁balance	-10.4527
▁relocation	-10.4527
▁outbreak	-10.4529
▁yong	-10.4537
▁mike	-10.4542
▁specialist	-10.4546
▁ambitio	-10.4549
▁49	-10.4549
▁39	-10.4559
▁mandat	-10.4569
▁absen	-10.4578
▁cool	-10.4591
ouri	-10.4678
▁sara	-10.4679
▁theater	-10.4706
▁clash	-10.4717
▁jam	-10.4718
earl	-10.474
baghdad	-10.4748
official	-10.4748
rich	-10.4751
play	-10.4773
▁demonstrat	-10.4802
federation	-10.4811
phy	-10.484
▁defect	-10.4867
▁argentin	-10.4867
▁conservation	-10.4867
▁jordan	-10.4867
▁uniform	-10.4867
▁succeed	-10.4867
▁unusual	-10.4867
▁cloud	-10.4867
▁inaugura	-10.4867
▁innocent	-10.4867
▁imagin	-10.4867
▁shopping	-10.4867
▁root	-10.4868
▁disarm	-10.4868
▁await	-10.4868
▁proceed	-10.4869
▁divers	-10.4869
▁filmmaker	-10.487
▁copy	-10.487
▁fellow	-10.4871
▁dramatic	-10.4873
▁fun	-10.4875
▁execution	-10.4877
▁knee	-10.488
▁permit	-10.4882
▁polar	-10.4882
▁lowest	-10.4883
▁195	-10.4884
▁connection	-10.4884
▁cheap	-10.4886
▁proud	-10.4887
▁campus	-10.4888
▁shortage	-10.4892
▁detention	-10.4893
▁66	-10.4893
▁islamist	-10.4896
▁76	-10.4896
▁novel	-10.4897
▁59	-10.4907
▁tele	-10.4927
▁notice	-10.493
▁95	-10.4935
▁carrier	-10.4945
grade	-10.4948
▁strik	-10.495
▁62	-10.4994
▁hwan	-10.5054
▁structure	-10.507
people	-10.5105
russia	-10.5108
water	-10.514
▁presiden	-10.5173
▁palm	-10.5174
ersey	-10.5187
▁73	-10.5199
beth	-10.5214
▁celebrit	-10.5224
▁conspira	-10.5224
▁inspection	-10.5224
▁metropoli	-10.5224
▁mortgage	-10.5224
▁studio	-10.5224
▁yellow	-10.5224
fortunate	-10.5224
▁length	-10.5224
continent	-10.5224
▁convince	-10.5224
▁closing	-10.5224
▁froze	-10.5224
▁retail	-10.5224
▁convoy	-10.5224
▁judicia	-10.5224
▁attach	-10.5224
▁sample	-10.5225
▁boom	-10.5225
▁concept	-10.5225
▁wedding	-10.5225
▁colleague	-10.5228
▁string	-10.5228
▁brazilian	-10.523
▁jeff	-10.523
▁firing	-10.5231
▁edward	-10.5233
▁variet	-10.5234
▁bitter	-10.5235
▁yard	-10.5236
▁pollut	-10.5237
imony	-10.5246
▁assist	-10.5246
arcelo	-10.525
▁dala	-10.5257
▁lind	-10.5275
▁renew	-10.5276
▁classic	-10.5328
visibl	-10.5329
▁disabl	-10.5356
▁cub	-10.5387
▁observer	-10.5396
world	-10.5476
stock	-10.5487
▁photo	-10.5543
hiro	-10.5575
▁absolute	-10.5594
▁bottom	-10.5594
▁circumstance	-10.5594
▁conviction	-10.5594
▁coffee	-10.5594
▁digital	-10.5594
▁rebuild	-10.5594
▁recruit	-10.5594
▁strategi	-10.5594
▁soviet	-10.5594
▁austria	-10.5594
▁unlike	-10.5594
▁invasion	-10.5594
▁desert	-10.5594
▁breath	-10.5594
▁margin	-10.5595
▁estate	-10.5595
▁priva	-10.5595
▁berlin	-10.5595
▁outrage	-10.5595
▁monk	-10.5596
▁michel	-10.5596
▁gift	-10.5597
madeleine	-10.5598
▁libya	-10.5598
▁detonat	-10.5599
▁passport	-10.5603
▁900	-10.5604
▁slave	-10.5605
▁charit	-10.5609
▁trapp	-10.5609
▁plate	-10.5612
▁bright	-10.5617
meter	-10.5622
▁civi	-10.5628
▁successor	-10.5632
losi	-10.5633
edict	-10.5653
▁pace	-10.5654
▁chris	-10.5773
▁bail	-10.5773
▁pav	-10.5781
bris	-10.5797
▁accord	-10.583
prime	-10.586
three	-10.5863
▁commit	-10.5922
▁heath	-10.594
▁react	-10.5951
▁collaps	-10.5953
▁dismantl	-10.5979
▁dispatch	-10.5979
▁gonzale	-10.5979
▁instruct	-10.5979
▁negative	-10.5979
▁participant	-10.5979
▁principle	-10.5979
▁supposed	-10.5979
▁zealand	-10.5979
▁smuggl	-10.5979
▁alexand	-10.5979
▁sailor	-10.5979
▁firefighter	-10.5979
▁sheriff	-10.5979
▁moderate	-10.5979
▁gallon	-10.5979
▁daniel	-10.5979
▁potter	-10.5979
▁grew	-10.5979
▁weaken	-10.5979
▁gross	-10.5979
▁ignor	-10.5979
▁branch	-10.598
▁stories	-10.598
▁golf	-10.598
▁trend	-10.5981
▁disney	-10.5981
▁pitch	-10.5981
▁rallie	-10.5981
▁laborator	-10.5983
▁blago	-10.5984
▁prefer	-10.5988
▁respective	-10.5992
▁slipp	-10.5993
▁section	-10.5993
▁emission	-10.5993
▁appointment	-10.5994
▁trick	-10.5995
▁larr	-10.5996
chel	-10.5997
▁traffick	-10.6004
▁1990	-10.6006
▁81	-10.6024
▁crop	-10.6027
▁preci	-10.6037
▁controversi	-10.6064
strange	-10.6074
wise	-10.6098
▁samsun	-10.6105
huck	-10.6106
▁eric	-10.6138
▁complet	-10.6146
▁alleg	-10.6193
▁surround	-10.6229
▁consen	-10.6247
from	-10.6261
▁franc	-10.6303
▁sect	-10.6337
▁virgin	-10.6362
▁expos	-10.6379
▁sovereign	-10.6379
▁surveill	-10.6379
▁technique	-10.6379
▁advertis	-10.6379
▁disagree	-10.6379
▁psycholog	-10.6379
▁revenue	-10.6379
▁stretch	-10.6379
▁maxim	-10.6379
▁knock	-10.6379
▁confess	-10.6379
▁vacation	-10.6379
▁height	-10.6379
▁radical	-10.6379
▁lobby	-10.6379
▁native	-10.6379
▁offense	-10.6379
▁slump	-10.638
▁eliza	-10.638
▁swiss	-10.638
▁monkey	-10.638
▁mccann	-10.638
▁illness	-10.6383
mumba	-10.6388
▁extinction	-10.6389
▁hopeful	-10.6392
▁oct	-10.64
▁fox	-10.6409
▁ahmadi	-10.6428
lect	-10.6463
▁stole	-10.6463
▁murr	-10.6464
▁transform	-10.6468
bun	-10.6514
▁battl	-10.6519
▁hug	-10.6592
▁engine	-10.6661
before	-10.6677
▁laugh	-10.6713
▁invest	-10.6761
▁thin	-10.6784
▁airplane	-10.6795
▁immigrat	-10.6795
▁optimis	-10.6795
▁pilgrim	-10.6795
▁substantial	-10.6795
▁arsenal	-10.6796
▁eliminat	-10.6796
▁application	-10.6796
▁nigeria	-10.6796
▁thrill	-10.6796
▁cease	-10.6796
▁bottle	-10.6796
▁fortune	-10.6796
▁morgan	-10.6796
▁quiet	-10.6796
▁settlement	-10.6796
▁tropic	-10.6796
▁swimm	-10.6796
▁unclea	-10.6796
▁wreck	-10.6796
▁capacit	-10.6796
▁infant	-10.6798
▁greenhouse	-10.6798
▁solid	-10.6799
▁iowa	-10.68
▁captiv	-10.6801
▁trag	-10.6803
▁1970	-10.6804
▁edition	-10.6814
▁sweet	-10.6814
▁dump	-10.682
▁shout	-10.6825
▁stick	-10.6825
▁flash	-10.6825
▁130	-10.6829
▁medal	-10.6834
▁croc	-10.6852
▁hyp	-10.6871
▁oversee	-10.6881
▁petra	-10.6895
ampa	-10.6922
▁therap	-10.6985
place	-10.7102
pakistan	-10.7112
▁guid	-10.7112
▁tire	-10.7114
therland	-10.7209
▁commerc	-10.7228
▁confrontation	-10.723
▁episode	-10.723
▁essential	-10.723
▁extraordinar	-10.723
▁occasion	-10.723
▁procedure	-10.723
▁regulator	-10.723
▁superdelegate	-10.723
▁function	-10.723
▁minimum	-10.723
▁luxur	-10.723
▁temple	-10.723
precedent	-10.723
▁atlantic	-10.723
▁bureau	-10.723
▁crown	-10.723
▁proof	-10.7231
▁intervene	-10.7231
▁dvd	-10.7231
▁gamba	-10.7231
▁adjust	-10.7232
▁torture	-10.7232
▁genetic	-10.7232
▁hindu	-10.7233
▁bowl	-10.7235
disclos	-10.7235
▁creature	-10.7236
▁barbar	-10.7242
▁recommendation	-10.7243
▁reverse	-10.726
▁antoni	-10.7262
erald	-10.7268
owitz	-10.7272
nhap	-10.7272
▁patric	-10.7286
▁northwest	-10.7321
▁smil	-10.7392
baki	-10.7523
▁origin	-10.7569
▁designate	-10.7572
▁restrict	-10.767
▁abdul	-10.7678
▁denounc	-10.7685
▁assessment	-10.7685
▁bloom	-10.7685
▁counsel	-10.7685
▁devastat	-10.7685
▁elevator	-10.7685
▁interpret	-10.7685
▁kuwait	-10.7685
▁manipulat	-10.7685
▁transaction	-10.7685
▁wildlife	-10.7685
▁youtube	-10.7685
▁fundamental	-10.7685
▁compensat	-10.7685
▁substance	-10.7685
▁empty	-10.7685
▁railway	-10.7685
▁chemical	-10.7685
▁antarctic	-10.7685
▁sweep	-10.7685
▁squad	-10.7685
▁preserv	-10.7685
▁stunn	-10.7685
▁numer	-10.7685
▁guild	-10.7685
▁zero	-10.7685
▁element	-10.7685
▁interact	-10.7686
▁belgi	-10.7686
▁anchor	-10.7686
▁garden	-10.7686
▁crush	-10.7686
▁unrest	-10.7686
▁smash	-10.7686
▁orlean	-10.7686
stream	-10.7687
▁loyal	-10.7688
▁equit	-10.7688
▁inquir	-10.7688
▁prominen	-10.7688
▁snake	-10.7688
▁gmt	-10.7688
▁everybody	-10.769
rawl	-10.7692
▁egyptian	-10.7692
▁defendant	-10.7693
▁1950	-10.7693
▁apply	-10.7694
▁pump	-10.7695
nancy	-10.7697
adapt	-10.7697
closure	-10.7713
▁oust	-10.7723
▁mental	-10.7728
▁entit	-10.775
phon	-10.776
nfl	-10.7771
▁silv	-10.7896
▁cav	-10.7988
▁wav	-10.8049
writ	-10.8067
▁tradition	-10.8094
▁ambulance	-10.8161
▁cambodia	-10.8161
▁collaborat	-10.8161
▁conversation	-10.8161
▁correct	-10.8161
▁enterprise	-10.8161
▁hawaii	-10.8161
▁legislature	-10.8161
▁mccorm	-10.8161
▁mortar	-10.8161
▁precaution	-10.8161
▁shareholder	-10.8161
▁ultimate	-10.8161
▁except	-10.8161
▁exploit	-10.8161
▁liquid	-10.8161
▁galax	-10.8161
▁regret	-10.8161
▁repatriat	-10.8161
▁concentrat	-10.8161
▁shield	-10.8161
▁multiple	-10.8161
▁decreas	-10.8161
▁muscle	-10.8161
delphi	-10.8161
▁distance	-10.8161
▁intense	-10.8162
▁supervis	-10.8162
▁rumor	-10.8162
▁exposure	-10.8162
▁postpone	-10.8162
cliff	-10.8163
▁elephant	-10.8163
▁toxic	-10.8165
▁partnership	-10.8165
▁advisor	-10.8166
▁clark	-10.8167
▁harsh	-10.8169
▁zu	-10.817
▁impeach	-10.817
▁prett	-10.8176
▁keb	-10.8194
▁tackl	-10.8197
▁descen	-10.8239
respondent	-10.83
▁scrap	-10.8303
▁scienti	-10.8328
▁custom	-10.842
identified	-10.8542
israel	-10.8543
walk	-10.8544
▁execut	-10.8641
▁frustrat	-10.8661
▁administrative	-10.8661
▁aggressive	-10.8661
▁concession	-10.8661
▁conclusion	-10.8661
▁dictator	-10.8661
▁immigrant	-10.8661
▁initiative	-10.8661
▁laptop	-10.8661
▁mammoth	-10.8661
▁mohammad	-10.8661
▁motorcycle	-10.8661
▁residence	-10.8661
▁semifinal	-10.8661
▁typhoon	-10.8661
▁guideline	-10.8661
▁inflation	-10.8661
▁integr	-10.8661
▁routine	-10.8661
▁applau	-10.8661
▁archaeolog	-10.8661
▁joseph	-10.8661
▁switch	-10.8661
▁commut	-10.8661
▁circl	-10.8661
▁swift	-10.8661
▁escalat	-10.8661
▁folk	-10.8661
▁ordinar	-10.8661
▁gesture	-10.8661
▁outcome	-10.8662
▁brutal	-10.8662
▁katrin	-10.8662
▁telecom	-10.8663
▁petition	-10.8666
▁chant	-10.8666
▁instant	-10.8667
▁ivor	-10.8667
▁nice	-10.8667
▁barrier	-10.8667
▁albert	-10.8669
manuel	-10.867
▁toilet	-10.8672
▁assert	-10.8674
half	-10.8681
▁kitt	-10.8684
▁adventur	-10.8704
▁blaze	-10.8704
▁delegate	-10.8753
▁shah	-10.8756
laughter	-10.8761
▁swede	-10.878
apping	-10.8847
russel	-10.8848
▁challeng	-10.8863
▁villa	-10.9016
weight	-10.9068
hundred	-10.9069
iraq	-10.9069
power	-10.907
intend	-10.9082
bank	-10.9116
▁buzz	-10.9187
▁complicat	-10.9187
▁congratulat	-10.9187
▁denucleariz	-10.9187
▁distress	-10.9187
▁encounter	-10.9187
▁evacuation	-10.9187
▁hijack	-10.9187
▁hybrid	-10.9187
▁preliminar	-10.9187
▁proliferat	-10.9187
▁tennesse	-10.9187
▁volume	-10.9187
▁amendment	-10.9187
▁competitive	-10.9187
▁contender	-10.9187
▁depict	-10.9187
▁spaniard	-10.9187
▁mammal	-10.9187
▁reiterat	-10.9187
▁fierce	-10.9187
▁satisf	-10.9187
▁provision	-10.9187
▁impossible	-10.9187
▁rifle	-10.9188
▁false	-10.9188
▁dawn	-10.9188
▁breach	-10.9188
▁universal	-10.9188
▁plastic	-10.9188
▁belief	-10.9188
▁portray	-10.9188
▁strand	-10.9188
▁stephen	-10.9188
▁tumor	-10.9188
▁cyber	-10.9188
▁mourn	-10.9188
▁retain	-10.9189
▁talent	-10.9189
▁spray	-10.9189
▁compos	-10.9189
▁giuli	-10.9189
▁inquest	-10.919
▁vision	-10.9192
▁steel	-10.9192
▁translat	-10.9193
▁amnes	-10.9195
▁welcom	-10.9196
▁extradit	-10.9197
▁copie	-10.9203
▁admit	-10.921
ogge	-10.9211
▁observ	-10.9228
▁embryo	-10.923
▁kerr	-10.9234
▁smart	-10.9238
▁qualifi	-10.9285
▁trace	-10.9375
▁observat	-10.9437
▁reserv	-10.9518
sippi	-10.9572
break	-10.9613
john	-10.9624
high	-10.9625
mcca	-10.9637
▁industri	-10.9721
▁extinct	-10.9728
▁populat	-10.9729
legitimate	-10.9743
▁bankruptc	-10.9743
▁breakthrough	-10.9743
▁checkpoint	-10.9743
▁columbia	-10.9743
▁component	-10.9743
▁consecutive	-10.9743
▁economies	-10.9743
▁expansion	-10.9743
▁extensive	-10.9743
▁monarch	-10.9743
▁vaccine	-10.9743
▁deliberate	-10.9743
▁graduate	-10.9743
▁principal	-10.9743
▁qualify	-10.9743
▁taxpayer	-10.9743
▁volcano	-10.9743
ethiopia	-10.9743
▁tunnel	-10.9743
▁implicat	-10.9743
▁revenge	-10.9743
▁yemen	-10.9743
▁relax	-10.9743
▁constant	-10.9743
▁unfair	-10.9743
remlin	-10.9743
▁subsidi	-10.9743
▁offender	-10.9743
▁tribe	-10.9743
▁empir	-10.9743
▁dignit	-10.9744
▁analyz	-10.9744
▁vital	-10.9744
▁fertil	-10.9745
▁comply	-10.9745
▁deteriorat	-10.9746
▁hike	-10.9746
▁rudd	-10.9747
▁khal	-10.9749
oppo	-10.9751
▁addict	-10.9755
▁roof	-10.9762
▁audit	-10.9772
iscons	-10.9781
▁berna	-10.9788
▁gerr	-10.9802
▁animat	-10.9833
▁experienc	-10.9833
▁blitz	-10.9974
▁surg	-11.0018
▁resolv	-11.002
czec	-11.0076
thousand	-11.0213
secretar	-11.0213
▁advanc	-11.0239
▁secur	-11.0258
▁diploma	-11.0281
▁troubl	-11.0286
▁occur	-11.0305
▁buddhis	-11.0331
▁cooperate	-11.0331
▁ibrahim	-11.0331
▁reconstruct	-11.0331
▁separatist	-11.0331
▁sheikh	-11.0331
▁suppress	-11.0331
▁tattoo	-11.0331
▁fulfill	-11.0331
▁psychiatr	-11.0331
▁tribute	-11.0331
▁triumph	-11.0331
▁verdict	-11.0331
▁vitamin	-11.0331
▁endeavo	-11.0331
▁nichol	-11.0331
▁emirate	-11.0331
▁remarkable	-11.0331
▁attribut	-11.0331
▁caution	-11.0331
▁dispos	-11.0331
▁immun	-11.0331
▁iphone	-11.0331
▁tactic	-11.0331
▁lanka	-11.0331
▁scheme	-11.0331
▁chamber	-11.0331
▁dinner	-11.0332
arctic	-11.0332
▁mitch	-11.0332
▁convert	-11.0332
▁dedicat	-11.0332
▁wildfire	-11.0332
▁prosper	-11.0332
▁bounc	-11.0334
▁thron	-11.0334
▁hint	-11.0334
claren	-11.0336
▁ignit	-11.0336
▁reassur	-11.0336
yodo	-11.0339
▁displac	-11.0339
zhei	-11.0345
born	-11.0346
skirt	-11.0346
▁formula	-11.0351
specifi	-11.0436
▁micro	-11.0525
▁grip	-11.0636
▁repeat	-11.0743
▁acquir	-11.0956
▁administrator	-11.0956
▁albanian	-11.0956
▁automotive	-11.0956
▁blanket	-11.0956
▁brothel	-11.0956
▁compromise	-11.0956
▁consolidat	-11.0956
▁deficit	-11.0956
▁extension	-11.0956
▁glacier	-11.0956
▁landslide	-11.0956
▁migrant	-11.0956
▁persuade	-11.0956
▁platform	-11.0956
▁registration	-11.0956
▁rehabilitat	-11.0956
▁shepherd	-11.0956
▁embezzl	-11.0956
▁peacekeep	-11.0956
▁tornado	-11.0956
▁abortion	-11.0956
fernando	-11.0956
▁imprison	-11.0956
▁evaluat	-11.0956
▁strict	-11.0956
▁shatter	-11.0956
▁pattern	-11.0956
▁unhapp	-11.0956
▁uganda	-11.0956
▁lynch	-11.0956
▁retaliat	-11.0956
▁engagement	-11.0956
▁probation	-11.0956
▁toyota	-11.0956
▁drown	-11.0956
▁cartoon	-11.0956
▁crunch	-11.0956
▁libert	-11.0957
▁detainees	-11.0957
▁motive	-11.0957
▁meteor	-11.0957
▁summon	-11.0957
▁testify	-11.0957
▁rift	-11.0957
▁frag	-11.0957
▁moneta	-11.0958
▁haiti	-11.0958
▁cristi	-11.0964
▁fisc	-11.0964
▁helm	-11.0967
partisan	-11.0968
▁desire	-11.0982
▁analysi	-11.0983
acute	-11.1014
stabilize	-11.1034
▁favorabl	-11.1057
▁classifi	-11.1216
▁financ	-11.1398
public	-11.1492
australia	-11.1504
children	-11.1504
militar	-11.1505
christ	-11.1505
strong	-11.1505
▁ahmad	-11.154
▁speculat	-11.1608
,	-12.1187
.	-12.9021
