{
  "version": "1.0",
  "truncation": null,
  "padding": null,
  "added_tokens": [
    {
      "id": 0,
      "content": "<pad>",
      "single_word": false,
      "lstrip": false,
      "rstrip": false,
      "normalized": false,
      "special": true
    },
    {
      "id": 1,
      "content": "<unk>",
      "single_word": false,
      "lstrip": false,
      "rstrip": false,
      "normalized": false,
      "special": true
    },
    {
      "id": 2,
      "content": "<bos>",
      "single_word": false,
      "lstrip": false,
      "rstrip": false,
      "normalized": false,
      "special": true
    },
    {
      "id": 3,
      "content": "<eos>",
      "single_word": false,
      "lstrip": false,
      "rstrip": false,
      "normalized": false,
      "special": true
    },
    {
      "id": 4,
      "content": "<speaker1>",
      "single_word": false,
      "lstrip": false,
      "rstrip": false,
      "normalized": false,
      "special": true
    },
    {
      "id": 5,
      "content": "<speaker2>",
      "single_word": false,
      "lstrip": false,
      "rstrip": false,
      "normalized": false,
      "special": true
    },
    {
      "id": 6,
      "content": "<turn>",
      "single_word": false,
      "lstrip": false,
      "rstrip": false,
      "normalized": false,
      "special": true
    }
  ],
  "normalizer": null,
  "pre_tokenizer": {
    "type": "ByteLevel",
    "add_prefix_space": false,
    "trim_offsets": true,
    "use_regex": true
  },
  "post_processor": null,
  "decoder": {
    "type": "ByteLevel",
    "add_prefix_space": true,
    "trim_offsets": true,
    "use_regex": true
  },
  "model": {
    "type": "BPE",
    "dropout": null,
    "unk_token": "<unk>",
    "continuing_subword_prefix": null,
    "end_of_word_suffix": null,
    "fuse_unk": false,
    "byte_fallback": false,
    "ignore_merges": false,
    "vocab": {
      "<pad>": 0,
      "<unk>": 1,
      "<bos>": 2,
      "<eos>": 3,
      "<speaker1>": 4,
      "<speaker2>": 5,
      "<turn>": 6,
      "!": 7,
      "\"": 8,
      "#": 9,
      "$": 10,
      "%": 11,
      "&": 12,
      "'": 13,
      "(": 14,
      ")": 15,
      "*": 16,
      "+": 17,
      ",": 18,
      "-": 19,
      ".": 20,
      "/": 21,
      "0": 22,
      "1": 23,
      "2": 24,
      "3": 25,
      "4": 26,
      "5": 27,
      "6": 28,
      "7": 29,
      "8": 30,
      "9": 31,
      ":": 32,
      ";": 33,
      "<": 34,
      "=": 35,
      ">": 36,
      "?": 37,
      "@": 38,
      "A": 39,
      "B": 40,
      "C": 41,
      "D": 42,
      "E": 43,
      "F": 44,
      "G": 45,
      "H": 46,
      "I": 47,
      "J": 48,
      "K": 49,
      "L": 50,
      "M": 51,
      "N": 52,
      "O": 53,
      "P": 54,
      "Q": 55,
      "R": 56,
      "S": 57,
      "T": 58,
      "U": 59,
      "V": 60,
      "W": 61,
      "X": 62,
      "Y": 63,
      "Z": 64,
      "[": 65,
      "\\": 66,
      "]": 67,
      "^": 68,
      "_": 69,
      "`": 70,
      "a": 71,
      "b": 72,
      "c": 73,
      "d": 74,
      "e": 75,
      "f": 76,
      "g": 77,
      "h": 78,
      "i": 79,
      "j": 80,
      "k": 81,
      "l": 82,
      "m": 83,
      "n": 84,
      "o": 85,
      "p": 86,
      "q": 87,
      "r": 88,
      "s": 89,
      "t": 90,
      "u": 91,
      "v": 92,
      "w": 93,
      "x": 94,
      "y": 95,
      "z": 96,
      "{": 97,
      "|": 98,
      "}": 99,
      "~": 100,
      "¡": 101,
      "¢": 102,
      "£": 103,
      "¤": 104,
      "¥": 105,
      "¦": 106,
      "§": 107,
      "¨": 108,
      "©": 109,
      "ª": 110,
      "«": 111,
      "¬": 112,
      "®": 113,
      "¯": 114,
      "°": 115,
      "±": 116,
      "²": 117,
      "³": 118,
      "´": 119,
      "µ": 120,
      "¶": 121,
      "·": 122,
      "¸": 123,
      "¹": 124,
      "º": 125,
      "»": 126,
      "¼": 127,
      "½": 128,
      "¾": 129,
      "¿": 130,
      "À": 131,
      "Á": 132,
      "Â": 133,
      "Ã": 134,
      "Ä": 135,
      "Å": 136,
      "Æ": 137,
      "Ç": 138,
      "È": 139,
      "É": 140,
      "Ê": 141,
      "Ë": 142,
      "Ì": 143,
      "Í": 144,
      "Î": 145,
      "Ï": 146,
      "Ð": 147,
      "Ñ": 148,
      "Ò": 149,
      "Ó": 150,
      "Ô": 151,
      "Õ": 152,
      "Ö": 153,
      "×": 154,
      "Ø": 155,
      "Ù": 156,
      "Ú": 157,
      "Û": 158,
      "Ü": 159,
      "Ý": 160,
      "Þ": 161,
      "ß": 162,
      "à": 163,
      "á": 164,
      "â": 165,
      "ã": 166,
      "ä": 167,
      "å": 168,
      "æ": 169,
      "ç": 170,
      "è": 171,
      "é": 172,
      "ê": 173,
      "ë": 174,
      "ì": 175,
      "í": 176,
      "î": 177,
      "ï": 178,
      "ð": 179,
      "ñ": 180,
      "ò": 181,
      "ó": 182,
      "ô": 183,
      "õ": 184,
      "ö": 185,
      "÷": 186,
      "ø": 187,
      "ù": 188,
      "ú": 189,
      "û": 190,
      "ü": 191,
      "ý": 192,
      "þ": 193,
      "ÿ": 194,
      "Ā": 195,
      "ā": 196,
      "Ă": 197,
      "ă": 198,
      "Ą": 199,
      "ą": 200,
      "Ć": 201,
      "ć": 202,
      "Ĉ": 203,
      "ĉ": 204,
      "Ċ": 205,
      "ċ": 206,
      "Č": 207,
      "č": 208,
      "Ď": 209,
      "ď": 210,
      "Đ": 211,
      "đ": 212,
      "Ē": 213,
      "ē": 214,
      "Ĕ": 215,
      "ĕ": 216,
      "Ė": 217,
      "ė": 218,
      "Ę": 219,
      "ę": 220,
      "Ě": 221,
      "ě": 222,
      "Ĝ": 223,
      "ĝ": 224,
      "Ğ": 225,
      "ğ": 226,
      "Ġ": 227,
      "ġ": 228,
      "Ģ": 229,
      "ģ": 230,
      "Ĥ": 231,
      "ĥ": 232,
      "Ħ": 233,
      "ħ": 234,
      "Ĩ": 235,
      "ĩ": 236,
      "Ī": 237,
      "ī": 238,
      "Ĭ": 239,
      "ĭ": 240,
      "Į": 241,
      "į": 242,
      "İ": 243,
      "ı": 244,
      "Ĳ": 245,
      "ĳ": 246,
      "Ĵ": 247,
      "ĵ": 248,
      "Ķ": 249,
      "ķ": 250,
      "ĸ": 251,
      "Ĺ": 252,
      "ĺ": 253,
      "Ļ": 254,
      "ļ": 255,
      "Ľ": 256,
      "ľ": 257,
      "Ŀ": 258,
      "ŀ": 259,
      "Ł": 260,
      "ł": 261,
      "Ń": 262,
      "Ġì": 263,
      "><": 264,
      "ak": 265,
      "er": 266,
      "eak": 267,
      "os": 268,
      "peak": 269,
      "speak": 270,
      "speaker": 271,
      "Ġë": 272,
      "ìĿ": 273,
      "íķ": 274,
      ".<": 275,
      "ìļ": 276,
      "bos": 277,
      "eos": 278,
      "rn": 279,
      "tu": 280,
      "turn": 281,
      "ìļĶ": 282,
      "Ġê": 283,
      "ìĿ´": 284,
      "ĺë": 285,
      "ìķ": 286,
      "ê°": 287,
      "ì§": 288,
      "ëĭ": 289,
      "ĸ´": 290,
      "ĬĶ": 291,
      "ìĦ": 292,
      "ìĸ´": 293,
      "ê²": 294,
      "ìĹ": 295,
      "ëĤ": 296,
      "ê³": 297,
      "ì§Ģ": 298,
      "¬ë": 299,
      "íķ´": 300,
      "ìŀ": 301,
      "Ġìŀ": 302,
      "ìķĦ": 303,
      "ê°Ģ": 304,
      "ìĦ¸": 305,
      "ëĬĶ": 306,
      "ê³ł": 307,
      "ìĿĦ": 308,
      "ìł": 309,
      "ìĦ¸ìļĶ": 310,
      "Ġí": 311,
      "ë³": 312,
      "Ġë§": 313,
      "ëĭ¤": 314,
      "Ġìķ": 315,
      "íķĺë": 316,
      "ê¸": 317,
      "ıĦ": 318,
      "ìĭ": 319,
      "ë§": 320,
      "±°": 321,
      "íķĺ": 322,
      "Ĥ¬ë": 323,
      "¢ĭ": 324,
      "ìĹĲ": 325,
      "Ĥ¬ëŀ": 326,
      "Ġê°": 327,
      "ê²Į": 328,
      "ìĿĢ": 329,
      "ìĺ": 330,
      "¸ë": 331,
      "ëıĦ": 332,
      "ĠìĹ": 333,
      "ë³´": 334,
      "ĠìŀĪ": 335,
      "ê¹": 336,
      "íķľ": 337,
      "©´": 338,
      "Ħ¤": 339,
      "Īë": 340,
      "Ġì¢ĭ": 341,
      "ĠëĤ": 342,
      "ì£": 343,
      "ê¹Į": 344,
      "ìŀĲ": 345,
      "Ġê±°": 346,
      "Ġìĭ": 347,
      "?<": 348,
      "ĠìĿ": 349,
      "ê¸°": 350,
      "íķĺëĬĶ": 351,
      "į°": 352,
      "ĠìĤ¬ëŀ": 353,
      "ëĿ": 354,
      "ëĭĪ": 355,
      "¼ë": 356,
      "Ġê²": 357,
      "¡ľ": 358,
      "êµ": 359,
      "ìĦľ": 360,
      "ê²ł": 361,
      "ì¹": 362,
      "ë³´ìĦ¸ìļĶ": 363,
      "ìľ": 364,
      "ëĦ¤": 365,
      "ĥĿ": 366,
      "ìĺĪ": 367,
      "ĵ¤": 368,
      "Ġë°": 369,
      "ë¥": 370,
      "ë¦": 371,
      "ëĤĺ": 372,
      "ìĺĪìļĶ": 373,
      "¬´": 374,
      "ëį°": 375,
      "ìĬ": 376,
      "ìķ¼": 377,
      "ê·": 378,
      "íķł": 379,
      "ìĸ´ìļĶ": 380,
      "ĠìĤ¬ëŀĮ": 381,
      "Ġëĭ": 382,
      "ëł": 383,
      "Ġê±°ìĺĪìļĶ": 384,
      "ĠìĪ": 385,
      "´Ĳ": 386,
      "ì£ł": 387,
      "Ġì§": 388,
      "Ġê°Ļ": 389,
      "ĠìĿ´": 390,
      "Ġë³": 391,
      "Ģë": 392,
      "ë§Į": 393,
      "Ġìł": 394,
      "ìĿĮ": 395,
      "ìĽ": 396,
      "ì¹ľ": 397,
      "ëĤĺë": 398,
      "Ġíķ´": 399,
      "Ġëª": 400,
      "¤ë": 401,
      "ŀĺë": 402,
      "ìĿ¸": 403,
      "ĠëĲ": 404,
      "ë°": 405,
      "ìĿĺ": 406,
      "ĠìĹĨ": 407,
      "ĠìķĦ": 408,
      "ìľ¼ë": 409,
      "ê°ģ": 410,
      "ĠìĥĿ": 411,
      "ëĿ¼": 412,
      "ëĭĪëĭ¤": 413,
      "ìĭľ": 414,
      "Ġê·": 415,
      "ê±°": 416,
      "ĥģ": 417,
      "ìĤ¬ëŀ": 418,
      "Ġë§Ī": 419,
      "Ġì¢ĭìķĦ": 420,
      "ìĿ¼": 421,
      "íĸ": 422,
      "Ġìĭ¶": 423,
      "êµ¬": 424,
      "´ĲìļĶ": 425,
      "Ĥ¬": 426,
      "ëĦ¤ìļĶ": 427,
      "ë¦¬": 428,
      "ì°": 429,
      "ìłķ": 430,
      "ìĭł": 431,
      "íĺ": 432,
      "ëĤ¨": 433,
      "Ġê²ĥ": 434,
      "Ġìĸ´": 435,
      "ìłľ": 436,
      "Ġê³": 437,
      "Ġìĺ": 438,
      "ì£¼": 439,
      "ëŀ": 440,
      "íķĺê³ł": 441,
      "Ġê±": 442,
      "ĠìĪĺ": 443,
      "įĶ": 444,
      "ë¥¼": 445,
      "Īë¬´": 446,
      "ĠìĥĿê°ģ": 447,
      "ê°Ħ": 448,
      "Ġë§Į": 449,
      "ë¶": 450,
      "íĻ": 451,
      "Ġë³´": 452,
      "ìķĦìļĶ": 453,
      "ĠìķĬ": 454,
      "ĦĪë¬´": 455,
      "Ġë§Ĳ": 456,
      "ë³Ħ": 457,
      "ìĤ¬ëŀĳ": 458,
      "ë©´": 459,
      "Ġê°Ģ": 460,
      "Ġëĭ¤": 461,
      "ĠìĹ°": 462,
      "ì²": 463,
      "Ġíŀĺë": 464,
      "ë§Ī": 465,
      "ëĤ´": 466,
      "ĮĢ": 467,
      "Ġì¤": 468,
      "ĵľ": 469,
      "ĠìķĪ": 470,
      "ì¢ĭ": 471,
      "ì¤": 472,
      "ìĪ": 473,
      "ĠëĤĺ": 474,
      "Ġë§İ": 475,
      "íķ´ë³´ìĦ¸ìļĶ": 476,
      "ë¡ľ": 477,
      "ëĿ½": 478,
      "ëł¤": 479,
      "ìĥģ": 480,
      "Ġê¸": 481,
      "¤ìĸ´": 482,
      "ëĬĶëį°": 483,
      "ìĹ¬": 484,
      "ķĮ": 485,
      "Ġë°Ķ": 486,
      "ì¡": 487,
      "Ġì°": 488,
      "ê·¸ë": 489,
      "ì¹ľêµ¬": 490,
      "ìĻ": 491,
      "íķĺì§Ģ": 492,
      "Ġìĭľ": 493,
      "ì§Ħ": 494,
      "Ġìĸ´ë": 495,
      "Ĺ¤ìĸ´": 496,
      "ëĵ¤": 497,
      "íħ": 498,
      "ìĹĪ": 499,
      "ìĨ": 500,
      "ĠëĦĪë¬´": 501,
      "Ġê·¸ë": 502,
      "íĶ": 503,
      "ĠìŀĲ": 504,
      "ĠìĤ¬ëŀĳ": 505,
      "ê¸Ī": 506,
      "ìķł": 507,
      "ë²": 508,
      "ĠìŀĪìĿĦ": 509,
      "ĠìĦ": 510,
      "ĠëįĶ": 511,
      "ìļ´": 512,
      "¹Ħ": 513,
      "ìĹ°": 514,
      "Ġìŀĺ": 515,
      "ëħ": 516,
      "ìľ¼ë©´": 517,
      "ê±": 518,
      "Ġê¸°": 519,
      "ìĽĮ": 520,
      "Ġë¨": 521,
      "íŀ": 522,
      "į¸": 523,
      "Ġëı": 524,
      "ìĸ": 525,
      "Ġë¶": 526,
      "ëı": 527,
      "Ġíķ": 528,
      "ĠìĹ¬": 529,
      "Ĥ´": 530,
      "ìĭ¬": 531,
      "ë§Ĳ": 532,
      "ê¸¸": 533,
      "íĸĪ": 534,
      "¬¼": 535,
      "ìłĦ": 536,
      "íĻĶ": 537,
      "ĠìĹ°ëĿ½": 538,
      "ìłĢ": 539,
      "ìŀĲì¹ľêµ¬": 540,
      "Ġì§Ģ": 541,
      "ĠëĤ¨": 542,
      "ìŀ¥": 543,
      "Ġíŀĺëĵ¤": 544,
      "íķĺë©´": 545,
      "Ġê´": 546,
      "íħĮ": 547,
      "íŀĪ": 548,
      "ĠìĻ": 549,
      "ìĥĿ": 550,
      "íķĺìĦ¸ìļĶ": 551,
      "ĠìĤ¬": 552,
      "ëª": 553,
      "ĠìķĮ": 554,
      "ìĤ¬": 555,
      "ìľ¼ë¡ľ": 556,
      "¥¼": 557,
      "ĠìĤ¬ëŀĮìĿ´": 558,
      "ìĹĲìļĶ": 559,
      "Ġë§ĪìĿĮ": 560,
      "ĠìĿ¼": 561,
      "ìĬµ": 562,
      "ĠëķĮ": 563,
      "Ġê²Į": 564,
      "ì§Ŀ": 565,
      "ĠëĤ´": 566,
      "¢Ģ": 567,
      "Ġìĸ´ëĸ": 568,
      "ë¥´": 569,
      "ìĿ´ë³Ħ": 570,
      "ìĬ¤": 571,
      "Ł¬": 572,
      "ìĹĲìĦľ": 573,
      "íķľíħĮ": 574,
      "Ġê°ĻìķĦìļĶ": 575,
      "Ġì¹": 576,
      "Ġíĸ": 577,
      "ëĤĺë´ĲìļĶ": 578,
      "ĽĦ": 579,
      "Ġìłķ": 580,
      "ìłģ": 581,
      "ì§ģ": 582,
      "ë¯": 583,
      "ìĺ¤ë": 584,
      "íĺ¼": 585,
      "ĵł": 586,
      "Ġëª»": 587,
      "ëĮĢ": 588,
      "ê¹ĮìļĶ": 589,
      "Ġì¢ĭìķĦíķĺëĬĶ": 590,
      "ĥĢ": 591,
      "ĠëŃ": 592,
      "íļ": 593,
      "ì¢ĭìķĦ": 594,
      "íķ´ìļĶ": 595,
      "Ġëª¨": 596,
      "Ġìĭ¶ìĸ´": 597,
      "Ġê³ł": 598,
      "ë§ĪìĿĮ": 599,
      "Ġë¨¹": 600,
      "Ġì£": 601,
      "Ġì¢ĭê²ł": 602,
      "ĠìŀĪìĸ´ìļĶ": 603,
      "ì¶": 604,
      "ê°Ģë": 605,
      "Ġê±´": 606,
      "ĺëıĦ": 607,
      "¦¬": 608,
      "ìį¸": 609,
      "Ġì¢Ģ": 610,
      "ì°®": 611,
      "íĬ": 612,
      "Ġìĭľê°Ħ": 613,
      "íļĮ": 614,
      "ìļ°": 615,
      "Ġì¤ĳ": 616,
      "íĹ¤ìĸ´": 617,
      "Ġëģ": 618,
      "ĠìĨ": 619,
      "!<": 620,
      "ĠëĲł": 621,
      "Ġë°Ľ": 622,
      "Ġê°ĻìķĦ": 623,
      "ê´": 624,
      "íķĺê²Į": 625,
      "ë¬´": 626,
      "Ŀ¼": 627,
      "ìĿ´ìĹĲìļĶ": 628,
      "Ġíķĺë": 629,
      "ìŀĺ": 630,
      "ë¶Ħ": 631,
      "ë¨": 632,
      "ĺëĬĶ": 633,
      "Ĭĺ": 634,
      "ĳĲ": 635,
      "¸ëł": 636,
      "Ġë§İìĿ´": 637,
      "ì£¼ìĦ¸ìļĶ": 638,
      "Ġë²": 639,
      "ëĭ¹": 640,
      "ì¢ĭìķĦíķĺëĬĶ": 641,
      "ê°Ĳ": 642,
      "Ġë°Ķëŀ": 643,
      "Ġëĵ¤": 644,
      "êµ¬ë": 645,
      "ê±´": 646,
      "ĠìĤ´": 647,
      "ìķĪ": 648,
      "Ġì¢ĭìĿĦ": 649,
      "ĠëĲĺ": 650,
      "Ġíķľ": 651,
      "íĨ": 652,
      "ê³¼": 653,
      "ìĹĲê²Į": 654,
      "ìĬµëĭĪëĭ¤": 655,
      "ľì°®": 656,
      "Ġë§ĪìĦ¸ìļĶ": 657,
      "ê·¸": 658,
      "ĠìķĦëĭ": 659,
      "Ġíķł": 660,
      "ë¶Ģ": 661,
      "ìŀĪ": 662,
      "ŀĺ": 663,
      "Ġì¡": 664,
      "Ġìļ": 665,
      "ĠëĨ": 666,
      "ë³µ": 667,
      "ĠìĦł": 668,
      "ëıĻ": 669,
      "Ġì¶": 670,
      "ëŀĳ": 671,
      "Ġë¬´": 672,
      "Ł°": 673,
      "Ġìĥģ": 674,
      "ë¥¸": 675,
      "ìĻĢ": 676,
      "ê²łìĸ´ìļĶ": 677,
      "ĠëŃĲ": 678,
      "¬¸": 679,
      "ħëĭĪëĭ¤": 680,
      "íĸī": 681,
      "ì§Ī": 682,
      "ĠìŀĪëĬĶ": 683,
      "ìĨĮ": 684,
      "ìŀĲì¹ľêµ¬ê°Ģ": 685,
      "ìĶ": 686,
      "íĮ": 687,
      "İ¸": 688,
      "ê²łì§Ģ": 689,
      "ì¡Į": 690,
      "ĠíķĺëĬĶ": 691,
      "ìĭ¤": 692,
      "Ġë¯": 693,
      "ĠëĬ": 694,
      "ĠìķĪë": 695,
      "ë¦¬ë": 696,
      "ĠìĿ´ë³Ħ": 697,
      "ĦìļĶ": 698,
      "ê²ĮìļĶ": 699,
      "ĠëģĿ": 700,
      "ìĥ": 701,
      "įĺ": 702,
      "Ġìĸ": 703,
      "Ġëĵľ": 704,
      "Ġê±¸": 705,
      "ì¢ĭìĿĢ": 706,
      "íı": 707,
      "ìĽĲ": 708,
      "ìĪĺ": 709,
      "Ġíķ´ë³´ìĦ¸ìļĶ": 710,
      "ìĸ´ë": 711,
      "ëĤł": 712,
      "Ġì¢ĭìĿĢ": 713,
      "ì¦": 714,
      "ĠíĹ¤ìĸ´": 715,
      "ìľ¼": 716,
      "ĠìłĦ": 717,
      "ê°Ģë´ĲìļĶ": 718,
      "ê°Ļ": 719,
      "Ġìĭ¶ëĭ¤": 720,
      "Ġì£¼": 721,
      "ìģ": 722,
      "ëĤľ": 723,
      "ìĨį": 724,
      "íģ": 725,
      "Ġê·¸": 726,
      "ĠëĤĺë": 727,
      "ĠìĹ¬ìŀĲ": 728,
      "»ê²Į": 729,
      "ë¬¼": 730,
      "ĠíĻ": 731,
      "ìĿ¸ë": 732,
      "ìł¸": 733,
      "ìĬ¤ë": 734,
      "Ġëı¼": 735,
      "ê³µ": 736,
      "ì¤ĳ": 737,
      "ĠíķĦìļĶ": 738,
      "ĠëĤ¨ìŀĲ": 739,
      "Ġëĸ": 740,
      "Ġê´ľì°®": 741,
      "ĮĢë": 742,
      "Ġê²°": 743,
      "ìħ": 744,
      "ĠëĮĢ": 745,
      "Ġìī": 746,
      "ê²°": 747,
      "ĠìĹĨìĸ´": 748,
      "ĺĲ": 749,
      "ĠìĬ": 750,
      "ê²łëĦ¤ìļĶ": 751,
      "ê´Ģ": 752,
      "ìĿ´ìłľ": 753,
      "ëĭ¤ë©´": 754,
      "ê¾": 755,
      "ê²½": 756,
      "ĠìŀĪìĸ´": 757,
      "Ġì¹ľ": 758,
      "íķ´ëıĦ": 759,
      "ìĺ¤": 760,
      "ëħĦ": 761,
      "Ĥĺ": 762,
      "Ġì¡°": 763,
      "Ġìľ": 764,
      "ìķĺ": 765,
      "ĠìŀĬ": 766,
      "ìľł": 767,
      "ĶĶ": 768,
      "ëĭ¬": 769,
      "Ġëª¨ë¥´": 770,
      "°ëĿ¼": 771,
      "ĵ°": 772,
      "ŀĳ": 773,
      "ëĬĶê²Į": 774,
      "Ġíĺ": 775,
      "ë°Ķ": 776,
      "ìĺ¤ëĬĺ": 777,
      "ĠëĪ": 778,
      "ĠíĽĦ": 779,
      "ìĭĿ": 780,
      "ì°¨": 781,
      "íķĺëĭ": 782,
      "íĽĦ": 783,
      "ĠíĥĢ": 784,
      "ĠìĪĺëıĦ": 785,
      "ìĿ¸ëį°": 786,
      "ëĲ": 787,
      "ê°ľ": 788,
      "ìĿ´ëĦ¤ìļĶ": 789,
      "ìŀĳ": 790,
      "ëĦĪë¬´": 791,
      "Ġë§ŀ": 792,
      "ë§İ": 793,
      "ħĢ": 794,
      "ł¤": 795,
      "ê¾¸": 796,
      "ëįĶ": 797,
      "ìķ¼ì§Ģ": 798,
      "Ġì°¾": 799,
      "Ġê°Ģë": 800,
      "ìĤ¬ëŀĮ": 801,
      "ìĸµ": 802,
      "Ġìĸ´ëĸ»ê²Į": 803,
      "Ġë¬¼": 804,
      "Ġë§ĮëĤĺ": 805,
      "ì¡°": 806,
      "ĠíĸĪ": 807,
      "Ġíķĺê³ł": 808,
      "ĳľ": 809,
      "ê²¨": 810,
      "ê²łì£ł": 811,
      "íĬ¸": 812,
      "íĹ¤ìĸ´ì§Ħ": 813,
      "ĠìĨĮ": 814,
      "©ëĭĪëĭ¤": 815,
      "ëĵł": 816,
      "íĦ": 817,
      "ìļ¸": 818,
      "ĠìĿ¸": 819,
      "ì¹ĺ": 820,
      "ĠëĶ": 821,
      "ì§ľ": 822,
      "ìĸ´ë³´ìĦ¸ìļĶ": 823,
      "ëĭ¤ê³ł": 824,
      "Ġìĭ«": 825,
      "ëĭµ": 826,
      "ìĦ±": 827,
      "íĹ": 828,
      "ê³Ħ": 829,
      "ĠëĤł": 830,
      "Ġë°©": 831,
      "íķłê¹Į": 832,
      "ë²ķ": 833,
      "ìĿĢëį°": 834,
      "Ģë¹Ħ": 835,
      "ì§Ģë§Į": 836,
      "Ġê°Ĳ": 837,
      "ĠìĹ°ìķł": 838,
      "íĶĦ": 839,
      "ĩê²Į": 840,
      "ìĿ´ëĿ¼": 841,
      "Ġê²ĥëıĦ": 842,
      "Ġìĺ¤": 843,
      "ë¯¼": 844,
      "íķĻ": 845,
      "Ġê´Ģ": 846,
      "Ġì¤ĳìļĶ": 847,
      "ëĪ": 848,
      "Ġíķĺ": 849,
      "Ł´": 850,
      "Ħ¤ìļĶ": 851,
      "Ġì§Ħ": 852,
      "ĠìķĦëĭĪ": 853,
      "ëĤ´ê°Ģ": 854,
      "ê»": 855,
      "Ġê¹": 856,
      "Ġì°¨": 857,
      "Ġë¹": 858,
      "Ġìĭľê°ĦìĿ´": 859,
      "£¨": 860,
      "Ġì²": 861,
      "Ġì§Ŀ": 862,
      "Ġíĸī": 863,
      "íĥĢ": 864,
      "Ġìķł": 865,
      "ê·¼": 866,
      "ë°±": 867,
      "Ġë¹Ħ": 868,
      "ëĤ¨ìĿ´": 869,
      "Ġìĺ¤ë": 870,
      "ĠìĻľ": 871,
      "ì§ĢëıĦ": 872,
      "ìŀĲìĭł": 873,
      "ĠìĹĨìĸ´ìļĶ": 874,
      "ĠëĬĲ": 875,
      "¼ê¹Į": 876,
      "ë¹Ħ": 877,
      "ĠëıĦ": 878,
      "ìĿ´ì£ł": 879,
      "ëĭ¨": 880,
      "ìĭľê°Ħ": 881,
      "ëĵľ": 882,
      "Ħê²ĮìļĶ": 883,
      "Ĭ¥": 884,
      "ëĭ´": 885,
      "Ġëĭ¹": 886,
      "ëħĢ": 887,
      "ìĥĿê°ģ": 888,
      "íĺĦ": 889,
      "Ġì°¾ìķĦ": 890,
      "ìĿ´ìķ¼": 891,
      "ê±¸": 892,
      "ë§İìĿ´": 893,
      "íĦ°": 894,
      "ê²łìĸ´": 895,
      "ê·Ģ": 896,
      "ì¹ľêµ¬ë": 897,
      "Ġë¶Ģ": 898,
      "ìĦł": 899,
      "ê¹Įì§Ģ": 900,
      "ĵ¯": 901,
      "Ġëį°": 902,
      "ê±°ìĺĪìļĶ": 903,
      "ìłľê°Ģ": 904,
      "ëĮĢë": 905,
      "ĠìĽ": 906,
      "ì§Ģê¸Ī": 907,
      "ë³´ëĭ¤": 908,
      "ëĤĺëĬĶ": 909,
      "ëĵ¤ìĿ´": 910,
      "´ħëĭĪëĭ¤": 911,
      "íŀĺë": 912,
      "ì§ĳ": 913,
      "Ġìłķë¦¬": 914,
      "ĠìĹĨëĬĶ": 915,
      "Ġì¤Ģë¹Ħ": 916,
      "ëģ": 917,
      "¬ëĿ¼": 918,
      "Ġíİ¸": 919,
      "ì²ľ": 920,
      "ë§ĪìĿĮìĿ´": 921,
      "Ġë°ĶëŀĦê²ĮìļĶ": 922,
      "ë¬¸": 923,
      "ĠíĿ": 924,
      "Ġì§ĳ": 925,
      "ì¤ĺ": 926,
      "³´": 927,
      "¼ìłĢ": 928,
      "ĠëĦ": 929,
      "ìĭ¶": 930,
      "ìłĢëıĦ": 931,
      "¿Ī": 932,
      "ëĦ": 933,
      "ëĳĲ": 934,
      "ìĹ°ëĿ½": 935,
      "Ġëı¼ìļĶ": 936,
      "Ġë°©ë²ķ": 937,
      "ìļ©": 938,
      "¼ë©´": 939,
      "íĨµ": 940,
      "Ġìį¸": 941,
      "Ġëħ": 942,
      "íķ´ìķ¼": 943,
      "ìłĲ": 944,
      "ëĭ¹ìĭł": 945,
      "ĠìĦłë¬¼": 946,
      "íģ¼": 947,
      "ìĿĦê¹Į": 948,
      "ê¸´": 949,
      "ë¦´": 950,
      "Ġìłľ": 951,
      "ì²ĺë": 952,
      "ĠìŀĲìĭł": 953,
      "ĠìľĦ": 954,
      "ëª¨": 955,
      "§Į": 956,
      "ãħ": 957,
      "ê²ĥ": 958,
      "êµĲ": 959,
      "ìĽĢ": 960,
      "Ġë³´ìĦ¸ìļĶ": 961,
      "·¨": 962,
      "íķ´ìĦľ": 963,
      "ìĹĲëĬĶ": 964,
      "Ġê³Ħ": 965,
      "ĠìŀĪìĿĦê¹Į": 966,
      "íĺ¼ìŀĲ": 967,
      "įëĭĪëĭ¤": 968,
      "íķ´ì£¼ìĦ¸ìļĶ": 969,
      "Ġëĭ¤ìĭľ": 970,
      "Ġì°¸": 971,
      "ë¹": 972,
      "ĠíĶ": 973,
      "¸ë¦¬": 974,
      "ëĿ¼ê³ł": 975,
      "ì§ĢëĬĶ": 976,
      "Ġì¶Ķ": 977,
      "ĠëĺĲ": 978,
      "ĠíĹ": 979,
      "ê¸°ê°Ģ": 980,
      "ĠìĿ´ìķ¼": 981,
      "Ġê¸°ëĭ¤": 982,
      "íĨ¡": 983,
      "ì³": 984,
      "ì¼": 985,
      "Ġë©": 986,
      "ĠëĳĲ": 987,
      "ëĭĪê¹ĮìļĶ": 988,
      "Ġì¤Ħ": 989,
      "íĶ¼": 990,
      "ĠìĿ´ìķ¼ê¸°": 991,
      "Ġíķĺì§Ģ": 992,
      "Ĥĺë": 993,
      "ìłł": 994,
      "íĸĪìĸ´": 995,
      "ĠìĿ¼ìĿ´": 996,
      "ì§ĿìĤ¬ëŀĳ": 997,
      "¯¸": 998,
      "ı¼": 999,
      "ìĹĨ": 1000,
      "ë³¼ê¹Į": 1001,
      "Īëįĺ": 1002,
      "Ġë³´ê³ł": 1003,
      "ĠíĻķ": 1004,
      "¬ìĸ´": 1005,
      "êµ°": 1006,
      "ĠìĺĪ": 1007,
      "ë²Ī": 1008,
      "ĠëĲłê¹Į": 1009,
      "Ġë°ĽìķĦ": 1010,
      "ĠìķĦëĭĮ": 1011,
      "ìģľ": 1012,
      "ê°ķ": 1013,
      "ë³´ëĬĶ": 1014,
      "Ġíķ´ìķ¼": 1015,
      "ëŃ": 1016,
      "ìŀĲê³ł": 1017,
      "ìĪł": 1018,
      "ĠìĻĶ": 1019,
      "Ġë°ĶëŀįëĭĪëĭ¤": 1020,
      "Ġëĵ¤ìĸ´": 1021,
      "íĮĮ": 1022,
      "ì¦Ŀ": 1023,
      "ĠìĬ¤": 1024,
      "Ġíĸīë³µ": 1025,
      "°©": 1026,
      "ĥĪ": 1027,
      "ìłĪ": 1028,
      "Ġì¢ĭì£ł": 1029,
      "Ġìĭľìŀĳ": 1030,
      "ë²Ħ": 1031,
      "ĠëĵľìĦ¸ìļĶ": 1032,
      "íķĺëĭ¤": 1033,
      "±ìłķ": 1034,
      "¶ģ": 1035,
      "ĠíķĺìĦ¸ìļĶ": 1036,
      "ì§Ģê³ł": 1037,
      "ìŀł": 1038,
      "ëĭ¤ë¥¸": 1039,
      "ĠëĲĺë": 1040,
      "Ġì¢ĭìķĦìļĶ": 1041,
      "ìłķë§Ĳ": 1042,
      "ëĤ¨ìŀĲì¹ľêµ¬ê°Ģ": 1043,
      "Ġë§Įëĵ¤": 1044,
      "ì¤Ħ": 1045,
      "Ġê³łë°±": 1046,
      "íĤ": 1047,
      "íķ¨": 1048,
      "Ġíģ": 1049,
      "Ġê³³": 1050,
      "ĠìķĬìķĦìļĶ": 1051,
      "ê·¸ëŁ°": 1052,
      "ìĸ¸": 1053,
      "Ġê³łë¯¼": 1054,
      "íĹ¤ìĸ´ì§Ħì§Ģ": 1055,
      "ìŀĦ": 1056,
      "Ġìĭł": 1057,
      "ìĽĶ": 1058,
      "ì²ĺ": 1059,
      "ì²Ń": 1060,
      "ëĶ": 1061,
      "ì½": 1062,
      "Ġêµ": 1063,
      "ì§¸": 1064,
      "ĠìŀĲê¾¸": 1065,
      "Ġë§ĪìĿĮìĿ´": 1066,
      "Ġëĸ¨": 1067,
      "íİ¸": 1068,
      "ìķĦì§ģ": 1069,
      "ĺëĬĶëį°": 1070,
      "íķĺëĬĶê²Į": 1071,
      "êµŃ": 1072,
      "Ġëª°ëĿ¼": 1073,
      "Ġê³µ": 1074,
      "Ġëĭ¤ë¥¸": 1075,
      "ìĹ°ìķł": 1076,
      "Ġë¨¹ê³ł": 1077,
      "ìħ¨": 1078,
      "¬ëĬĶ": 1079,
      "ìŀ¡": 1080,
      "ëĭ¤ëĬĶ": 1081,
      "íķĺê¸°": 1082,
      "ë°ľ": 1083,
      "Ġíŀĺëĵľ": 1084,
      "ĠëıĮ": 1085,
      "ìĤ´": 1086,
      "íķ©ëĭĪëĭ¤": 1087,
      "ìķĺë": 1088,
      "ìĦľë¡ľ": 1089,
      "Ġíķ´ìļĶ": 1090,
      "ë°°": 1091,
      "»¤": 1092,
      "íĥĿ": 1093,
      "ìŀħëĭĪëĭ¤": 1094,
      "Ġê·Ģ": 1095,
      "ìĹ¬ìŀĲì¹ľêµ¬ê°Ģ": 1096,
      "ĠìķĮìķĦ": 1097,
      "ìĸ´ëĸ": 1098,
      "ìĵ°": 1099,
      "Ġíķĺë©´": 1100,
      "ìłĳ": 1101,
      "ìĻĶ": 1102,
      "ë¦¬ëĬĶ": 1103,
      "Ġë¬¸": 1104,
      "ìķĦë¬´": 1105,
      "Ġíŀĺëĵł": 1106,
      "ĠìķĪëĲ": 1107,
      "Ġì¡°ê¸Ī": 1108,
      "Ġìĭ«ìĸ´": 1109,
      "Ġì±": 1110,
      "ë§Ľ": 1111,
      "ì¹ľìĿ´": 1112,
      "ĠìķĦëĭĪë": 1113,
      "ìĶ©": 1114,
      "ê²°íĺ¼": 1115,
      "Ł½": 1116,
      "Ġë°°": 1117,
      "ëªħ": 1118,
      "ìłģìĿ¸": 1119,
      "´íĨ¡": 1120,
      "íĴ": 1121,
      "ë³´ê³ł": 1122,
      "Īë¡ľ": 1123,
      "ëł¥": 1124,
      "ëłĩê²Į": 1125,
      "ĠìĥĿê°ģíķ´ìļĶ": 1126,
      "íĻ©": 1127,
      "Ġë°ĶëĿ¼": 1128,
      "Ġìĸ´ëĸ¨": 1129,
      "ë¨¹": 1130,
      "ĠëĨĢ": 1131,
      "Ġê°ĢëĬ¥": 1132,
      "ĥ¥": 1133,
      "ë§¤": 1134,
      "ìĬ¨": 1135,
      "Ġë³Ģ": 1136,
      "Ġíŀĺëĵ¤ìĸ´": 1137,
      "Ġëĸł": 1138,
      "ë©": 1139,
      "ëĨ": 1140,
      "ľ´": 1141,
      "Ġìĵ°": 1142,
      "ìĿ´íĬ¸": 1143,
      "ìĹħ": 1144,
      "Ġê±±ìłķ": 1145,
      "ìĪĺë": 1146,
      "ë¯¸": 1147,
      "Ġë²Ħ": 1148,
      "©ë¶Ħ": 1149,
      "ĠìĤ¬ë": 1150,
      "ì§Ĳ": 1151,
      "íķĺì£ł": 1152,
      "ìĿ¸ê°Ģ": 1153,
      "Ġì¢ĭê²łìĸ´ìļĶ": 1154,
      "ìĬ¤ëŁ¬": 1155,
      "µľ": 1156,
      "ìī": 1157,
      "ĠìķĬëĬĶ": 1158,
      "ĳľíĺĦ": 1159,
      "Ġëª°ëĿ¼ìļĶ": 1160,
      "ĺìĿ´": 1161,
      "Ł¼": 1162,
      "ë§ī": 1163,
      "¸ë¦": 1164,
      "¸ë¡ľ": 1165,
      "ìľĦ": 1166,
      "ëĤĺìļĶ": 1167,
      "ìĿ¸ì§Ģ": 1168,
      "ì¡±": 1169,
      "ëıĪ": 1170,
      "íĻĶë¥¼": 1171,
      "Ġë§ĪìĿĮìĿĦ": 1172,
      "ê»ĺ": 1173,
      "ë´ĲìļĶ": 1174,
      "ìĿ´ìĹĪ": 1175,
      "Ġìŀĺë": 1176,
      "ê°ĢëĬĶ": 1177,
      "ìĺĢ": 1178,
      "Ġë¶Ģë": 1179,
      "ĠìķĪëı¼": 1180,
      "Ĳëį°": 1181,
      "ë°©": 1182,
      "ì§ĿëħĢ": 1183,
      "Ġë¯¸": 1184,
      "ê°ĻìĿ´": 1185,
      "íİ": 1186,
      "ĠìŀĪìĹĪ": 1187,
      "ĠìŀĪìľ¼ë©´": 1188,
      "ë¦Ħ": 1189,
      "Ġê°ĻìĿ´": 1190,
      "Ġìłģ": 1191,
      "íĺ¸": 1192,
      "ĠìĤ¬ê·Ģ": 1193,
      "³´ìĦ¸ìļĶ": 1194,
      "¡Ŀ": 1195,
      "íĥ": 1196,
      "ìŀĬ": 1197,
      "ê¸°ëıĦ": 1198,
      "ëĤ¨ìŀĲ": 1199,
      "Ġê·¸ëŁ´": 1200,
      "ĠìĦ±": 1201,
      "Ġìļ°": 1202,
      "Ġì¹ľêµ¬": 1203,
      "Ġì§Ħì§ľ": 1204,
      "ëĦĪ": 1205,
      "ĠíĶ¼": 1206,
      "¶ģê¸Ī": 1207,
      "ìĿ´ë": 1208,
      "ìŀ¬": 1209,
      "ĠìĿ´ìĥģ": 1210,
      "íĺĢ": 1211,
      "ëŀĺ": 1212,
      "Ġíķłê¹Į": 1213,
      "íı°": 1214,
      "Ġê²°íĺ¼": 1215,
      "Īë¡ľìļ´": 1216,
      "Ġìĸ´ëĸ¨ê¹ĮìļĶ": 1217,
      "ëĺĲ": 1218,
      "ĬĲ": 1219,
      "ê²©": 1220,
      "ì¹¨": 1221,
      "ŀĺëıĦ": 1222,
      "ĠëĲĲ": 1223,
      "ĠìķĬìĿĦ": 1224,
      "ìĸĳ": 1225,
      "¸ëłĪ": 1226,
      "Ġê°Ĳìłķ": 1227,
      "Ġê³ĦìĨį": 1228,
      "ìĤ¬ë": 1229,
      "ê²¼": 1230,
      "ëĭ¤ê°Ģ": 1231,
      "íķĺëĬĶëį°": 1232,
      "ĠìĦľ": 1233,
      "ì§ĿëĤ¨": 1234,
      "ĠëĤ´ê°Ģ": 1235,
      "Ġìĸ¸": 1236,
      "Ġìī¬": 1237,
      "Ġì¹ľêµ¬ë": 1238,
      "Ġê´Ģìĭ¬": 1239,
      "ì¼ľ": 1240,
      "ì±": 1241,
      "ìĤ": 1242,
      "Ġ1": 1243,
      "ë°Ľ": 1244,
      "íĸĪëįĺ": 1245,
      "Ġë§Ĳíķ´ë³´ìĦ¸ìļĶ": 1246,
      "Ġë§İìķĦ": 1247,
      "ĠìĨį": 1248,
      "ì¡Įìĸ´": 1249,
      "ĠëĪĪ": 1250,
      "ĠëĬĲëĤ": 1251,
      "ë´": 1252,
      "íķĺëĦ¤": 1253,
      "íĶĪ": 1254,
      "Ġë¶Ħ": 1255,
      "ìĺ¤ëĬ": 1256,
      "íĬ¸ëłĪ": 1257,
      "¸ëł¥": 1258,
      "¸ëł¨": 1259,
      "Ġë¯¿": 1260,
      "ìĥĪ": 1261,
      "ëĪĦ": 1262,
      "ª¨": 1263,
      "ëķĮ": 1264,
      "ìķ½": 1265,
      "ìĹ¬ë": 1266,
      "ĠìŀĪëĬĶëį°": 1267,
      "Ġëĭµ": 1268,
      "ĠìĿ´ë": 1269,
      "ë¶Ģë": 1270,
      "Ġë§Ĳê³ł": 1271,
      "Ġê·¸ëŁ°": 1272,
      "Ġë¨¼ìłĢ": 1273,
      "Ġíķ¨": 1274,
      "ì¶Ķ": 1275,
      "ĠëĨĵ": 1276,
      "ĠíŀĺëĵľëĦ¤": 1277,
      "¶Ģ": 1278,
      "¶Ħ": 1279,
      "ĥĲ": 1280,
      "Ġìŀ¬ë": 1281,
      "ĠìłĢ": 1282,
      "¢ħ": 1283,
      "Ġëĵ¯": 1284,
      "ìĸ´ëıĦ": 1285,
      "Ġìŀł": 1286,
      "Ġê°Ħ": 1287,
      "ëĭĪê¹Į": 1288,
      "ì°¸": 1289,
      "ĠìĥĿê°ģíķ´ë³´ìĦ¸ìļĶ": 1290,
      "ĠëıĻ": 1291,
      "ìŀĪëĬĶ": 1292,
      "ĠëĤĺë¥¼": 1293,
      "ëĮĢë¡ľ": 1294,
      "½ì§Ģ": 1295,
      "ëį": 1296,
      "ĠíĳľíĺĦ": 1297,
      "Ġë§Įíģ¼": 1298,
      "Ġë§İìĿĢ": 1299,
      "íħĲëį°": 1300,
      "íĶĮ": 1301,
      "Ġê¸°ë¶Ħ": 1302,
      "Ġìłķë§Ĳ": 1303,
      "ĠìĦłíĥĿ": 1304,
      "ì³Ĳ": 1305,
      "Ġì¦": 1306,
      "ĠìĤ": 1307,
      "ê¸ī": 1308,
      "ìĺģ": 1309,
      "Ġê°ĻìĿĢëį°": 1310,
      "Ġê¸°ìĸµ": 1311,
      "ĠíĥĢëĬĶ": 1312,
      "ëŃĲ": 1313,
      "íĪ": 1314,
      "íľ´": 1315,
      "Ġê¿Ī": 1316,
      "ìķĺëĬĶëį°": 1317,
      "ê²łëĭ¤": 1318,
      "Ġë°ĺ": 1319,
      "ĠìĤ¬ëŀĮìĿĦ": 1320,
      "íĺķ": 1321,
      "Ġíĺ¼": 1322,
      "ĠëĶ°ëĿ¼": 1323,
      "Ġëĭ¹ìĭł": 1324,
      "ĠëıĮìķĦ": 1325,
      "íĿ": 1326,
      "ĭ°": 1327,
      "ê°Ī": 1328,
      "Ġíĥ": 1329,
      "ëĭ¤ìĭľ": 1330,
      "ê¸°ë¥¼": 1331,
      "ĠìĤ¬ëŀĮìĿĢ": 1332,
      "ëłĪ": 1333,
      "ĠìĿ´ìłľ": 1334,
      "ĠìķĬìķĦ": 1335,
      "ìĻľ": 1336,
      "ìĹĪìĸ´": 1337,
      "Ġë¶Ī": 1338,
      "Ġíķĺë£¨": 1339,
      "Ġì£¼ìĦ¸ìļĶ": 1340,
      "ê²½ìĵ°": 1341,
      "ĠëĪĦ": 1342,
      "íĽĦíļĮ": 1343,
      "Ġëį°ìĿ´íĬ¸": 1344,
      "êµ°ìļĶ": 1345,
      "ª»": 1346,
      "ë´Ĳ": 1347,
      "ê°ĳ": 1348,
      "Ġíı": 1349,
      "Ġíķ´ëıĦ": 1350,
      "Ġë³´ëĤ´": 1351,
      "ëĤ´ìĿ¼": 1352,
      "ì¶ľ": 1353,
      "ĠíķĺëĤĺ": 1354,
      "ê²łì§Ģë§Į": 1355,
      "ĠíĻĶ": 1356,
      "íĹĺ": 1357,
      "ì²ĺëŁ¼": 1358,
      "Ńìĥģ": 1359,
      "ê°ĢìļĶ": 1360,
      "ĠíĮ": 1361,
      "ìĤ¬ëŀĳìĿ´": 1362,
      "Ġê·¸ëł": 1363,
      "Ġì¢ĭê²łëĦ¤ìļĶ": 1364,
      "ìľ¼ìĦ¸ìļĶ": 1365,
      "Ġê²°ìłķ": 1366,
      "Ĥĺë´ĲìļĶ": 1367,
      "Ġë°ĶëĿ¼ìļĶ": 1368,
      "ëĶĶ": 1369,
      "ìį": 1370,
      "íĳľ": 1371,
      "Ł¬ë": 1372,
      "Ġìķŀ": 1373,
      "ìŀĲê¸°": 1374,
      "Ġìĭ¬": 1375,
      "ĠìĿ´ìľł": 1376,
      "ĠìĿ´ëłĩê²Į": 1377,
      "Ġìĭ¶ìĿĢ": 1378,
      "Ġìĺ¬": 1379,
      "ì£¼ëĬĶ": 1380,
      "ìĤ¬ëŀĳìĿĢ": 1381,
      "Ġìĸ´ëĶĶ": 1382,
      "íĸĪëĬĶëį°": 1383,
      "ĠëķĮë¬¸": 1384,
      "Ġë²Ī": 1385,
      "ê°ľìĽĶ": 1386,
      "Ġê¹¨": 1387,
      "ĠëĬĲëĤĮ": 1388,
      "íĬ¸ëłĪìĬ¤": 1389,
      "ĭ¤": 1390,
      "ëĭ¬ëĿ¼": 1391,
      "ĠìĿ´íķ´": 1392,
      "ê±°ëĿ¼": 1393,
      "Ġë§ĮëĤ": 1394,
      "Ġê°Ģê³ł": 1395,
      "ì§ĿëĤ¨ìĿ´": 1396,
      "Ġì¢ĭê²łëĭ¤": 1397,
      "Ġë¬¼ìĸ´": 1398,
      "ìĽĢìĿ´": 1399,
      "Ġìĸ¸ìłľ": 1400,
      "Ġë´Ĳ": 1401,
      "ë³Ģ": 1402,
      "ìĭ¸": 1403,
      "ìĺ¨": 1404,
      "ìĺ¬": 1405,
      "ĠëĲĺëĬĶ": 1406,
      "ê±°ëĤĺ": 1407,
      "Ġëĭ¤ê°Ģ": 1408,
      "ì²´": 1409,
      "Ġìĸ´ëķĮ": 1410,
      "ìłģìľ¼ë¡ľ": 1411,
      "ĠëŃĺ": 1412,
      "íĮħ": 1413,
      "ĠëĬ¦": 1414,
      "Ġìĸ¼": 1415,
      "ëĪĪ": 1416,
      "ãħł": 1417,
      "´ìĭ¬": 1418,
      "¿Ĳ": 1419,
      "ëľ": 1420,
      "Ġìŀ¡": 1421,
      "Ġìĭ¤": 1422,
      "ìĿ¸ê°Ģë´ĲìļĶ": 1423,
      "Ġìĺģ": 1424,
      "ĠìĺĪë": 1425,
      "Ġë§ĮëĤł": 1426,
      "ĠëķĮê°Ģ": 1427,
      "Ġìĸ´ëĸ¡": 1428,
      "Ġì¹´íĨ¡": 1429,
      "ìħĶ": 1430,
      "ĠíĽĦíļĮ": 1431,
      "ł¤ê³ł": 1432,
      "íĤ¤": 1433,
      "Ġì±Ļ": 1434,
      "ì·¨": 1435,
      "Ġì·¨": 1436,
      "Ġëį": 1437,
      "Ġëĵ": 1438,
      "íķĺëĦ¤ìļĶ": 1439,
      "ëł¸": 1440,
      "Ģëŀĳ": 1441,
      "ĠìķĦíĶĦ": 1442,
      "Ġë§ĮëĤĺë": 1443,
      "ê·¸ëħĢ": 1444,
      "ìĶ¨": 1445,
      "ê°ĻìĿĢ": 1446,
      "ìģĺ": 1447,
      "ì¡°ê¸Ī": 1448,
      "¥¸": 1449,
      "ì»¤": 1450,
      "ĴĢ": 1451,
      "Ġê¼": 1452,
      "ì§Ģì§Ģ": 1453,
      "ì¹´": 1454,
      "Ġìĸ´ëł¤": 1455,
      "íĻķ": 1456,
      "ì¤Ģ": 1457,
      "ìĥĪë¡ľìļ´": 1458,
      "ĮĢë¡ľ": 1459,
      "Ġìľł": 1460,
      "ìĭľê°ĦìĿ´": 1461,
      "ì±ħ": 1462,
      "ê¿Ī": 1463,
      "ë¡": 1464,
      "ëŁ¬": 1465,
      "ĠìĦ¤": 1466,
      "Ġìŀħ": 1467,
      "ë§Ŀ": 1468,
      "ëĿ¼ëıĦ": 1469,
      "ë¦¬ìĦ¸ìļĶ": 1470,
      "ëĤ¨ìŀĲì¹ľêµ¬": 1471,
      "Ġê°Ģë³´ìĦ¸ìļĶ": 1472,
      "ìĹ¬ìŀĲ": 1473,
      "ìłĢëĬĶ": 1474,
      "ë¶ĢíĦ°": 1475,
      "Ġëª¨ë¥´ê²łìĸ´": 1476,
      "ëĲĺ": 1477,
      "ìĿ´ëĿ¼ëıĦ": 1478,
      "ëģĿ": 1479,
      "ì©": 1480,
      "Ġìµľ": 1481,
      "ì§Ģë§ī": 1482,
      "íķĺëĤĺ": 1483,
      "ĪëĦ¤": 1484,
      "ĠìĿĺ": 1485,
      "ĠìķĦíĮĮ": 1486,
      "ì°©": 1487,
      "íĻľ": 1488,
      "Ġë§Ĳíķ´": 1489,
      "ìĪĻ": 1490,
      "ê·¸ëŁ´": 1491,
      "ì§ģìłĳ": 1492,
      "Ġì¢ĭê²łìĸ´": 1493,
      "ì¶ķ": 1494,
      "ê´ľì°®": 1495,
      "ê°ĲìĿ´": 1496,
      "ì¦ĺ": 1497,
      "Ġë¬¼ìĸ´ë³´ìĦ¸ìļĶ": 1498,
      "ĠìķĦëĭĪìĹĲìļĶ": 1499,
      "Ġì°¾ìķĦë³´ìĦ¸ìļĶ": 1500,
      "ê¼": 1501,
      "Ġê¶ģê¸Ī": 1502,
      "ìĿ´ìłł": 1503,
      "ìķĮ": 1504,
      "ĠíĨ": 1505,
      "ë³´ë©´": 1506,
      "ê¸°ëĭ¤": 1507,
      "ĠìĪľ": 1508,
      "ëĤĺë´Ĳ": 1509,
      "ĠìķĦì§ģ": 1510,
      "íĻĶê°Ģ": 1511,
      "ĠìĹ°ëĿ½ìĿ´": 1512,
      "ĠìĤ¬ìĿ´": 1513,
      "ìĥī": 1514,
      "Ġê³µë¶Ģ": 1515,
      "´ìĭ¬íŀĪ": 1516,
      "ì¢Ģ": 1517,
      "Ġ3": 1518,
      "¸ëŀĺ": 1519,
      "Ġìĭ¸": 1520,
      "íĻĺ": 1521,
      "ĠìĹ¬íĸī": 1522,
      "Ġê·¸ë§Į": 1523,
      "ìĬ¤ëŁ½": 1524,
      "ĠíĺĦ": 1525,
      "ĠëĶ°": 1526,
      "»Ĳ": 1527,
      "½ĥ": 1528,
      "ĠìŀĪì£ł": 1529,
      "ëĿ¼ë©´": 1530,
      "¼ë¥¸": 1531,
      "ëĤĺë´ħëĭĪëĭ¤": 1532,
      "ĠìĥĿê°ģíķ´": 1533,
      "ĠìķĬìĿĢ": 1534,
      "Ġê°ĢëĬĶ": 1535,
      "ê·¸ëł": 1536,
      "ì¹ľêµ¬ê°Ģ": 1537,
      "ì¶©ë¶Ħ": 1538,
      "ë¨¼ìłĢ": 1539,
      "ë¨¸ë¦¬": 1540,
      "ìķĺìĸ´": 1541,
      "Ġë¹ł": 1542,
      "ê±¸ê¹Į": 1543,
      "íŀĺëĵ¤": 1544,
      "ìļĶì¦ĺ": 1545,
      "ì§ĢìļĶ": 1546,
      "ìŀ¬ë": 1547,
      "ĠíĴĢ": 1548,
      "Ġìķ½": 1549,
      "íķľê°Ģë´ĲìļĶ": 1550,
      "êµ´": 1551,
      "Ġê·¸ëħĢ": 1552,
      "Ġì¢ĭìĿĦê¹Į": 1553,
      "íıŃ": 1554,
      "ĠìĹ¬ìŀĲìķł": 1555,
      "íķĺëĭĪ": 1556,
      "ĠìĽĲ": 1557,
      "Ġëħ¸ëł¥": 1558,
      "ê²ĥëıĦ": 1559,
      "Ġì¶Ķì²ľ": 1560,
      "ìĤ°": 1561,
      "Ġíķ¨ê»ĺ": 1562,
      "Ġíĺ¼ìŀĲ": 1563,
      "ìĿ´ëĦ¤": 1564,
      "ë¦°": 1565,
      "ìĬ´": 1566,
      "ĠìĥĿê²¼": 1567,
      "ìĿ¼ê¹Į": 1568,
      "ë¦¬ê°Ģ": 1569,
      "ìĪľ": 1570,
      "ĠìĻĢ": 1571,
      "ìĶĢ": 1572,
      "Ġê´ľì°®ìķĦ": 1573,
      "Ġë§ŀëĬĶ": 1574,
      "ĠíĿĺë": 1575,
      "íĴį": 1576,
      "Ġìŀĺëª»": 1577,
      "ìĺ¤ëĬĺëıĦ": 1578,
      "ĺĳ": 1579,
      "ìĿ´ëĤĺ": 1580,
      "ìĸ´ìķ¼": 1581,
      "ëĤ¬": 1582,
      "ëĭ¤ìĿĮ": 1583,
      "íķĺë£¨": 1584,
      "ĠìŀĪëĤĺë´ĲìļĶ": 1585,
      "ìĬ¬": 1586,
      "Ġë³Ħ": 1587,
      "¤ë©´": 1588,
      "ĠìķĦë¬´": 1589,
      "ë¦¬ê³ł": 1590,
      "ĠìĥĿê°ģìĿ´": 1591,
      "ë©´ìĦľ": 1592,
      "ìĹ¬ìŀĲì¹ľêµ¬": 1593,
      "ìĹ¬íĸī": 1594,
      "ê·¸ëĥ¥": 1595,
      "ì§Ħì§ľ": 1596,
      "ĠìĤ¬ëŀĳìĿ´": 1597,
      "ìļ´ëıĻ": 1598,
      "ìĽĮìļĶ": 1599,
      "ëª»": 1600,
      "Ġìļ´": 1601,
      "ê³µë¶Ģ": 1602,
      "ĠëıĦìĽĢìĿ´": 1603,
      "ìĭ¶ìĸ´": 1604,
      "ëĳ": 1605,
      "ĳìĽĲ": 1606,
      "Ġìį": 1607,
      "ëĤ¼": 1608,
      "ê³¤": 1609,
      "Ġë§Ľ": 1610,
      "Ġê°Ī": 1611,
      "Ġë°ľ": 1612,
      "Ġëĭ¬ëĿ¼": 1613,
      "Ġë³µ": 1614,
      "ëĤĺë§Į": 1615,
      "ìĭłìĿ´": 1616,
      "íĶĶ": 1617,
      "ĠëĤ¨ìŀĲìķł": 1618,
      "Ġìĺ¤ìĦ¸ìļĶ": 1619,
      "Ġë¶Ģëĭ´": 1620,
      "ëĮĢë°©": 1621,
      "Ġê·Ģì°®": 1622,
      "ª¨ëĭ": 1623,
      "Ġì±Ļê²¨": 1624,
      "Ġ2": 1625,
      "íķ´ì§Ģ": 1626,
      "Ġëĭ¤ë": 1627,
      "ĠìĪł": 1628,
      "Ġê°ĻìĿĢ": 1629,
      "Ġë³¼": 1630,
      "ëĤĺë¥¼": 1631,
      "ĠëĲľ": 1632,
      "ĠìķĬìķĺ": 1633,
      "Ġë§ĲìķĦìļĶ": 1634,
      "ìĤ¬ëŀĳíķĺëĬĶ": 1635,
      "Ġê·¸ë¦¬": 1636,
      "ĠìĹ°ëĿ½íķ´ë³´ìĦ¸ìļĶ": 1637,
      "ĠìķĮëł¤": 1638,
      "ĠìĿ¼ìĸ´": 1639,
      "Ġì£½": 1640,
      "ê±´ê°ķ": 1641,
      "Ġë¬´ìĬ¨": 1642,
      "íĸīë³µ": 1643,
      "ĠíĹ¤ìĸ´ì§Ħ": 1644,
      "Ġê´ľì°®ìķĦìļĶ": 1645,
      "Ġì¤ĳìļĶíķľ": 1646,
      "ë¦´ê²ĮìļĶ": 1647,
      "ìĸ´ëĸ¤": 1648,
      "ĠëķĮë¬¸ìĹĲ": 1649,
      "Ġëįľ": 1650,
      "ĦìłĦ": 1651,
      "Ġë´": 1652,
      "Ġë¿Ĳ": 1653,
      "ìĿ´ëĬĶ": 1654,
      "ì§ĵ": 1655,
      "ê³łë¯¼": 1656,
      "ë³¸": 1657,
      "Ġë§ī": 1658,
      "¸ëĵľ": 1659,
      "Ġê²½": 1660,
      "Ġëĭ¨": 1661,
      "ëł¨": 1662,
      "Ġìĭ¶ìĿĢëį°": 1663,
      "Ġê³¼": 1664,
      "ĠìĥĿê°ģìĿĦ": 1665,
      "Ġë§ĮëĤĺëĬĶ": 1666,
      "ì²«": 1667,
      "ëł¤ë³´ìĦ¸ìļĶ": 1668,
      "ĠìĦ¸": 1669,
      "ĠëĮĢíķľ": 1670,
      "Ġìĺ¤ëŀĺ": 1671,
      "ĠëĦĺ": 1672,
      "ĠìłľìĿ¼": 1673,
      "ĠìķĦëĭĪëĿ¼": 1674,
      "Ġì¦Ĳ": 1675,
      "ëľ»": 1676,
      "ê½ĥ": 1677,
      "ìĹĦ": 1678,
      "ìŀħ": 1679,
      "Ġìŀ¥": 1680,
      "ì£¼ë": 1681,
      "ê¸°ë¶Ħ": 1682,
      "êµ¬ëĤĺ": 1683,
      "ëŀĢ": 1684,
      "Ġê°Ģìł¸": 1685,
      "Ġëĭ¤ë¥´": 1686,
      "ëł¤ê³ł": 1687,
      "íķĺë©´ìĦľ": 1688,
      "ĠìĤ´ê³ł": 1689,
      "ĠìķĦëĭĲ": 1690,
      "ìŀĪê²Į": 1691,
      "ìĬ¤ë¡ľ": 1692,
      "Ġìī½ì§Ģ": 1693,
      "Ġìŀ¬ë¯¸": 1694,
      "ë¬": 1695,
      "ëĵ¯": 1696,
      "Ġìĥ": 1697,
      "ëĭ¬ë": 1698,
      "ĠìŀĶ": 1699,
      "ë§ĮìĹĲ": 1700,
      "ĠìĹĨìĿĦ": 1701,
      "íĸ¥": 1702,
      "Ġë§ĲìĿĦ": 1703,
      "ĠëĤĺê°Ģ": 1704,
      "ìĹ°ìĿ´": 1705,
      "ĠìĹ¬ìŀĲì¹ľêµ¬": 1706,
      "ìĭ¬íķĺìĦ¸ìļĶ": 1707,
      "íĸĪëĤĺë´ĲìļĶ": 1708,
      "ĠìķĮìķĺëĬĶëį°": 1709,
      "íĬ¸ë": 1710,
      "ĠíĹ¤ìĸ´ì¡Į": 1711,
      "ì¹ľêµ¬ëŀĳ": 1712,
      "ĠíĻķìĿ¸": 1713,
      "ëĶ°": 1714,
      "Ġëĸ¨ìĸ´": 1715,
      "¸ëĵľíı°": 1716,
      "ì¢ħ": 1717,
      "ĩ´": 1718,
      "ìĿ´ê°Ģ": 1719,
      "ìĿ´ëŀĳ": 1720,
      "Ġë§Īë": 1721,
      "íķĺê²łìĸ´ìļĶ": 1722,
      "íķľì§Ģ": 1723,
      "Ġê°Ļìķł": 1724,
      "Ġíķ´ë³¼ê¹Į": 1725,
      "ìĹĪëĬĶëį°": 1726,
      "Ġì§ĢëĤĺ": 1727,
      "Ġì§ĢëĤ´": 1728,
      "ĠìĤ¬ëŀĮìĿ´ëŀĳ": 1729,
      "ë¬´ìĬ¨": 1730,
      "ê°ĲìĿĦ": 1731,
      "ê·¸ê²Į": 1732,
      "íıī": 1733,
      "ĠíĸĪëĬĶëį°": 1734,
      "ê³ĦìĨį": 1735,
      "ê»´": 1736,
      "ĠìĽĥ": 1737,
      "íŀĺëĵł": 1738,
      "Ġíģ°": 1739,
      "ìĪĺë¡Ŀ": 1740,
      "íıŃíĴį": 1741,
      "ìķĪë": 1742,
      "ëĤ¬ë": 1743,
      "Ġê°ĸ": 1744,
      "ìŀĲê¾¸": 1745,
      "ê¸°ë¡ľ": 1746,
      "ë§Įíģ¼": 1747,
      "ĠìłĲ": 1748,
      "ìĤ¬ëŀĳìĿĺ": 1749,
      "ĠìĤ¬ëŀĳíķĺëĬĶ": 1750,
      "ìĸ¼": 1751,
      "ĠíķŃìĥģ": 1752,
      "ëª©": 1753,
      "ìĿ´ë³ĦìĿĦ": 1754,
      "Ġíķľëĭ¬": 1755,
      "Ġìļ©": 1756,
      "ĠìĥģíĻ©": 1757,
      "ĠëĮĢíĻĶë¥¼": 1758,
      "ê²°êµŃ": 1759,
      "ĠìĬ¬": 1760,
      "ëĲľ": 1761,
      "ìŀĲìĭłìĿĦ": 1762,
      "ë¹ł": 1763,
      "ĠëĲĺëĤĺ": 1764,
      "ìĸ¸ìłł": 1765,
      "Ġìĭłê²½ìĵ°": 1766,
      "ì²ĺìĿĮ": 1767,
      "ì½Ķ": 1768,
      "Ġêµ¬": 1769,
      "ëł¥ìĿ´": 1770,
      "ë§¤ìĿ¼": 1771,
      "ìĬ¤ëŁ¬ìļ´": 1772,
      "°Į": 1773,
      "ģĶ": 1774,
      "ł¨": 1775,
      "Ġíĭ°": 1776,
      "Ġë§ĺ": 1777,
      "ë°ĺ": 1778,
      "ĠìĹĨëĦ¤": 1779,
      "Ġì¢ĭìķĦíķł": 1780,
      "ĠëĤĺíķľíħĮ": 1781,
      "ìĥģëĮĢë°©": 1782,
      "Ġê¸¸": 1783,
      "Ġì§Ģê¸Ī": 1784,
      "ëª¸": 1785,
      "ë¥´ëĬĶ": 1786,
      "íĹ¤ìĸ´ì§Ģê³ł": 1787,
      "ĠìŀĲìĭłìĿĦ": 1788,
      "ìĸ´ëĸ»ê²Į": 1789,
      "Ġë¬¸ìłľ": 1790,
      "íĥľ": 1791,
      "ì¶©ë¶ĦíŀĪ": 1792,
      "´Ī": 1793,
      "µê´Ģ": 1794,
      "íĩ´": 1795,
      "Ķì§ģ": 1796,
      "ìĦ¸ìĥģ": 1797,
      "Ġíŀĺ": 1798,
      "Ġë§¤": 1799,
      "ĠìĹĦ": 1800,
      "Ġê±°ëĿ¼": 1801,
      "ëĤĺê³ł": 1802,
      "ĢëŁ¬": 1803,
      "Ġë§Īìĭľ": 1804,
      "Ġì¢ĭìķĦíķ´": 1805,
      "Ġìĭ¶ìĸ´ìļĶ": 1806,
      "ëĤ¨ì¹ľ": 1807,
      "ë¶Ī": 1808,
      "Ġë§ĲìĶĢ": 1809,
      "ê·¸ëŀĺëıĦ": 1810,
      "ĠìĤ¬ëŀĳìĿĦ": 1811,
      "ĠëıĪ": 1812,
      "ĠìĹ°ëĿ½ìĿĦ": 1813,
      "ìłģìĿ´": 1814,
      "Ġì£¼ë": 1815,
      "ĠëĲĺìĹĪ": 1816,
      "Ġì¶ķ": 1817,
      "ìľ¼ëĭĪê¹ĮìļĶ": 1818,
      "ĠìĬµê´Ģ": 1819,
      "Ġì¤ĳìļĶíķ´ìļĶ": 1820,
      "ìĻĶìĸ´": 1821,
      "ĠìĤ¬ëĬĶ": 1822,
      "£Į": 1823,
      "¨ë¦¬": 1824,
      "ê¿": 1825,
      "ĺë©´": 1826,
      "ĺë¯¸": 1827,
      "ê°Ģê³ł": 1828,
      "ĠìŀĪëĭ¤ë©´": 1829,
      "ì¹ł": 1830,
      "ĠìĤ¬ëŀĮëĵ¤": 1831,
      "ĠìĤ¬ëŀĮíķľíħĮ": 1832,
      "Ġê²ĥìĿ´": 1833,
      "įĶëĭĪ": 1834,
      "Ġë³´ëĬĶ": 1835,
      "Ġê·¸ëĥ¥": 1836,
      "Ġë¶Ļ": 1837,
      "ë¯¸ëł¨": 1838,
      "Ġë¨¹ìĸ´": 1839,
      "Ġë²Į": 1840,
      "ê±´ê°Ģ": 1841,
      "ëıĻìķĪ": 1842,
      "Ġê±¸ê¹Į": 1843,
      "ĠíĹ¤ìĸ´ì§Ģ": 1844,
      "Ġë§ĮëĤĺê³ł": 1845,
      "Ġìĺ¤ëĬĺ": 1846,
      "ì¹ľêµ¬ëĵ¤": 1847,
      "ìĹĨìĿ´": 1848,
      "ĠìĻĶìĸ´": 1849,
      "ì§ĿëħĢê°Ģ": 1850,
      "Ġê·¸ëłĩ": 1851,
      "ĠëŃĺê¹Į": 1852,
      "Ġëĵ£": 1853,
      "ĠíĨµ": 1854,
      "íĭ": 1855,
      "Ĳĺ": 1856,
      "Ġì»¤": 1857,
      "Ġê¾": 1858,
      "ê°Ķ": 1859,
      "ìĸ´ë²Ħ": 1860,
      "Ġíļ": 1861,
      "ĠíĥĪ": 1862,
      "ĪëĮĢ": 1863,
      "Ġì§ģ": 1864,
      "ê±°ìķ¼": 1865,
      "ë§ĪìĦ¸ìļĶ": 1866,
      "ìĨĲ": 1867,
      "Ġìĸ´ëĸ¤": 1868,
      "ìĿ´ë³ĦìĿĢ": 1869,
      "Ġëª»íķĺ": 1870,
      "ë§ĪìĿĮìĿĦ": 1871,
      "ĠëģĬ": 1872,
      "Ġìĥģê´Ģ": 1873,
      "Ġë¯¸ëł¨": 1874,
      "ë¦¬ë¥¼": 1875,
      "íı¬": 1876,
      "Ġíĺ¸": 1877,
      "ê°ľíĮħ": 1878,
      "Ġì§ĿëĤ¨": 1879,
      "ìį¨": 1880,
      "ìģĺê²Į": 1881,
      "Ġê¼Ń": 1882,
      "ĠìĪľê°Ħ": 1883,
      "°Ľ": 1884,
      "¹ë³µ": 1885,
      "íķ´ì§Ī": 1886,
      "Ġë§Ŀ": 1887,
      "ìĹĲëıĦ": 1888,
      "Ġê°ĳ": 1889,
      "ĠìĿ¼ë": 1890,
      "ìĽł": 1891,
      "ìĿ¼ì§¸": 1892,
      "ì°¬": 1893,
      "ĠìĹ°ìĬµ": 1894,
      "ëł¤ìļĶ": 1895,
      "Ġì°į": 1896,
      "Ġíķ©ëĭĪëĭ¤": 1897,
      "íĻĶìŀ¥": 1898,
      "Ġì¹ĺ": 1899,
      "Ġìĭľê°ĦìĿĦ": 1900,
      "íļĮìĤ¬": 1901,
      "Ġì¡´": 1902,
      "ĠëŃĲê°Ģ": 1903,
      "íģ¬": 1904,
      "Ġëª¨ë¥´ê²łìĸ´ìļĶ": 1905,
      "Ġê´Ģê³Ħ": 1906,
      "Ġíķĺì£ł": 1907,
      "Ġì§ĿëħĢ": 1908,
      "ĠìľĦë¡ľ": 1909,
      "Ġë©ĭ": 1910,
      "ĠíĻķìĭ¤": 1911,
      "ĠìĬ¤íĬ¸ëłĪìĬ¤": 1912,
      "ìķĦì§ģëıĦ": 1913,
      "ìī¬": 1914,
      "Ġëĭµëĭµ": 1915,
      "Ġíĥľ": 1916,
      "Ġíı¬": 1917,
      "Ġìĸ´ëĸ¡íķ´": 1918,
      "ì»¤íĶ¼": 1919,
      "ê·¸ëłĩê²Į": 1920,
      "ĠìĹĦì²Ń": 1921,
      "ìĸ´ìłľ": 1922,
      "ĠìĭĿ": 1923,
      "ê¸°ëĬĶ": 1924,
      "Ġë§İìķĺ": 1925,
      "ìĹ¬ì¹ľ": 1926,
      "Ġê·¸ëŀĺ": 1927,
      "Ġê¸°ëĮĢ": 1928,
      "ĠìĤ¬ìĦ¸ìļĶ": 1929,
      "ĠìłķëıĦ": 1930,
      "ìį¸ëĤ¨": 1931,
      "Ġì¶©ë¶Ħ": 1932,
      "ĠíķĺëĬĶëį°": 1933,
      "ĠëĤĺë§Į": 1934,
      "ĠìĹ¬ìŀĲê°Ģ": 1935,
      "íĹĪ": 1936,
      "ì²ľíŀĪ": 1937,
      "Ġíģ¬": 1938,
      "¬ëĬĶëį°": 1939,
      "ĠìĦľë¡ľ": 1940,
      "ëĭ¬ëĿ¼ê³ł": 1941,
      "ĠìĺĪë»Ĳ": 1942,
      "Ġë³Ħë¡ľ": 1943,
      "Ġë§Īëł¨": 1944,
      "ĭĪ": 1945,
      "Ĵ¤": 1946,
      "ĵĿ": 1947,
      "ìĿĳ": 1948,
      "Ġê¿": 1949,
      "ìĿ´ë©´": 1950,
      "ì§Ģê°Ģ": 1951,
      "¬ë¦¬": 1952,
      "ìŀĶ": 1953,
      "ë§¨": 1954,
      "íķĺê¸¸": 1955,
      "Ġê°Ķ": 1956,
      "ĠëĤľ": 1957,
      "ê¸°ê¹Įì§Ģ": 1958,
      "¼ë¡ľ": 1959,
      "ìĬ¹": 1960,
      "ĠìĤ¬ëŀĮëıĦ": 1961,
      "ëłµ": 1962,
      "ìĿ¸ìĥĿ": 1963,
      "ë°¥": 1964,
      "ĠìķĦëĬĶ": 1965,
      "ìĿ¼ìĿ´": 1966,
      "ë¦¬ì§Ģ": 1967,
      "ì°į": 1968,
      "ì£¼ê³ł": 1969,
      "ĠìķĬì£ł": 1970,
      "ë§Īì§Ģë§ī": 1971,
      "Ġë°Ķë": 1972,
      "ì¡´": 1973,
      "ĠìĹ°ëĿ½íķ´": 1974,
      "Ġë§ĪìĿĮìĹĲ": 1975,
      "Ġëª¨ìĬµ": 1976,
      "Ġëª¨ëĳĲ": 1977,
      "ë§ĪìĿĮìĹĲ": 1978,
      "ë§ĪìĿĮìĿĺ": 1979,
      "ìļ°ë¦¬": 1980,
      "Ŀ¼ê³ł": 1981,
      "ĠëĲĺê¸¸": 1982,
      "ê°ĻìķĦ": 1983,
      "ìĺ¤ëĬĺìĿĢ": 1984,
      "ĠìĿ¸ìłķ": 1985,
      "ĠíĿĲ": 1986,
      "ĠëĦĪ": 1987,
      "Ġì¶Ķìĸµ": 1988,
      "ĠìĺĪìĿĺ": 1989,
      "Ġë°ĽìķĦëĵ¤ìĿ´": 1990,
      "íİ´": 1991,
      "Ġì¹ľêµ¬ê°Ģ": 1992,
      "ë¶Ģëª¨ëĭ": 1993,
      "Ġëĭ¤ê°Ģê°Ģ": 1994,
      "ìĹĦë§Ī": 1995,
      "º¼": 1996,
      "ì»": 1997,
      "ħķ": 1998,
      "Ġë´ĲìļĶ": 1999,
      "ìķŀ": 2000,
      "ê°Īë": 2001,
      "ìĸ´ìĦľ": 2002,
      "ê³łë°±": 2003,
      "ìłĢëŀĳ": 2004,
      "ë§ĺ": 2005,
      "ê¹Ĳ": 2006,
      "Īë¬¼": 2007,
      "Īë°©": 2008,
      "Ġë°ĺë": 2009,
      "ĠìĿ´ìĸ´": 2010,
      "ëĤ¨íİ¸": 2011,
      "Ġê°Ģìŀ¥": 2012,
      "ĠíŀĺëĤ´": 2013,
      "ĠëĤĺìĻĢ": 2014,
      "ëı¼": 2015,
      "Ġíŀĺëĵ¤ìĹĪ": 2016,
      "ìĺ¤ëŀĺ": 2017,
      "ĠëŃĶ": 2018,
      "íĹ¤ìĸ´ì§Ģ": 2019,
      "Ġë°Ľê³ł": 2020,
      "ĠìĤ´íİ´": 2021,
      "ĠìķĦëĭĮëį°": 2022,
      "Ġì¡°ê¸ĪìĶ©": 2023,
      "ë¨¹ê³ł": 2024,
      "ìĬ¤ëŁ¬ìĽĮ": 2025,
      "ê²©ìĿ´": 2026,
      "Ġë³µìŀ¡": 2027,
      "ëĥĪ": 2028,
      "İĮ": 2029,
      "ŀľ": 2030,
      "łĢ": 2031,
      "íķĳ": 2032,
      "ìĹĩ": 2033,
      "íķ´ì¤ĺ": 2034,
      "ìķĦìĦľ": 2035,
      "ëĭ¤ëĭĪ": 2036,
      "ê¸Ģ": 2037,
      "íķĺìĭľ": 2038,
      "ĠìĹ´ìĭ¬íŀĪ": 2039,
      "ĠìŀĪëĤĺ": 2040,
      "ëĤĺë©´": 2041,
      "ĠìĹĨìĿ´": 2042,
      "Ġê·¹ë³µ": 2043,
      "ê±°ë¦¬": 2044,
      "ìłķìĿ´": 2045,
      "Ġìĸ´ì©": 2046,
      "Ġìĺ¨": 2047,
      "ĠëĤĺìĿĦ": 2048,
      "ĠëĤĺìĦľ": 2049,
      "ĠìŀĲì£¼": 2050,
      "Ġì§Ģì¼ľ": 2051,
      "ì¶°": 2052,
      "ê°Ģë´ħëĭĪëĭ¤": 2053,
      "ĠëĲĺìĸ´": 2054,
      "ĠëĤ¨ìŀĲê°Ģ": 2055,
      "ĠìŀĬíĺĢ": 2056,
      "ĠíĸĪìĸ´": 2057,
      "ìŀĲìĭłìĿĺ": 2058,
      "Ġìłķë¦¬ê°Ģ": 2059,
      "Ġì§ĳìĹĲ": 2060,
      "ĠìľĦíķ´": 2061,
      "ì³¤": 2062,
      "ì§ĿëĤ¨íķľíħĮ": 2063,
      "Ġë¯¿ìĸ´ìļĶ": 2064,
      "Ġì£¼ë¬´": 2065,
      "Ġë°ĶëĢ": 2066,
      "ëŀĺëıĦ": 2067,
      "ëĥĲ": 2068,
      "ìµľ": 2069,
      "Ĥ¤": 2070,
      "Ġìĵ": 2071,
      "Ġëķ": 2072,
      "íķ¸ëĵľíı°": 2073,
      "ìĦ¤": 2074,
      "¬ëł¤": 2075,
      "ëĬĶì§Ģ": 2076,
      "ĠíĦ": 2077,
      "ĠíĤ¤": 2078,
      "¸ëŀĺë": 2079,
      "íķľê²Į": 2080,
      "ì¹´íĨ¡": 2081,
      "ëĤĺíķľíħĮ": 2082,
      "ê·¹": 2083,
      "ĠìĿ´ê²¨": 2084,
      "Ģë¡ľ": 2085,
      "ëĤĺëıĦ": 2086,
      "ĠìķĦíĶĪ": 2087,
      "ê±°ìļ´": 2088,
      "Ġê°ĢìĦľ": 2089,
      "ĠëĤĺìķĦ": 2090,
      "ĠìŀĲì²´": 2091,
      "ìĸ¼ë¥¸": 2092,
      "ĠìĹ¬ì¹ľ": 2093,
      "íĸĪìĸ´ìļĶ": 2094,
      "ìłĦíĻĶ": 2095,
      "ìŀ¥ìĿ´": 2096,
      "Ġíŀĺëĵ¤ëĭ¤": 2097,
      "Ġíŀĺëĵ¤ê²Į": 2098,
      "¸ëł¤": 2099,
      "ê²łì§ĢìļĶ": 2100,
      "ĠëĬĲê»´": 2101,
      "Ġê¸°ëĭ¤ëł¤": 2102,
      "ë§ĽìŀĪê²Į": 2103,
      "ìĿ´ìĹĪìĿĦ": 2104,
      "íĪ¬": 2105,
      "ì¡°ê¸Īë§Į": 2106,
      "Ġìļ´ëıĻ": 2107,
      "Ġë¿ĲìĿ´ìĹĲìļĶ": 2108,
      "ĠíļĮ": 2109,
      "©ìłĦ": 2110,
      "µìĪĻ": 2111,
      "Ġì¢ħ": 2112,
      "Ġëĳ": 2113,
      "ìĿ´ì§Ģ": 2114,
      "ìĦĿ": 2115,
      "ìĹŃ": 2116,
      "ìŀĸ": 2117,
      "ìķĦìķ¼": 2118,
      "ê°Ģì¡±": 2119,
      "íķľëĭ¤ë©´": 2120,
      "ĠëĤ«": 2121,
      "¼ë¦¬": 2122,
      "ë¦¼": 2123,
      "ĠìĤ¬ëŀĮëĵ¤ìĿ´": 2124,
      "Ġíķ´ì£¼ìĦ¸ìļĶ": 2125,
      "Ġëª°": 2126,
      "ìĿ¸ìĹ°ìĿ´": 2127,
      "ë°¤": 2128,
      "Ġìĭ¶ëĦ¤ìļĶ": 2129,
      "Ġë³´ìĹ¬": 2130,
      "Ġê°ĢìĬ´": 2131,
      "ë§Īëĭ¤": 2132,
      "ìĪŃ": 2133,
      "ĠëĤĺìĺ¤": 2134,
      "Ġì°©": 2135,
      "ëĵ¤ìĿĢ": 2136,
      "ĠíķĻ": 2137,
      "ìĭ¬ìľ¼ë¡ľ": 2138,
      "ìĥĿíĻľ": 2139,
      "ĠìĤ¬ê·": 2140,
      "ìĤ¬ê·Ģ": 2141,
      "ì§ģìŀ¥": 2142,
      "ê°Ĳê¸°": 2143,
      "Ġë¬´ìĭľ": 2144,
      "Ġìĸĺ": 2145,
      "ì¦Ĳ": 2146,
      "ĠìłĦìĹĲ": 2147,
      "ĠìłĦíĻĶ": 2148,
      "ì¤ĳìĹĲ": 2149,
      "ĠíķĦìļĶíķľ": 2150,
      "Ġìī¬ìĸ´": 2151,
      "ì§Ģê¸ĪëıĦ": 2152,
      "ĠíĶĦ": 2153,
      "ĠëĳĲëł¤": 2154,
      "Ġë§Įëĵ¤ìĸ´": 2155,
      "íĤ¨": 2156,
      "ë©ĭ": 2157,
      "ĠìŀĪìĹĪëĤĺë´ĲìļĶ": 2158,
      "Ġë§ĮëĤ¬ìĸ´": 2159,
      "ĠìĺģíĻĶ": 2160,
      "Ġê·Ģì°®ìķĦ": 2161,
      "Ġì£¼ë¬´ìĦ¸ìļĶ": 2162,
      "ëĥ": 2163,
      "ĠëĮĢë¡ľ": 2164,
      "íķĦ": 2165,
      "ìļķ": 2166,
      "ìĿ´ê³ł": 2167,
      "ìķħ": 2168,
      "Ġìŀĳ": 2169,
      "ë§ŀ": 2170,
      "íķĺê²łëĦ¤ìļĶ": 2171,
      "Ġê°ľ": 2172,
      "íķľëį°": 2173,
      "Ġê²¬ë": 2174,
      "ì¹Ń": 2175,
      "ëĤĺìģľ": 2176,
      "ĠìĪĺë": 2177,
      "ëĤĺëĦ¤": 2178,
      "Ġëª©": 2179,
      "ĠìĹĨì£ł": 2180,
      "Ġë§Īì£¼": 2181,
      "ëŀĮ": 2182,
      "Ġë³´ë©´": 2183,
      "ë§ĪìĬ¤": 2184,
      "ëıħ": 2185,
      "ĠìĹ°ëĿ½íķĺê³ł": 2186,
      "ĠìĤ¬ì§Ħ": 2187,
      "ë¥´ê³ł": 2188,
      "ìĬ¤íĬ¸ëłĪìĬ¤": 2189,
      "ê°Ģë´Ĳ": 2190,
      "ë¨¸ë¦": 2191,
      "ìĨĮê°ľíĮħ": 2192,
      "ĠëĵľëĬĶ": 2193,
      "ëĤłìĶ¨": 2194,
      "ĠíĹ¤ìĸ´ì§Ĳ": 2195,
      "ĠëĤĺëĪ": 2196,
      "ìł¸ìļĶ": 2197,
      "ë§İìĿĢ": 2198,
      "ĠìĿ¸ìĥĿ": 2199,
      "ĠëĤłìĿ´": 2200,
      "Ġë¹Į": 2201,
      "Ġì§ĿìĤ¬ëŀĳ": 2202,
      "ëĭ¹ìĭłìĿ´": 2203,
      "ëĭ¹ìĭłìĿĺ": 2204,
      "Ġê³³ìľ¼ë¡ľ": 2205,
      "ìĸ¸ìłľ": 2206,
      "íİĺ": 2207,
      "ìĤ¬ë¥¼": 2208,
      "ìĹ¬ë³´ìĦ¸ìļĶ": 2209,
      "Ġìµľê³ł": 2210,
      "Ġëĭ¤ëħĢ": 2211,
      "ì§ĵë§Ĳ": 2212,
      "Ġë¨¹ìĸ´ìķ¼ì§Ģ": 2213,
      "Ġëª»íķĺê²łìĸ´": 2214,
      "¹ł": 2215,
      "ëįĺ": 2216,
      "íĭ°": 2217,
      "Ġëľ": 2218,
      "ìĿ¼ë": 2219,
      "Ġìŀ¬": 2220,
      "ì£¼ë©´": 2221,
      "Ġê±°ì£ł": 2222,
      "ĠìĿ½": 2223,
      "Ġë°¥": 2224,
      "Ġê°ĻìĬµëĭĪëĭ¤": 2225,
      "Ġëªĩ": 2226,
      "ĠìĹĨëĦ¤ìļĶ": 2227,
      "ĠìĥĿê¸¸": 2228,
      "ìĿ¼ìĿĦ": 2229,
      "ìłķìĭł": 2230,
      "Ġë§İìķĦìļĶ": 2231,
      "ìĹ¬ì¹ľìĿ´": 2232,
      "ê·¸ë¶Ħ": 2233,
      "ë²Į": 2234,
      "ìļ´ëªħ": 2235,
      "ëħĲ": 2236,
      "Ġê´´": 2237,
      "ĠìķĮê²Į": 2238,
      "ĠëĲĺì§Ģ": 2239,
      "Ġì£¼ëĬĶ": 2240,
      "Ġì£¼ë§Ĳ": 2241,
      "Ġë¹¨ë¦¬": 2242,
      "Ġì§ĿëĤ¨ìĿ´": 2243,
      "ĠíĸīëıĻ": 2244,
      "ĠëıĦìĻĢ": 2245,
      "íĺĦìĭ¤": 2246,
      "Ġë¶Ģì¡±": 2247,
      "Ġíİ¸ìĿ´": 2248,
      "ìŀłìĭľ": 2249,
      "Ġê³łë¯¼ìĿ´ìķ¼": 2250,
      "ìķĺëĤĺë´ĲìļĶ": 2251,
      "ìķĦë¬´ëŀĺëıĦ": 2252,
      "Ġë°°ìļ°": 2253,
      "ìĿ´ëŁ°": 2254,
      "ë´Ħ": 2255,
      "Ġìŀ¬ë°Į": 2256,
      "Ġìĸ¸ìłľëĤĺ": 2257,
      "Ġìĸ¼ë§Ī": 2258,
      "ìĬ¬íĶĪ": 2259,
      "ĠëĤ¨ìŀĲìķłê°Ģ": 2260,
      "ĠíŀĺìĿ´": 2261,
      "Ġë§İìķĺìĸ´ìļĶ": 2262,
      "ĠìĺĪìĿĺê°Ģ": 2263,
      "!!<": 2264,
      "¬ìľ¼ë©´": 2265,
      "½ê²Į": 2266,
      "ê¶ģê¸Ī": 2267,
      "ëĸ": 2268,
      "ëĺĳ": 2269,
      "ìĿ´ìĥģ": 2270,
      "ìĹĪëĦ¤": 2271,
      "ìķĦì¹¨": 2272,
      "ê°ĢìĦ¸ìļĶ": 2273,
      "ĠíĬ": 2274,
      "ê¸°ìĸµ": 2275,
      "ì¹ĺë": 2276,
      "Ġëĭ¬": 2277,
      "Ġì§ľ": 2278,
      "ĠìķĦíĶĶ": 2279,
      "ìĭłê²½ìĵ°": 2280,
      "Ġìĺ·": 2281,
      "ìĤ¬ëŀĳìĹĲ": 2282,
      "Ġê°Ģì§Ģ": 2283,
      "Ġë°Ķê¿": 2284,
      "íĶ¼ë": 2285,
      "íĸĪìľ¼ë©´": 2286,
      "Ġíŀĺëĵ¤ìĸ´ìļĶ": 2287,
      "ĠìķĮë°Ķ": 2288,
      "ìĺ¤ëŀľ": 2289,
      "Ġê±´ì§Ģ": 2290,
      "ìį¸ëĤ¨ìĿ´": 2291,
      "Ġì¤ĳìĹĲ": 2292,
      "Ġë°ĽìĿĦ": 2293,
      "ë¨¸": 2294,
      "Ġë²ķ": 2295,
      "ê±´ì§Ģ": 2296,
      "Ġìļķ": 2297,
      "ĠëĨĴ": 2298,
      "ĠëĨĢëŁ¬": 2299,
      "Ġë¬´ìĦľ": 2300,
      "ĠìĥģëĮĢ": 2301,
      "Ġìĥģì²ĺë": 2302,
      "ìľ¼ëĭĪ": 2303,
      "ĠíķĦìļĶíķ´ìļĶ": 2304,
      "Ġê´ľì°®ìĿĦê¹Į": 2305,
      "Ġì¡°ìĭ¬íķĺìĦ¸ìļĶ": 2306,
      "ìľłê°Ģ": 2307,
      "ë°ĶëŀĮ": 2308,
      "ĠíĥĢê³ł": 2309,
      "ìĦ±ê³µ": 2310,
      "ìĿ´ëĿ¼ëĬĶ": 2311,
      "Ġì¤ĳìļĶíķĺì§Ģ": 2312,
      "Ġì²«": 2313,
      "Ġì²ľ": 2314,
      "Ġìķłê°Ģ": 2315,
      "Ġë¹Ħìĭ¸": 2316,
      "ì²ľì²ľíŀĪ": 2317,
      "Ġíĸīë³µíķ´": 2318,
      "ë©Ķ": 2319,
      "ĠìķĬìķĦëıĦ": 2320,
      "Ġê·¸ëłĩê²Į": 2321,
      "Ł¬ë©´": 2322,
      "ĠìķŀìĹĲ": 2323,
      "íĻĺìĬ¹": 2324,
      "ĠíĺĦìĭ¤": 2325,
      "ĠíĿĺëłĢ": 2326,
      "ĠíĻķìĿ¸íķ´ë³´ìĦ¸ìļĶ": 2327,
      "ëĤ¬ëĦ¤": 2328,
      "¯¼": 2329,
      "·ê°Īë": 2330,
      "¼íķĳ": 2331,
      "íį": 2332,
      "ĢìĿ´": 2333,
      "ĩ¼íķĳ": 2334,
      "Ĳìĸ´": 2335,
      "ĵê³ł": 2336,
      "ĸìĹĲ": 2337,
      "ìĿ´ëłĩê²Į": 2338,
      "ìĦŃ": 2339,
      "íķ´ìķ¼ì§Ģ": 2340,
      "ìķĦë³´ìĦ¸ìļĶ": 2341,
      "ê°ĢëĦ¤": 2342,
      "ĪëĦ¤ìļĶ": 2343,
      "ì£½": 2344,
      "ëĤĺì¤ĳìĹĲ": 2345,
      "Ġëĭ´": 2346,
      "ëł¤ë": 2347,
      "Ġì§Īë": 2348,
      "Ġìłĳ": 2349,
      "Ġìĸ´ëłµ": 2350,
      "ĠìĥĿê°ģëĤĺ": 2351,
      "Ġë§ĮëĤ¨": 2352,
      "Ġëĭ¤ë¥¼": 2353,
      "ĠìķĪíķ´": 2354,
      "ì¤Ģë¹Ħ": 2355,
      "ìĻĦìłĦ": 2356,
      "ìĹĪëĤĺë´ĲìļĶ": 2357,
      "ĠìĤ¬ëŀĳíķ´ì£¼ìĦ¸ìļĶ": 2358,
      "Ġìŀĺíķł": 2359,
      "ëıĮ": 2360,
      "ìĭ¬ìĿĦ": 2361,
      "Ġíŀĺëĵ¤ì£ł": 2362,
      "ĠëķĮê¹Įì§Ģ": 2363,
      "ìĿ´ë³ĦíĽĦ": 2364,
      "ë¯¿": 2365,
      "ĠìĨĶì§ģ": 2366,
      "ê°Ĳìłķ": 2367,
      "ĠëŃĲìķ¼": 2368,
      "ĠìŀĪëĬĶì§Ģ": 2369,
      "ĠëģĿëĤ´": 2370,
      "ìĸ´ëĬĲ": 2371,
      "ĠíķĦìļĶíķ´": 2372,
      "íķĻêµĲ": 2373,
      "Ġìłľê°Ģ": 2374,
      "ëª¨ëĵł": 2375,
      "ìĽĢìĿĦ": 2376,
      "ĠíĹĪ": 2377,
      "Ġêµ¬ë": 2378,
      "ĠìķĪëĲĺ": 2379,
      "ìŀ¬íļĮ": 2380,
      "ĠëĲĲìĸ´": 2381,
      "ìĺ¤ëĬĺë": 2382,
      "ĠëĨĵìķĦ": 2383,
      "ĠìķĮëł¤ì¤ĺ": 2384,
      "Ġê°Ģìł¸ë³´ìĦ¸ìļĶ": 2385,
      "ĠìķĦëĭĲê¹ĮìļĶ": 2386,
      "Ġìĭłê²½ìĵ°ì§Ģ": 2387,
      "Ġê·¸ëŀĺìļĶ": 2388,
      "ëĤ¨íİ¸ìĿ´": 2389,
      "ĠìĤ´íİ´ë³´ìĦ¸ìļĶ": 2390,
      "¤ìķĦ": 2391,
      "©°": 2392,
      "ë£Į": 2393,
      "Ĳľ": 2394,
      "ĠìĶ": 2395,
      "Ġëĥ": 2396,
      "íķŃìĥģ": 2397,
      "ê²¬": 2398,
      "ê²ģ": 2399,
      "ìĹĶ": 2400,
      "ìĹ´ìĭ¬íŀĪ": 2401,
      "íķ´ì§ĢëĬĶ": 2402,
      "ìĭŃ": 2403,
      "íķĺê²łì£ł": 2404,
      "ĠìĹ´": 2405,
      "íķľëĭ¤ê³ł": 2406,
      "ĠëĤĺëĬĶ": 2407,
      "ĠìĿĮ": 2408,
      "ĠìĿĺë¯¸": 2409,
      "ê²łìĬµëĭĪëĭ¤": 2410,
      "Ġíķ´ë´ĲìļĶ": 2411,
      "ĠìĥĿìĿ¼": 2412,
      "ìĭľìĽĲ": 2413,
      "ĠìķĬê¸¸": 2414,
      "ĠëĤĺìģľ": 2415,
      "ìĥģëĮĢ": 2416,
      "ìĥģì²ĺ": 2417,
      "Ġìĭľì¼ľ": 2418,
      "ë²½": 2419,
      "Ġìŀĺíķ´": 2420,
      "ĠìŀĺíķĺëĬĶ": 2421,
      "Ġìŀĺíķĺê³ł": 2422,
      "ëħ¸": 2423,
      "ëħ¸ëł¥": 2424,
      "ìĿ´ë³ĦìĿ´": 2425,
      "ìĿ´ë³Ħíķľì§Ģ": 2426,
      "Ġë¨¹ìľ¼ë©´": 2427,
      "ĠìĨĲ": 2428,
      "ë¨¼": 2429,
      "Ġìļ¸": 2430,
      "ĠìļĶ": 2431,
      "ĠìĿ´ë³ĦìĿĦ": 2432,
      "Ġê·¸ê²Į": 2433,
      "ìħĺ": 2434,
      "ĠíĽĦíıŃíĴį": 2435,
      "ìĭĿìĿĦ": 2436,
      "ìĤ¬ëŀĮìĿĢ": 2437,
      "ìĿ´ëĿ¼ê³ł": 2438,
      "Ġê´Ģë¦¬": 2439,
      "Ġíķĺìħ¨": 2440,
      "Ġì²Ļ": 2441,
      "Ġì²Ń": 2442,
      "ìĥĿê°ģë³´ëĭ¤": 2443,
      "ĠìŀĲìĭłìĿ´": 2444,
      "ãħİ": 2445,
      "ĠìķĦëĭĮì§Ģ": 2446,
      "Ġê³³ìĿ´": 2447,
      "ĠìķĪëĲĺëĬĶ": 2448,
      "ë§ĽìŀĪëĬĶ": 2449,
      "Ġë²Ħíħ": 2450,
      "ĠíĶ¼ê³¤": 2451,
      "Ġê°ĲìłķìĿĦ": 2452,
      "ì¶Ķìĸµ": 2453,
      "¶ĢíĦ°": 2454,
      "Ġê°Ħëĭ¤": 2455,
      "Ġê¸°ë¶ĦìĿ´": 2456,
      "ìĺģíĻĶ": 2457,
      "ĠëĪĦêµ¬": 2458,
      "ĠíĮĮ": 2459,
      "ëĶĶìĸ´": 2460,
      "Ġìĸ¼êµ´": 2461,
      "ì¶ķíķĺ": 2462,
      "Ġìį¨": 2463,
      "ëĶ°ëľ»": 2464,
      "ìĸ¸ìłłê°Ħ": 2465,
      "Ġê°ĳìŀĲê¸°": 2466,
      "~<": 2467,
      "ëĵ": 2468,
      "ëŁ½": 2469,
      "į¤": 2470,
      "Ŀ¼ë©´": 2471,
      "Ġì½": 2472,
      "ĠìĮ": 2473,
      "Ġë´ħëĭĪëĭ¤": 2474,
      "Ġëĺĳ": 2475,
      "ìĿĺë": 2476,
      "íķĦìļĶ": 2477,
      "ìĿ´ìĸ´": 2478,
      "ìĿ´ë²Ī": 2479,
      "ìķ¼ë": 2480,
      "ë§Īë": 2481,
      "ë³´ìĹ¬": 2482,
      "ë³´ëĬĶê²Į": 2483,
      "íķľë²Ī": 2484,
      "ìŀĲìĹ°": 2485,
      "ĠìĿĳìĽĲ": 2486,
      "ê¸°ë§Į": 2487,
      "ê²łëĦ¤": 2488,
      "ìĽĥ": 2489,
      "¤ëį¤": 2490,
      "ĠìĹĨëĭ¤ë©´": 2491,
      "ĠìķĦì¹¨": 2492,
      "Ġë§ĪìħĶ": 2493,
      "Ġë§Īì§Ģë§ī": 2494,
      "ì°½": 2495,
      "ëĤ¨ì¹ľìĿ´": 2496,
      "ĠìķĬê³ł": 2497,
      "Ġë§ĲìĿ´": 2498,
      "ì²Ļ": 2499,
      "ĵľë¦´ê²ĮìļĶ": 2500,
      "ìĥģìĿ´ìĹĲìļĶ": 2501,
      "ê·¸ëŀĺ": 2502,
      "ìĻ¸": 2503,
      "Ġìĸ´ëĬĲ": 2504,
      "ĠìĤ¬ëŀĳíķĺê³ł": 2505,
      "íĸĪëĭ¤": 2506,
      "ĠëķĮëıĦ": 2507,
      "Ġì¹´": 2508,
      "Ġëª»íķĺëĬĶ": 2509,
      "ëĮĢìļĶ": 2510,
      "Ġì¢ĭê²łì£ł": 2511,
      "ê°ĢëģĶ": 2512,
      "íĹ¤ìĸ´ì§Ĳ": 2513,
      "Ġë°ĽëĬĶ": 2514,
      "Ġíķĺëĭ¤": 2515,
      "Ġë²Ĺ": 2516,
      "ëĭ¹íŀĪ": 2517,
      "ë¦¬ë©´": 2518,
      "Ġìĸ¼ë¥¸": 2519,
      "ìĺ¤ìĦ¸ìļĶ": 2520,
      "ĠìŀĬì§Ģ": 2521,
      "Ġë§ĮëĤĺì§Ģ": 2522,
      "ĠëĶ±": 2523,
      "ëĭµëĭµ": 2524,
      "Ġê¹Ĭ": 2525,
      "Ġê¹Į": 2526,
      "ìĥĿê°ģìĿ´": 2527,
      "ì§ĳìĹĲ": 2528,
      "ëģ¼": 2529,
      "ĠíĿĶ": 2530,
      "ìĭ¶ëĭ¤": 2531,
      "ëĭ¹ìĭłìĿĢ": 2532,
      "ëª¨ë¥´ëĬĶ": 2533,
      "ĠíĹ·ê°Īë": 2534,
      "Ġë©Ģ": 2535,
      "ĠìķĬëĬĶëĭ¤ë©´": 2536,
      "Ġë¶Ģë¶Ħ": 2537,
      "ĠìĤ¬ê·Ģê³ł": 2538,
      "Ġìļ°ìļ¸": 2539,
      "Ġê´Ģìĭ¬ìĿ´": 2540,
      "ĠìĿ´ìľłê°Ģ": 2541,
      "Ġìĸ´ëł¤ìĽĮ": 2542,
      "ĠìĦ¤ëłĪ": 2543,
      "ìĬ¤ëŁ½ê²Į": 2544,
      "Ġìķ½ìĨį": 2545,
      "ĠíĹ¤ìĸ´ì§Ħì§Ģ": 2546,
      "ìķĪëħķ": 2547,
      "ìī¬ìļ´": 2548,
      "ĠëŃĶì§Ģ": 2549,
      "ìŀĸìķĦìļĶ": 2550,
      "Ġì§ľì¦Ŀ": 2551,
      "íį¼": 2552,
      "»Ķ": 2553,
      "ë¡Ŀ": 2554,
      "ì´Ī": 2555,
      "íĳ": 2556,
      "íĥģ": 2557,
      "Ġ6": 2558,
      "ıĻ": 2559,
      "Łģ": 2560,
      "Ġì´": 2561,
      "ìĿ´ëĭ¤": 2562,
      "ìĿ´ë°": 2563,
      "ì§§": 2564,
      "ì§Īë": 2565,
      "ìĹ´": 2566,
      "íķ´ìł¸": 2567,
      "ìŀĺë": 2568,
      "ê°Ģë¥¼": 2569,
      "ê°ĢìĬ´": 2570,
      "Ġíİ": 2571,
      "ë³¼": 2572,
      "Ġë§¨": 2573,
      "íķĺëįĺ": 2574,
      "íķĺëł¤": 2575,
      "íķĺëĤĺë": 2576,
      "ê¸Īë°©": 2577,
      "¸ë¥¼": 2578,
      "ĠìŀĪìĬµëĭĪëĭ¤": 2579,
      "íķľëĭ¤": 2580,
      "íķľê±°": 2581,
      "íķľëĭ¬": 2582,
      "ìŀĲëĬĶ": 2583,
      "ĵ¤ìĸ´": 2584,
      "ìķ¼ì£ł": 2585,
      "Ġì§§": 2586,
      "Ġì§Ī": 2587,
      "Ġë³¼ê¹Į": 2588,
      "Ġì¢ĭìķĦíķĺê²Į": 2589,
      "Ġê²ĥìĿĦ": 2590,
      "Ġê²ĥë³´ëĭ¤": 2591,
      "Ġìĸ´ìļ": 2592,
      "Ġë§ĲíķĺìĦ¸ìļĶ": 2593,
      "Ġê°Ģì§Ģê³ł": 2594,
      "ê·¸ë¦¬": 2595,
      "ìĻ¸ë¡ľ": 2596,
      "ëĵ¤ìĿĦ": 2597,
      "ĠìĤ¬ëŀĳìĿĢ": 2598,
      "Ġê¸°íļĮ": 2599,
      "ĠëĤ¨ì¹ľ": 2600,
      "ĠìĻ¸ë¡ľ": 2601,
      "ĠìĻĦìłĦ": 2602,
      "ĠìķĮê³ł": 2603,
      "ĠìĿ¼ìĿĢ": 2604,
      "ĠìĿ¼ì°į": 2605,
      "ìĬµê´Ģ": 2606,
      "ìĿ´ë³ĦìĿĺ": 2607,
      "ìĬ¤ìĬ¤ë¡ľ": 2608,
      "Ġìłķìĭł": 2609,
      "Ġì¢ĭìķĦíķĺëĬĶê²Į": 2610,
      "ìļ°ê³ł": 2611,
      "ìŀĺíķł": 2612,
      "Ġë°ĶëŀĮ": 2613,
      "ĠìĿ´ë³ĦìĿĢ": 2614,
      "Ġëª¨ë¥´ëĬĶ": 2615,
      "ĠëĪĪë¬¼": 2616,
      "ëĲł": 2617,
      "Ġë§ŀì¶°": 2618,
      "ĠìĨĮì¤ĳ": 2619,
      "ì¹ĺê°Ģ": 2620,
      "ëĭµëĭĪëĭ¤": 2621,
      "Ġìĺ¤ëĬĶ": 2622,
      "Ġì°¨ëĭ¨": 2623,
      "íĥĢìĿ¼": 2624,
      "Ġëį°ëł¤": 2625,
      "ì§Ģê¸ĪìĿĢ": 2626,
      "Ġì¤Ģë¹Ħê°Ģ": 2627,
      "ãħľ": 2628,
      "ĠíĹ¤ìķĦ": 2629,
      "ĠìĬ¤ìĬ¤ë¡ľ": 2630,
      "ìŀłê¹Ĳ": 2631,
      "íķ¨ê»ĺ": 2632,
      "ëĶ±": 2633,
      "Ġëĸ¨ëł¤": 2634,
      "Ġë³ĢíĻĶê°Ģ": 2635,
      "ìľĦë¡ľ": 2636,
      "ĠìĦ±ê³µ": 2637,
      "ìĤ¬ëĬĶ": 2638,
      "Ġìī¬ê³ł": 2639,
      "Ġìī¬ìļ´": 2640,
      "ĠìĿ´ëŁ°": 2641,
      "Ġì¦Ŀ": 2642,
      "ĠëĬ¦ì§Ģ": 2643,
      "Ġìĭ¤ìĪĺ": 2644,
      "ì±ħíķĺì§Ģ": 2645,
      "ëĭ¤ìĿĮìĹĲëĬĶ": 2646,
      "ĠìķĬìķĺìľ¼ë©´": 2647,
      "ĠìĥĪë¡ľìļ´": 2648,
      "ĠíĹ¤ìĸ´ì¡ĮìĬµëĭĪëĭ¤": 2649,
      "Ġê°ĸê³ł": 2650,
      "íĩ´ê·¼": 2651,
      "Ġíĥľìĸ´": 2652,
      "ìĿ´ë°į": 2653,
      "??<": 2654,
      "¸ìĹħ": 2655,
      "êº¼": 2656,
      "ëĬ¥": 2657,
      "Ġ5": 2658,
      "ĦìĥĪ": 2659,
      "Ńìłľ": 2660,
      "ìĿ´ê¸¸": 2661,
      "íķ´ì¡Į": 2662,
      "ê³łìĥĿ": 2663,
      "Ġíľ´": 2664,
      "Īë²": 2665,
      "ìŀĲë¦¬": 2666,
      "Ġê±°ê¸°ê¹Įì§Ģ": 2667,
      "ĠìĿµìĪĻ": 2668,
      "ëĤĺìĿ´": 2669,
      "ëĤĺìĦľ": 2670,
      "Ġê°ĻëĦ¤ìļĶ": 2671,
      "Ģëħ": 2672,
      "ìĿĮìĿ´": 2673,
      "Ġíķ´ìĦľ": 2674,
      "Ġëª¸": 2675,
      "ĠìĥĿê¸°": 2676,
      "ìĭľì¼ľ": 2677,
      "Ġë§ĪìļĶ": 2678,
      "ìĭłê°Ģë´ĲìļĶ": 2679,
      "ìĭłê²½": 2680,
      "ëŀĲ": 2681,
      "Ġê±¸ë¦": 2682,
      "Ġë³´ì§Ģ": 2683,
      "Ġê°Ģê¸°": 2684,
      "Ġê°Ģìķ¼": 2685,
      "Ġê°Ģìķ¼ì§Ģ": 2686,
      "ì¤¬ìľ¼ë©´": 2687,
      "ìĪ¨": 2688,
      "Ġê¸´": 2689,
      "ĠìŀĲìĹ°": 2690,
      "Ġë¨¸ë¦¬": 2691,
      "Ġë¶Īë": 2692,
      "ìĭ¬ìĿ´": 2693,
      "ìłĦíŀĪ": 2694,
      "ĠëĤ¨ìŀĲì¹ľêµ¬": 2695,
      "ìŀ¥ìĿĦ": 2696,
      "Ġë§ĪìĿĮìĿĺ": 2697,
      "Ġíĸ¥": 2698,
      "Ġëª»íķ´": 2699,
      "Ġëª¨ëĵł": 2700,
      "Ġê³łìĥĿ": 2701,
      "Ġë¨¹ìĿĦ": 2702,
      "Ġì¤ĳìĿ¸ëį°": 2703,
      "ìķĪê²½": 2704,
      "ĠëĲĺê³ł": 2705,
      "Ġíķľë²Ī": 2706,
      "ĠëģĿëĤ¬": 2707,
      "ìģĺë": 2708,
      "ĠìŀĬëĬĶ": 2709,
      "ìľłë¥¼": 2710,
      "Ġê°Ģë©´": 2711,
      "Ġë¬¼ìĸ´ë": 2712,
      "ĠìĨĮìĭĿ": 2713,
      "ĠìĨĮê°ľ": 2714,
      "Ġìĭ«ëĭ¤": 2715,
      "ìĦ±ìĿ´": 2716,
      "ë¹Ħê°Ģ": 2717,
      "ĠëıĦìłĦ": 2718,
      "ì¹ľêµ¬ë¥¼": 2719,
      "ëĿ¼ê³łìļĶ": 2720,
      "ì¼Ģ": 2721,
      "ìĹĨëĬĶ": 2722,
      "Ġë°ĽìķĦëĵ¤": 2723,
      "ëŃĺ": 2724,
      "ĠëĲĺëĦ¤": 2725,
      "ì¤Ħê¹Į": 2726,
      "Ġìĭłê²½": 2727,
      "Ġë¬¸ìłľê°Ģ": 2728,
      "ìī½ì§Ģ": 2729,
      "ì§ĿëħĢíķľíħĮ": 2730,
      "ĠìĤ¬ê·ĢëĬĶ": 2731,
      "ĠìķĬìĿĦê¹ĮìļĶ": 2732,
      "Ġì¹ľêµ¬ë¥¼": 2733,
      "Ġê·¸ëŁ°ê°Ģë´ĲìļĶ": 2734,
      "ëį§": 2735,
      "ëį¤ëį¤": 2736,
      "ĠìĤ¶": 2737,
      "ĠìĤŃìłľ": 2738,
      "Ġë¬¼ìĸ´ë³´ëĬĶ": 2739,
      "ĠìĺĪë¯¼": 2740,
      "Ġë§ĮëĤĺë³´ìĦ¸ìļĶ": 2741,
      "íĻķìĭ¤": 2742,
      "ë¡Ń": 2743,
      "Ġê¶ģê¸Īíķ´": 2744,
      "ĠìĹ¬ìŀĲìķłê°Ģ": 2745,
      "íķĺëĭĪê¹Į": 2746,
      "Ġê·¸ë¦¬ê³ł": 2747,
      "Ġë´¤": 2748,
      "Ġê²½ìļ°": 2749,
      "Ġë¶Ļìŀ¡": 2750,
      "Ġë°ĽìķĦëĵ¤ìĿ´ëĬĶ": 2751,
      "ĠíŀĺëĤ´ìĦ¸ìļĶ": 2752,
      "ĠíĦ°": 2753,
      "ì¦Ĳê±°ìļ´": 2754,
      "Ġìŀ¬íļĮ": 2755,
      "Ġë²Ħíħ¨": 2756,
      "¦Ħ": 2757,
      "¯¤": 2758,
      "°ķ": 2759,
      "ìĵ": 2760,
      "ì¯¤": 2761,
      "Ġ4": 2762,
      "ħĦ": 2763,
      "ĠìĥĢ": 2764,
      "ìĿ´íĬ¸ë": 2765,
      "ìĸ´ë¨¸": 2766,
      "ìĹ¼": 2767,
      "ê³§": 2768,
      "¬ë§": 2769,
      "íķ´ë´ĲìļĶ": 2770,
      "Ġíĳ": 2771,
      "ìĭ«": 2772,
      "ê²ĮìŀĦ": 2773,
      "ĠìĹ¬ë": 2774,
      "ĠìŀĪëĤĺìļĶ": 2775,
      "ê¹¨": 2776,
      "ê¹Ŀ": 2777,
      "íķľëıĻìķĪ": 2778,
      "Ġì¢ĭëĭ¤": 2779,
      "ê¸°ëĮĢ": 2780,
      "ëĭĪê°Ģ": 2781,
      "ĠìĤ¬ëŀĮìĹĲê²Į": 2782,
      "Ġë³¸": 2783,
      "ë§ĮëĤľ": 2784,
      "ìĿ¸ê±°": 2785,
      "ë°Ģ": 2786,
      "ìĭľë©´": 2787,
      "ìĭľê¸¸": 2788,
      "ìłķë¦¬": 2789,
      "ì£¼ìĿ¼": 2790,
      "ì£¼ë§Ĳ": 2791,
      "ì£¼ë³Ģ": 2792,
      "ĠìĥĿê°ģíķł": 2793,
      "Ġë§ĮëĤľ": 2794,
      "ìĤ¬ëŀĳìĿĦ": 2795,
      "Ġëĭ¤íĸī": 2796,
      "ĠìķĪëĤĺ": 2797,
      "ĠëĤĺìĺ¨": 2798,
      "ë¡ľë§¨": 2799,
      "ê·¸ëŁ¬": 2800,
      "ì§Ħìłķ": 2801,
      "ë²ł": 2802,
      "ìľ¼ë©´ìĦľ": 2803,
      "ìĭ¬íķ´": 2804,
      "ìĤ¬ê°Ģ": 2805,
      "ĠìĤ¬ëŀĮìĿ´ëĦ¤ìļĶ": 2806,
      "Ġì£¼ë©´": 2807,
      "ìļ°ë©´": 2808,
      "ê·¸ê±´": 2809,
      "ë¶Ģëĭ´": 2810,
      "ìŀĪìĸ´": 2811,
      "ĠíķĺëĬĶê²Į": 2812,
      "ìľ¼ìĭľ": 2813,
      "Ġê´ľì°®ìĿĦ": 2814,
      "ì°¨ëĭ¨": 2815,
      "ĠìĨĮë¦¬": 2816,
      "íĦ´": 2817,
      "Ġìķłëŀĳ": 2818,
      "ëĵľëĶĶìĸ´": 2819,
      "ìĥĿê°ģìĿĦ": 2820,
      "Ġì§ĳì¤ĳ": 2821,
      "Ġì§ĳì°©": 2822,
      "Ġë°©ë²ķìĿ´": 2823,
      "Ġëħ¸ëŀĺ": 2824,
      "ĠìľĦíķľ": 2825,
      "íķ¨ìĿ´": 2826,
      "ëĶ©": 2827,
      "ìķĦë¬´ê²ĥëıĦ": 2828,
      "Ġë°°ìĽĮ": 2829,
      "Ġë³ĢíĻĶ": 2830,
      "ë°©íķĻ": 2831,
      "Ġë¯¸ìĽĮ": 2832,
      "ĠìłģìĿĳ": 2833,
      "ĠìĿ´ìĥģíĺķ": 2834,
      "Ġì¹ľêµ¬ëŀĳ": 2835,
      "Ġëĭ¹ìĭłìĿĺ": 2836,
      "ìį¸ë": 2837,
      "ì§ĿëĤ¨ìĿ´ëŀĳ": 2838,
      "ãħłãħł": 2839,
      "ëł¸ìĸ´": 2840,
      "ì¤ĢíŀĪ": 2841,
      "ê¼Ń": 2842,
      "Ġì£½ìĿĦ": 2843,
      "ĠìłĲìłĲ": 2844,
      "íĭ±": 2845,
      "Ġê¾¸": 2846,
      "ìĸ´ë²Ħë¦¬ìĦ¸ìļĶ": 2847,
      "Ġì¡´ì¤ĳ": 2848,
      "Ġê¿¨": 2849,
      "Ġìĸ´ì©Į": 2850,
      "Ġìĸĺê¸°": 2851,
      "íĤ¨ìĭŃ": 2852,
      "ĠëĤĺëĪł": 2853,
      "Ġë§¨ëĤł": 2854,
      "¶Į": 2855,
      "¿Į": 2856,
      "ëİĮ": 2857,
      "ìª": 2858,
      "Ġ.<": 2859,
      "ĤĺëıĦ": 2860,
      "ľíŀĪ": 2861,
      "ŀĢ": 2862,
      "Ġì´Ī": 2863,
      "ìĿ´ìļĶ": 2864,
      "ìĿ´ëĵł": 2865,
      "ê²¼ë": 2866,
      "ì§ĢëĦ¤": 2867,
      "ê°Ģì§Ģ": 2868,
      "ê°Ģìŀ¥": 2869,
      "Ġíħ": 2870,
      "íķĺëĤĺë´ĲìļĶ": 2871,
      "ë§¥": 2872,
      "Ġê°ķ": 2873,
      "¸ëĦ¤": 2874,
      "ĠìŀĪëĦ¤ìļĶ": 2875,
      "ĠìŀĪê²łìĸ´ìļĶ": 2876,
      "ĠìŀĪìŀĸìķĦìļĶ": 2877,
      "Ġì¢ĭì§Ģ": 2878,
      "ê¸°ìĦ¸ìļĶ": 2879,
      "ê¸°ëĤ´": 2880,
      "ëį°ìĿ´íĬ¸": 2881,
      "ĠìĤ¬ëŀĮìĹĲ": 2882,
      "Ġê°ĻëĦ¤": 2883,
      "ëĤĺë³´": 2884,
      "Ġíķ´ê²°": 2885,
      "Ġíķ´ë³´ëĬĶ": 2886,
      "ë°ķ": 2887,
      "ĠìĹĨëĭ¤": 2888,
      "ĠìĥĿê²¼ë": 2889,
      "ìĭľíĹĺ": 2890,
      "ĠìĥĿê°ģë³´ëĭ¤": 2891,
      "ì²ł": 2892,
      "ëĤ´ê³ł": 2893,
      "Ġì¤Ģ": 2894,
      "ĠìķĪíķĺê³ł": 2895,
      "ìĥģìĿĦ": 2896,
      "Ġë°Ķë³´": 2897,
      "ĠìĤ¬ëŀĳíķ´": 2898,
      "ëħ¸ëŀĺ": 2899,
      "ĠìĹ¬ìŀĲì¹ľêµ¬ê°Ģ": 2900,
      "ë§Ĳê³ł": 2901,
      "ĠìĹ°ëĿ½íķ´ëıĦ": 2902,
      "Ġíŀĺëĵ¤ì§Ģ": 2903,
      "ìĥĿëĭ": 2904,
      "ëªĩ": 2905,
      "ìĤ¬ê·": 2906,
      "ìĤ¬ì§Ħ": 2907,
      "ìĤ¬ì¹ľìĿ´": 2908,
      "ĠìĿ¼ìĿ´ìĹĲìļĶ": 2909,
      "Ġê²ĮìŀĦ": 2910,
      "ìĬ¤ë§ĪìĬ¤": 2911,
      "Ġëª»íķľ": 2912,
      "Ġì¢ĭìķĦíķĺëĬĶëį°": 2913,
      "íĹ¤ìĸ´ì¡Į": 2914,
      "Ġë°Ľìķĺìĸ´": 2915,
      "ĠíķĺëĤĺëıĦ": 2916,
      "ĠëĲĺê²łëĦ¤ìļĶ": 2917,
      "ìŀĪìĸ´ìļĶ": 2918,
      "Ġë¯¸ë¦¬": 2919,
      "ĠëĬ¥": 2920,
      "ĠìķĪëĵ¤ìĸ´": 2921,
      "ìĸ´ëĵľë¦´ê²ĮìļĶ": 2922,
      "Ġì¢ĭìĿĢëį°": 2923,
      "ĠíĻĺ": 2924,
      "Ġê²°êµŃ": 2925,
      "ê´Ģê³Ħ": 2926,
      "ìĿ´ìłľëĬĶ": 2927,
      "ĠìŀĬê³ł": 2928,
      "ìŀĳìĿĢ": 2929,
      "Ġê°ĢëģĶ": 2930,
      "Ġë§ĮëĤĺìĦ¸ìļĶ": 2931,
      "ì¡°ìĭ¬íķĺìĦ¸ìļĶ": 2932,
      "ĠìĿ¸ìĹ°": 2933,
      "íķĻìĽĲ": 2934,
      "Ġíķĺê¸°": 2935,
      "Ġì²ĺ": 2936,
      "íŀĺëĤ´": 2937,
      "Ġíİ¸ì§Ģ": 2938,
      "ĠìĿ´ìķ¼ê¸°íķ´ë³´ìĦ¸ìļĶ": 2939,
      "ĠìĺĪìģĺê²Į": 2940,
      "íķĺëĭ¤ê³ł": 2941,
      "ìķĺëįĺ": 2942,
      "ìĦľë¡ľìĹĲê²Į": 2943,
      "Ġë¬¸ìŀĲ": 2944,
      "Ġì¡°ê¸Īë§Į": 2945,
      "Ġì±Ħ": 2946,
      "íĴĪ": 2947,
      "ĠëĨĢìķĦìļĶ": 2948,
      "ë©°": 2949,
      "Ġë¯¸ìķĪ": 2950,
      "ë¦Ħëĭ¤": 2951,
      "ë°Ľê³ł": 2952,
      "ĠëĪĪìĿĦ": 2953,
      "ëĪĦêµ¬ëĤĺ": 2954,
      "Ġëĭ¹ìĭłìĿĦ": 2955,
      "Ġëĵ±": 2956,
      "ì»¤íĶĮ": 2957,
      "ê´ľì°®ìĿĢ": 2958,
      "ĠìķĦì§ģëıĦ": 2959,
      "Ġê³¼ìłķ": 2960,
      "ì¢ħêµĲ": 2961,
      "Ġíı¬ê¸°": 2962,
      "ë¶Ģëª¨ëĭĺ": 2963,
      "ë©ĭì§Ħ": 2964,
      "Ġë¬´ìĦľìĽĮ": 2965,
      "Īë²½": 2966,
      "ë¡ľë§¨íĭ±": 2967,
      "¦¬ë": 2968,
      "¨ëĶ©": 2969,
      "ªħ": 2970,
      "³µ": 2971,
      "ì´": 2972,
      "ì¸": 2973,
      "ìŁģ": 2974,
      "ŀĲ": 2975,
      "ł¤ë©´": 2976,
      "ĠëĬĺ": 2977,
      "ĠëĴ¤": 2978,
      "íķ©": 2979,
      "ëĤ¬ìĸ´": 2980,
      "ìĿĦê±°ìĺĪìļĶ": 2981,
      "ìĿĦê±°ëĿ¼": 2982,
      "íķĺëĵľ": 2983,
      "íķĺëł¤ê³ł": 2984,
      "¸ëĵĿ": 2985,
      "íķľëĭ¤ëĬĶ": 2986,
      "Īë¥¼": 2987,
      "Ġê±°ìķ¼": 2988,
      "ìĦľê´Ģ": 2989,
      "ĵ¤ìĿ´": 2990,
      "ë¥ĺ": 2991,
      "ĠìĿ´ê¸°": 2992,
      "ëĤĺëŀĳ": 2993,
      "ìĿ¸ìĿ´": 2994,
      "ìĿ¸ìĿĺ": 2995,
      "ìĿ¸ê°Ģë´Ĳ": 2996,
      "ĠìĥĿê¸´": 2997,
      "Ġì¢ĭìķĦíķĺë©´": 2998,
      "Ġìĭ¶ì§Ģ": 2999,
      "Ġìĸ´íĶĮ": 3000,
      "Ġìĸ´ìĥī": 3001,
      "ĠìĺĨ": 3002,
      "ì£¼ì§Ģ": 3003,
      "Ġê±¸ë¡ľ": 3004,
      "ë¶Īë": 3005,
      "Ġê°ĢìĦ¸ìļĶ": 3006,
      "Ġê°ĢìŀĲê³ł": 3007,
      "ìĥģíĻ©": 3008,
      "ì¹ľêµ¬íķľíħĮ": 3009,
      "ìĻĦ": 3010,
      "ìĻ¸ë": 3011,
      "ìĹĪëĭ¤": 3012,
      "ê±±ìłķ": 3013,
      "ìĽĮì§Ī": 3014,
      "Ġíŀĺëĵ¤ê²łìĸ´ìļĶ": 3015,
      "ĠìĻ¸": 3016,
      "ĠìĿ¼ìĿĦ": 3017,
      "Ġëª»íķĺê³ł": 3018,
      "íļį": 3019,
      "Ġê³łì³Ĳ": 3020,
      "Ġë¨¹ëĬĶ": 3021,
      "ê°ĢëĬ¥": 3022,
      "ìļ°ìĤ°": 3023,
      "ĠìĤ´ìķĦ": 3024,
      "ĠìĤ´ê¹Į": 3025,
      "Ġë¬´ëĦĪ": 3026,
      "ì§Īê¹Į": 3027,
      "ĠíĹ¤ìĸ´ì¡Įìĸ´": 3028,
      "ìĨįìĿ´": 3029,
      "íģ°": 3030,
      "ìł¸ìķ¼": 3031,
      "ĠëĤ¨ìŀĲë¥¼": 3032,
      "ĠëĮĢíĻĶ": 3033,
      "ê²°ìłķ": 3034,
      "ĠìŀĪìĸ´ëıĦ": 3035,
      "ìĺ¤ëĦ¤": 3036,
      "ëħĦìĿ´": 3037,
      "ëħĦì§¸": 3038,
      "ĠíĽĦëł¨": 3039,
      "íĽĦíıŃíĴį": 3040,
      "Ġë§ĮëĤĺìŀĲê³ł": 3041,
      "ì¹ĺê³ł": 3042,
      "Ġìĭ«ìĿĢ": 3043,
      "Ġìĺ¤ë¹ł": 3044,
      "ëģĶ": 3045,
      "Ġëħ¸ëŀĺë": 3046,
      "Ġë©Ī": 3047,
      "Ġë©Ķ": 3048,
      "ĠíĻķìĭłìĿ´": 3049,
      "ĠìĺĪìģľ": 3050,
      "ëŃĶ": 3051,
      "Ġìĭľìŀĳíķ´ë³´ìĦ¸ìļĶ": 3052,
      "ì²ŃìĨĮ": 3053,
      "ì½©": 3054,
      "ëĭ¤ê°ĢëıĦ": 3055,
      "Ġìī¬ìĦ¸ìļĶ": 3056,
      "ë´ĩ": 3057,
      "ëłĪê¸°": 3058,
      "Ġë¶Īíİ¸": 3059,
      "ê°ĳìŀĲê¸°": 3060,
      "ĠíķĺëĤĺìĶ©": 3061,
      "Ġìĸ´ëł¤ìļ´": 3062,
      "íĻķìĭłìĿ´": 3063,
      "ĠíĨ¡": 3064,
      "ĠíĺĦìĥģìĿ´ìĹĲìļĶ": 3065,
      "ê·¸ëłĩ": 3066,
      "ìŀ¬ë¯¸": 3067,
      "Ġë¶Ģëĭ´ìĬ¤ëŁ¬ìĽĮ": 3068,
      "Ġìŀ¥ëĤľ": 3069,
      "ìĸ¼êµ´": 3070,
      "Ġëĵ£ê³ł": 3071,
      "ĠëĳĲëł¤ìĽĮ": 3072,
      "ë¨¸ë¦¬ë": 3073,
      "ĠíĹĪìłĦ": 3074,
      "ìŀĲìĹ°ìĬ¤ëŁ¬ìļ´": 3075,
      "Ġì¹´íİĺ": 3076,
      "Ġê¹Įë¨¹": 3077,
      "ıĻìķĪ": 3078,
      "Ģëħģ": 3079,
      "Ġì²ĺìĿĮ": 3080,
      "íķĺëĵľëł¤ìļĶ": 3081,
      "NS": 3082,
      "SNS": 3083,
      "¸Į": 3084,
      "ëĴ¤": 3085,
      "íĥĪ": 3086,
      "íĳľíĺĦ": 3087,
      "ıĮ": 3088,
      "ĺìĿĦ": 3089,
      "Łī": 3090,
      "ŃëĭĪëĭ¤": 3091,
      "Ġì¼": 3092,
      "ĠìĲ": 3093,
      "Ġë¬": 3094,
      "ĠëĴ": 3095,
      "ìļĶìĿ¼": 3096,
      "ìĸ´ì©": 3097,
      "ìĹĪëįĺ": 3098,
      "ìķĦíĶĦ": 3099,
      "ìķĦíĶĶ": 3100,
      "ë³ĳ": 3101,
      "íķĺëĬĺ": 3102,
      "ìĭ±": 3103,
      "íķĺìħ¨": 3104,
      "ìĺ·": 3105,
      "ìĺĪë": 3106,
      "¸ëį°": 3107,
      "ĠìŀĪê³ł": 3108,
      "Ġê²ł": 3109,
      "Ġë°Ģ": 3110,
      "ëĤĺê°Ģ": 3111,
      "ëĤĺê²Į": 3112,
      "ìĬ·": 3113,
      "ìķ¼ê²łëĭ¤": 3114,
      "íķłì§Ģ": 3115,
      "íķłëķĮ": 3116,
      "ĠìĤ¬ëŀĮìĿĺ": 3117,
      "ĠìĤ¬ëŀĮê³¼": 3118,
      "ĠìĪ¨": 3119,
      "ĠìĿ´ìļ©": 3120,
      "Ģëįĺ": 3121,
      "ë§ĮìĿ´": 3122,
      "ë§ĮìĿĺ": 3123,
      "ìĿĮìĿĦ": 3124,
      "Ġíķ´ì¤ĺ": 3125,
      "ĠìĹĨëĬĶëį°": 3126,
      "ĠìķĦëĬĶëį°": 3127,
      "Ġì¢ĭìķĦíķłê¹Į": 3128,
      "ì°Į": 3129,
      "įĶëĿ¼": 3130,
      "ĠìĥĿê°ģíķĺìĦ¸ìļĶ": 3131,
      "ĠìĥĿê°ģëĤĺëĬĶ": 3132,
      "ë¶Ļ": 3133,
      "Ġë³´íĨµ": 3134,
      "Ġë³´ëŁ¬": 3135,
      "ìĤ¬ëŀĳíķĺë©´": 3136,
      "Ġì¤ĺ": 3137,
      "ĠëĤĺíĥĢ": 3138,
      "Ġê¸Ģ": 3139,
      "ĠìŀĲê¸°": 3140,
      "ĠìĤ¬ëŀĳíĸĪëįĺ": 3141,
      "ìĹ°ìĺĪ": 3142,
      "ëħĢëŀĳ": 3143,
      "íĸĪìĬµëĭĪëĭ¤": 3144,
      "Ġì§Ģì³¤": 3145,
      "ĠìĤ¬ëŀĮìĿ´ìĹĲìļĶ": 3146,
      "ĠìĿ¼ëıĦ": 3147,
      "Ł¬ì§Ģ": 3148,
      "Ġì¹ĺë": 3149,
      "Ġëª»íķł": 3150,
      "íļ¨": 3151,
      "Ġê±´ê°Ģ": 3152,
      "ĠíķľìŀĶ": 3153,
      "íĨł": 3154,
      "Ġì¶ľ": 3155,
      "Ġì¶©ìłĦ": 3156,
      "Ġë¬´ìĹĩ": 3157,
      "Ġìĥģì²ĺ": 3158,
      "ĠëŃĲíķĺì§Ģ": 3159,
      "ĠëģĿìĿ´": 3160,
      "Ġì£¼ì§Ģ": 3161,
      "Ġì£¼ê³ł": 3162,
      "ìĿ¸ëĵ¯": 3163,
      "Ġê´ľì°®ìĿĢ": 3164,
      "ĠëĮĢíķ´": 3165,
      "ìĺ¤ëĬĶ": 3166,
      "Ġëª¨ë¥´ê²łëĦ¤ìļĶ": 3167,
      "ë°Ķìģľ": 3168,
      "íķĺëĭ¤ë©´": 3169,
      "ëįĶëĿ¼ê³łìļĶ": 3170,
      "ì§ľì¦Ŀ": 3171,
      "ĠëĤłìĶ¨": 3172,
      "Ġì°¨ìĿ´": 3173,
      "íĥĢëĬĶ": 3174,
      "Ġë¹ĦìĬ·": 3175,
      "ĠëĬĲëģ¼": 3176,
      "Ġë¶Ģíĥģ": 3177,
      "ìłĢëıĦìļĶ": 3178,
      "ìłĲìłĲ": 3179,
      "êµ°ëĮĢ": 3180,
      "ĠìĬ¤íĥĢìĿ¼": 3181,
      "ë²ĦìĬ¤": 3182,
      "ìĽĶê¸ī": 3183,
      "Ġê·ĢìĹ¬": 3184,
      "ìĿ¸ê°ĢìļĶ": 3185,
      "ìľĦê¸°": 3186,
      "ĬĲëĿ¼": 3187,
      "ëĪĦêµ¬ë": 3188,
      "ëįľ": 3189,
      "ĠìĦłíĥĿìĿ¼": 3190,
      "ĠìĤ°": 3191,
      "íĿ¡": 3192,
      "íĽĦíļĮíķĺì§Ģ": 3193,
      "Ġíıī": 3194,
      "ëĤ´ìĿ¼ìĿĢ": 3195,
      "ëĪĪìĿ´": 3196,
      "ë¡ł": 3197,
      "ĠìĦ¤ëł": 3198,
      "ìĪľê°Ħ": 3199,
      "Ġê´ľì°®ìķĦì¡Į": 3200,
      "ê³łë¯¼íķĺê³ł": 3201,
      "Ġë²Įìį¨": 3202,
      "ĠìĹ°ìĬµìĿĦ": 3203,
      "¬ë¦¬ìĬ¤ë§ĪìĬ¤": 3204,
      "Ġë°ĶëĢĶ": 3205,
      "Ġê°ĢìĬ´ìĿ´": 3206,
      "íĶ¼ë¶Ģ": 3207,
      "ĠìĮĵ": 3208,
      "ìķ¼ëı¼": 3209,
      "Ġìĸ´ìļ¸ë¦": 3210,
      "Ġëĭ¤íĸīìĿ´ìĹĲìļĶ": 3211,
      "Ġìĸ´ì©Įì§Ģ": 3212,
      "¡Ń": 3213,
      "¦¼": 3214,
      "ëķ": 3215,
      "ī´": 3216,
      "ĲëĬĶëį°": 3217,
      "Ĳëĭ¨": 3218,
      "ŀ¬": 3219,
      "ĠìĥĪ": 3220,
      "ìĿĺë¯¸": 3221,
      "Ġê½": 3222,
      "ì§Ģë©´": 3223,
      "íķ´ë³¼ê¹Į": 3224,
      "ìķĦì§Ģ": 3225,
      "ìĦ¸ë¨¼": 3226,
      "ìĿĦì§ĢëıĦ": 3227,
      "Ġìķ¼": 3228,
      "ëıĦìĦľê´Ģ": 3229,
      "ĠìŀĪì§Ģ": 3230,
      "ĠìŀĪì§Ģë§Į": 3231,
      "íķľê°Ģ": 3232,
      "ĪëįĶëĭĪ": 3233,
      "Ġê±°ì§ĵë§Ĳ": 3234,
      "ëĿ¼ë": 3235,
      "ì¹ĺëĬĶ": 3236,
      "Ġíķ´ìķ¼ì§Ģ": 3237,
      "ĠëĲĺëĬĶëį°": 3238,
      "ĠìĹĨìķł": 3239,
      "ìľ¼ëł¤ê³ł": 3240,
      "ìĭľëĭ¤": 3241,
      "ìĭľìŀĳ": 3242,
      "ê±°ëł¤": 3243,
      "ê±°ìļ¸": 3244,
      "ìĿ¼ì§ĢëıĦ": 3245,
      "Ġê³¨": 3246,
      "ĠìĥĿê°ģíķĺëĬĶ": 3247,
      "ĠìĥĿê°ģíķĺê³ł": 3248,
      "ĠìĥĿê°ģëĤĺëĦ¤": 3249,
      "Ġì¤ĺëıĦ": 3250,
      "ì¤¬ìĸ´": 3251,
      "Ġë§İì£ł": 3252,
      "ìĥģìĿ´": 3253,
      "ìĥģì²ĺë": 3254,
      "ì§Ħìĭ¬ìľ¼ë¡ľ": 3255,
      "ìĹĪê¸¸": 3256,
      "ĠìĤ¬ëŀĳíķł": 3257,
      "Ġê¸°ë³¸": 3258,
      "ĠìĹ¬ì¹ľìĿ´": 3259,
      "ĠìĤ¬ê³ł": 3260,
      "ĠìĤ¬ìĭ¤": 3261,
      "ĠëķĮëĬĶ": 3262,
      "ĠëĤ´ëł¤": 3263,
      "ĠíĸĪëįĺ": 3264,
      "Ġì¢ĭìķĦíķĺëĬĶì§Ģ": 3265,
      "ìļ°ëĬĶ": 3266,
      "ĠëĲłê¹ĮìļĶ": 3267,
      "Ġë°Ľì§Ģ": 3268,
      "Ŀ¼ëıĦ": 3269,
      "Ġì¢ĭìĿĦíħĲëį°": 3270,
      "ĠëĲĺì£ł": 3271,
      "Ġë¬´ìĦŃ": 3272,
      "Ġë¬´ëİĮ": 3273,
      "Ġìĥģëĭ´": 3274,
      "ĠëŃĲëĿ¼ê³ł": 3275,
      "ĠìŀĪëĬĶê²Į": 3276,
      "ìĨĮíķľ": 3277,
      "ĠëģĿìĿĢ": 3278,
      "ìĽĲíķĺëĬĶ": 3279,
      "ìĸ´ëĶĶ": 3280,
      "ì¦Ī": 3281,
      "ĠìłĦíķ´ë³´ìĦ¸ìļĶ": 3282,
      "Ġì£¼ë³Ģ": 3283,
      "ì¤ĳìļĶ": 3284,
      "ĠíķĦìļĶíķĺì£ł": 3285,
      "Ġê²°ê³¼": 3286,
      "ĠìŀĬìĸ´": 3287,
      "íĽĦëł¨": 3288,
      "ìĤ¬ëŀĮìĿ´": 3289,
      "ìĤ¬ëŀĮë§Īëĭ¤": 3290,
      "ĠíĸĪìĬµëĭĪëĭ¤": 3291,
      "ì¹ĺì§Ģ": 3292,
      "ìĦ±ê²©ìĿ´": 3293,
      "íĹĽ": 3294,
      "ìŀĲìĭłìĹĲê²Į": 3295,
      "ëĵľìĦ¸ìļĶ": 3296,
      "ìĥĿê°ģë§Į": 3297,
      "ìĦłìĿĦ": 3298,
      "ìĦłë¬¼": 3299,
      "ìĦłìĥĿëĭ": 3300,
      "ëĳĲê³ł": 3301,
      "ìļ©ê¸°ë¥¼": 3302,
      "ìłĲìĭ¬": 3303,
      "ëĭ¹ìĭłìĿĦ": 3304,
      "íĶ¼ê³¤": 3305,
      "ĠëĲĺë©´": 3306,
      "Ġíģ´": 3307,
      "ìĦľë¡ľìĿĺ": 3308,
      "ĠëĸłëĤľ": 3309,
      "Ġê±±ìłķëı¼": 3310,
      "Ġë²Ħëł¤": 3311,
      "Ġë²Ħë¦¬ìĦ¸ìļĶ": 3312,
      "ìĺĢìĸ´": 3313,
      "Ġë¶Ģëª¨ëĭ": 3314,
      "ĠìĿ´ìĥģíķ´": 3315,
      "Ġê°ĲìłķìĿ´": 3316,
      "ĠìĦľìļ´": 3317,
      "Ġ10": 3318,
      "ëĪĦê°Ģ": 3319,
      "Ġê¿ĪìĹĲ": 3320,
      "íĿĶ": 3321,
      "ê°Īê¹Į": 3322,
      "ĠíĮĶ": 3323,
      "ĠìķŀìĹĲìĦľ": 3324,
      "ĠìĿ´íķ´íķ´ì£¼ìĦ¸ìļĶ": 3325,
      "Ġë§ĮëĤ¬ëĬĶëį°": 3326,
      "Ġìĸ´ëķĮìļĶ": 3327,
      "Ġìŀ¡ê³ł": 3328,
      "Ġìľłì§Ģ": 3329,
      "íķĺëĤĺìĶ©": 3330,
      "Ġê·¸ëħĢë¥¼": 3331,
      "íķ´ì§Ģë©´": 3332,
      "Ġì§ĢëĤ´ê³ł": 3333,
      "ĠìĬ¬íĶĦ": 3334,
      "ëª¸ìĿ´": 3335,
      "Ġì¶ķíķĺ": 3336,
      "ë¯¸ëł¨ìĿ´": 3337,
      "Ġì§ģìłĳ": 3338,
      "ĠìľĦë¡ľíķ´": 3339,
      "Ġë°ĶëĢĮ": 3340,
      "Ġëª°ëŀĲ": 3341,
      "ë²Įìį¨": 3342,
      "Ġê´´ë¡Ń": 3343,
      "ëł¤ëĨ": 3344,
      "ìĿ´ìĸ´íĬ¸": 3345,
      "ĠíĹ·ê°Īë¦¬": 3346,
      "ìŀĺëª»": 3347,
      "Ġë¬¼ìĸ´ë´Ĳ": 3348,
      "ĠìĲ¬": 3349,
      "°ĺ": 3350,
      "²Ħ": 3351,
      "²Ī": 3352,
      "¸Ķ": 3353,
      "½ëĭĪëĭ¤": 3354,
      "ëī´": 3355,
      "ìĮ": 3356,
      "ìĩ¼íķĳ": 3357,
      "ĦëĬĶ": 3358,
      "ĭĢ": 3359,
      "įìłķ": 3360,
      "Ĳł": 3361,
      "ĶëģĶ": 3362,
      "Ľ°": 3363,
      "ìĿ´ê²Į": 3364,
      "ìĿ´ê±°": 3365,
      "ìĿ´ìĬ¤": 3366,
      "ìķ¡": 3367,
      "ìĸ´ëĤĺ": 3368,
      "ìĹ½": 3369,
      "ê³¨": 3370,
      "ì§Ģë¡ľ": 3371,
      "íķ´ì£¼": 3372,
      "íķ´ë¥¼": 3373,
      "íķ´ì¤Ħ": 3374,
      "ìķĦëĭ": 3375,
      "ìķĦíĮĮ": 3376,
      "ìĿĦëķĮ": 3377,
      "ìĿĦíħĲëį°": 3378,
      "ìłĪëĮĢ": 3379,
      "ĠíĭĢ": 3380,
      "ë³ĳìĽĲ": 3381,
      "ë§¤ë": 3382,
      "¸ëıĦ": 3383,
      "ëıĦìłĦ": 3384,
      "ĠìŀĪê¸¸": 3385,
      "ĠìŀĪê²łì£ł": 3386,
      "ê¹Ģ": 3387,
      "ê¹į": 3388,
      "Ġê±°ê²łì£ł": 3389,
      "ê¸°ê°Ħ": 3390,
      "¼ëį°": 3391,
      "Ġë°¤": 3392,
      "ĠìĤ¬ëŀĮìľ¼ë¡ľ": 3393,
      "Ġë³ĳ": 3394,
      "Ģë©´": 3395,
      "ë§ĮëĤĺ": 3396,
      "ĠìłĪ": 3397,
      "ìĽ¨ëĶ©": 3398,
      "Ġëªħ": 3399,
      "ëĿ¼ëĬĶ": 3400,
      "ê±°ë¥¼": 3401,
      "ê±°ì§ĵë§Ĳ": 3402,
      "íĸĪëĦ¤": 3403,
      "Ġê³§": 3404,
      "ì£¼ê°Ģ": 3405,
      "Ġê±·": 3406,
      "ĠìĪĺê°Ģ": 3407,
      "Ġë§ĮëĤ¨ìĿ´": 3408,
      "ĠìķĬìľ¼ë©´": 3409,
      "ìĤ¬ëŀĳíĸĪëįĺ": 3410,
      "Ġê°Ģì¹ĺ": 3411,
      "Ġëĭ¤ëĭĪ": 3412,
      "ëĤ´ëĬĶ": 3413,
      "ĠëĤĺìĿĢ": 3414,
      "Ġë§İìĿĢëį°": 3415,
      "ê·¸ëŁ¼": 3416,
      "íķĺì§Ģë§Į": 3417,
      "íķĺì§Ģë§ĪìĦ¸ìļĶ": 3418,
      "ìĨĶì§ģ": 3419,
      "ĠìŀĲì¡´": 3420,
      "Ġê¸°ê°Ħ": 3421,
      "ìĽĮìĦľ": 3422,
      "Ġëıħ": 3423,
      "ĠíķĦ": 3424,
      "Ġíķ¸ëĵľíı°": 3425,
      "Ġì§ĢìĽĮ": 3426,
      "ĠìĤ¬ê³¼": 3427,
      "Ġë§ĪìĿĮëıĦ": 3428,
      "ĠëĤ´ëĬĶ": 3429,
      "ìĬ¤íĥĢ": 3430,
      "Ł¬ìĽĮìļĶ": 3431,
      "Ġìłķë¦¬ë": 3432,
      "ìį¸ìĿ´": 3433,
      "ê´´": 3434,
      "ë¬´ìĹĩ": 3435,
      "ìŀĺíķĺëĬĶ": 3436,
      "ìŀĺíķĺê³ł": 3437,
      "ëĭ¹íķĺê²Į": 3438,
      "ĠíķłíħĲëį°": 3439,
      "Ġìĥģíĥľ": 3440,
      "ĠìĿ´ë³ĦìĿ´": 3441,
      "ìĥĪë²½": 3442,
      "ìĸ´ëĳĲ": 3443,
      "ìľ¼ëĭĪê¹Į": 3444,
      "íģ¬ë": 3445,
      "ĠíķĦìļĶëĬĶ": 3446,
      "ĠíķĦìļĶíķł": 3447,
      "ĠëĮĢëĭ¨": 3448,
      "Ġì¡°ìłĪ": 3449,
      "Ġì¡°ìĸ¸": 3450,
      "ìķĺìľ¼ë©´": 3451,
      "ĠìŀĬìĿĦ": 3452,
      "ëĭ¬ìĿ´": 3453,
      "ì°¨ê·¼": 3454,
      "ëĲĺëĬĶ": 3455,
      "Ġë§ĮëĤĺìĦľ": 3456,
      "ĠíĸĪìľ¼ë©´": 3457,
      "ĠëĬĲëł¤": 3458,
      "ëĵľë¦´ê²ĮìļĶ": 3459,
      "ĠìĽĢ": 3460,
      "íŀĺëĵľ": 3461,
      "ì§ĳìķĪ": 3462,
      "ì§ĳì°©": 3463,
      "Ġìłķë¦¬íķĺëĬĶê²Į": 3464,
      "³´ëĭ¤": 3465,
      "ìļ©ê¸°ëĤ´": 3466,
      "Ġëħ¸": 3467,
      "ëĭ¹ìĭłëıĦ": 3468,
      "ãħĭ": 3469,
      "Ġê¸°ëĭ¤ë¦¬ê³ł": 3470,
      "ĠìĻĶëĬĶëį°": 3471,
      "ìŀłìĿ´": 3472,
      "ìĤ´ì§Ŀ": 3473,
      "ìķĺëĭ¤": 3474,
      "ìķĦë¬´ë¦¬": 3475,
      "ĠìķĦëĭĪëĿ¼ë©´": 3476,
      "Ġë°°ëł¤": 3477,
      "ĠëĸłëĤĺ": 3478,
      "ëĨĵê³ł": 3479,
      "Ġìĵ°ëĬĶ": 3480,
      "ìĪĺë¥¼": 3481,
      "ĠìĤ¬ëĿ¼": 3482,
      "ìī½": 3483,
      "íĺ¸íĿ¡": 3484,
      "Ġì¹ľêµ¬ëĵ¤": 3485,
      "ìĤ¼": 3486,
      "ĠìĨįìĥģ": 3487,
      "ĠëĪĪìĹĲ": 3488,
      "ë´¤": 3489,
      "ĠëĨĵê³ł": 3490,
      "ĠëıĻìķĪ": 3491,
      "Ġê²°ìłķìĿ´ìĹĪìĿĦ": 3492,
      "Ġìĭ¬íķ´": 3493,
      "Ġë´ĲëıĦ": 3494,
      "ì·¨ì§ģ": 3495,
      "ê¿ĪìĿ´": 3496,
      "ëĤ¨ìŀĲì¹ľêµ¬ìĿĺ": 3497,
      "ê´ľì°®ìķĦ": 3498,
      "ìķĮë°Ķ": 3499,
      "ê¸°ëĭ¤ë¦¬ëĬĶ": 3500,
      "ìĬ¤ëŁ½ì§Ģ": 3501,
      "ĠëĶ°ëľ»": 3502,
      "ìŀ¬ë°Į": 3503,
      "ĠìĹ¬ìŀĲìķłíķľíħĮ": 3504,
      "ĠìĽĲíķĺëĬĶ": 3505,
      "Ġëħ¸ëł¥íķ´ë³´ìĦ¸ìļĶ": 3506,
      "ĠìĥĿê²¼ìĸ´": 3507,
      "Ġìį¼": 3508,
      "Ġê°Īê¹Į": 3509,
      "Ġëĭ¬ëĿ¼ê³ł": 3510,
      "ê±´ê°ķìĹĲ": 3511,
      "Ġë´Ħ": 3512,
      "ê¸°ë¶ĦìĿ´": 3513,
      "ë¬¸ëĵĿ": 3514,
      "Ġëĸ¨ìĸ´ì¡Įìĸ´": 3515,
      "Ġì§ĢëĤĺê°Ī": 3516,
      "íıīìĨĮ": 3517,
      "ĠìĥģíĻ©ìĿĦ": 3518,
      "Ġë§ĲìĶĢíķ´ì£¼ìĦ¸ìļĶ": 3519,
      "ĠëıĪìĿ´": 3520,
      "ìłģìĿ´ëĵł": 3521,
      "ì¹ľêµ¬ëĵ¤ê³¼": 3522,
      "Ġì¶©ë¶Ħíķ´ìļĶ": 3523,
      "Ġíģ¬ê²Į": 3524,
      "ĠìĦľë¡ľìĹĲê²Į": 3525,
      "ĭĪê¹Į": 3526,
      "Ġì§Ģì¼ľë³´ìĦ¸ìļĶ": 3527,
      "Ġìĵ´": 3528,
      "Ġì°©ê°ģ": 3529,
      "Ġê²¬ëĶĶ": 3530,
      "ëĤłìĶ¨ê°Ģ": 3531,
      "Ġëľ¨": 3532,
      "Ġê°Ģì§ĢìĦ¸ìļĶ": 3533,
      "ĠíĿĺëłĢëĦ¤ìļĶ": 3534,
      "ê·¸ëŀĺìĦľ": 3535,
      "Ġëį°ëł¤ëĭ¤": 3536,
      "Ġë¶ĪëŁ¬": 3537,
      "íĻķìĭ¤íķľ": 3538,
      "ĠìĥĢìĸ´": 3539,
      "¬ë§Ŀ": 3540,
      "íķľëıĻìķĪìĿĢ": 3541,
      "ë§ĮëĤľì§Ģ": 3542,
      "ìĻĦë²½": 3543,
      "ì¤ĳìļĶíķľ": 3544,
      "ĠìĲ¬ê³ł": 3545,
      ",<": 3546,
      "¹ìĭľ": 3547,
      "ëĴ": 3548,
      "Ĭ¦": 3549,
      "ĵŃëĭĪëĭ¤": 3550,
      "Ł¬ëĬĶ": 3551,
      "Ńì°¬": 3552,
      "ĠëĿ": 3553,
      "Ġë»Ķ": 3554,
      "ĠëĽ°": 3555,
      "Ġêº¼": 3556,
      "ĺëĦ¤": 3557,
      "ëĭĪë": 3558,
      "ìĦ¼": 3559,
      "ìĹĪëĦ¤ìļĶ": 3560,
      "ì§ĢëĤĺ": 3561,
      "ê°Ģë©´": 3562,
      "ê³łë§Ī": 3563,
      "ëĭ¤ë¦¬": 3564,
      "ëĭ¤ëĵ¤": 3565,
      "ëĭ¤ë³´ë©´": 3566,
      "íķĺëĥĲ": 3567,
      "ë§ģ": 3568,
      "¸ëĿ¼": 3569,
      "¸ë¶Ģ": 3570,
      "ĠìŀĪê²łì§Ģ": 3571,
      "ĠëĤĺëıĦ": 3572,
      "ìŀĲì¡´": 3573,
      "ĠìĿĢ": 3574,
      "Ġì§Ģë": 3575,
      "Ġë³Ģë": 3576,
      "ë§ĮëĤ¨": 3577,
      "ì¹ľíķľ": 3578,
      "ìĿ¸íĺķ": 3579,
      "ĠëĲ©ëĭĪëĭ¤": 3580,
      "ë°ĺë": 3581,
      "ĠìĹĨëĤĺ": 3582,
      "ĠìĹĨìľ¼ë©´": 3583,
      "ĠìĹĨëĭ¤ê³ł": 3584,
      "ĠìķĦê¹Į": 3585,
      "ìĭľê³ł": 3586,
      "Ġì¢ĭìķĦíķ´ëıĦ": 3587,
      "ìĭłíĺ¼": 3588,
      "Ġê²ĥìĿĢ": 3589,
      "íķĺê³łìĭ¶": 3590,
      "Īë¬´ë¦¬": 3591,
      "Ġë§Įëĵľ": 3592,
      "ĠìķĬê²Į": 3593,
      "ĠìķĬëĦ¤": 3594,
      "Ġë§ĲëıĦ": 3595,
      "Ġë§ĲìĿ´ìĹĲìļĶ": 3596,
      "ĠìĹ°ìĿ¸": 3597,
      "ì²©": 3598,
      "ĠìķĪìĻĢ": 3599,
      "ìĪĺëıĦ": 3600,
      "ĠëĤĺìĻĶ": 3601,
      "ĠëĤĺìĿ´ê°Ģ": 3602,
      "Ġë°Ķë¡ľ": 3603,
      "ì¡¸ìĹħ": 3604,
      "Ġì°Į": 3605,
      "Ġê·¸ëĮĢë¡ľ": 3606,
      "Ġê·¸ëŀ¬": 3607,
      "ĠìŀĲìľł": 3608,
      "ìķłë§¤": 3609,
      "ĠìŀĪìĿĦê±°ìĺĪìļĶ": 3610,
      "Ġê¸°ìļ´": 3611,
      "Ġê¸°ìļ¸": 3612,
      "ìłĦëĤ¨ì¹ľ": 3613,
      "ìłĦìĹ¬ì¹ľ": 3614,
      "ĠìĹ°ëĿ½íķĺëĬĶ": 3615,
      "Ġì§ĢëĤ¬ëĦ¤": 3616,
      "ĠëĤ¨ìŀĲì¹ľêµ¬ê°Ģ": 3617,
      "ĠëĤ¨ê²¨": 3618,
      "ìŀ¥ê±°ë¦¬": 3619,
      "ĠìĿ¼ìĿ´ëĦ¤ìļĶ": 3620,
      "ĠìĿ¼ì£¼ìĿ¼": 3621,
      "ĠëķĮëĦ¤ìļĶ": 3622,
      "Ġì¹Ńì°¬": 3623,
      "ìĺ¤ë©´": 3624,
      "ëĮĢíķĻ": 3625,
      "ëĮĢíĻĶë¥¼": 3626,
      "Ġì¢ĭê²łì§Ģ": 3627,
      "ì¶©ìłĦ": 3628,
      "ìį¸ìĿ¸ì§Ģ": 3629,
      "íĬ¹": 3630,
      "Ġìĭľê°ĦìĿĢ": 3631,
      "Ġëĵ¤ìĸ´ëĵľë¦´ê²ĮìļĶ": 3632,
      "ê·¸ë§Į": 3633,
      "ĠëģĿëĤľ": 3634,
      "ìĽĲëŀĺ": 3635,
      "Ġìī¬ëĬĶ": 3636,
      "ĠíĥĢëĬĶëį°": 3637,
      "ĠíĥĢìĿ´ë°į": 3638,
      "ìĦ±ìľ¼ë¡ľ": 3639,
      "Ġê°ĲìĤ¬": 3640,
      "íĶĦë¡ľ": 3641,
      "Ġë¹¼": 3642,
      "íĥĢê¹Ŀ": 3643,
      "ĠìķłíķľíħĮ": 3644,
      "Ġë¹ĦêµĲ": 3645,
      "Ġëĭ¹ìĹ°": 3646,
      "ìĥĿê°ģíķł": 3647,
      "Ġì°¾ìķĦìĺ¬": 3648,
      "ìĦłìĿĺ": 3649,
      "ì§Ģê¸Īì²ĺëŁ¼": 3650,
      "ëģĹ": 3651,
      "Ġíİ¸íķł": 3652,
      "Ġíİ¸íķĺê²Į": 3653,
      "íĨµë³´": 3654,
      "ìłĲìĿĦ": 3655,
      "ĠìĦłë¬¼ìĿ´": 3656,
      "Ġê³ĦìłĪ": 3657,
      "Ġê¸°ëĭ¤ëł¤ë³´ìĦ¸ìļĶ": 3658,
      "Ġë©į": 3659,
      "ĠìĿ´ìķ¼ê¸°ëĦ¤ìļĶ": 3660,
      "ìĹĨìĸ´": 3661,
      "Ġë³´ê³łìĭ¶ìĸ´": 3662,
      "ĠìĻĶëĭ¤": 3663,
      "íķĺëĭ¤ê°Ģ": 3664,
      "ì½¤": 3665,
      "Ġêµ°": 3666,
      "ë°°ê³ł": 3667,
      "ĠìķĮìķĦë³´ìĦ¸ìļĶ": 3668,
      "ĠìķĪëĲĲëĬĶëį°": 3669,
      "Ġì±ħ": 3670,
      "íĴĢ": 3671,
      "ë³´ê³łìĭ¶": 3672,
      "Ġê°ĢëĬ¥ìĦ±ìĿ´": 3673,
      "ëıĪìĿ´": 3674,
      "ìĺĢëĤĺë´ĲìļĶ": 3675,
      "ĠìķĪëı¼ìļĶ": 3676,
      "Ġë¯¸ì¹ĺ": 3677,
      "ĠíĶ¼íķĺìĦ¸ìļĶ": 3678,
      "ĠëĲĲìľ¼ë©´": 3679,
      "ë°ĽìķĦ": 3680,
      "ĠëĪĪìĿ´": 3681,
      "Ġë¶ĦìĿ´": 3682,
      "ĠìłĢë¥¼": 3683,
      "ĠëıĻê±°": 3684,
      "ĠëıĮìķĦìĺ¤": 3685,
      "ì¶ľê·¼": 3686,
      "ĠíĮĲëĭ¨": 3687,
      "Ġê²°ìłķìĿĦ": 3688,
      "ĠìĿ´ìľłë¥¼": 3689,
      "Ġìĸ´ëĸ¡íķĺì§Ģ": 3690,
      "ĠìķĦíĶĦëĦ¤ìļĶ": 3691,
      "Ġë§ĮëĤĺë©´": 3692,
      "ì¡°ê¸ĪìĶ©": 3693,
      "ì¹´ëĵľ": 3694,
      "ìĹ¬ìŀĲì¹ľêµ¬ëŀĳ": 3695,
      "ê¼¬ë": 3696,
      "ì¶©ë¶Ħíķľ": 3697,
      "íŀĺëĵ¤ê²łì§Ģë§Į": 3698,
      "ĠìķĦë¬´ê²ĥëıĦ": 3699,
      "ëĳĺ": 3700,
      "Ġë°ľìłĦ": 3701,
      "ĠìķĮëł¤ì£¼ìĦ¸ìļĶ": 3702,
      "Ġìļ©ê¸°ê°Ģ": 3703,
      "ìĸ¸ìłłê°Ģ": 3704,
      "Ġë§¤ìĿ¼": 3705,
      "ĠìĬµê´ĢìĿ´ìĹĲìļĶ": 3706,
      "Ġíĺ¸ê°Ĳ": 3707,
      "íĻĶìŀ¥ìĭ¤": 3708,
      "ĠíĻķìĭ¤íķľ": 3709,
      "ĠíĻķìĭ¤íŀĪ": 3710,
      "Ġì¶©ë¶ĦíŀĪ": 3711,
      "Ġê°Ķëĭ¤": 3712,
      "ìĹĦë§Īê°Ģ": 3713,
      "Ġìĸ´ì©Ķ": 3714,
      "ê·¹ìłģìľ¼ë¡ľ": 3715,
      "Ġëĳĺ": 3716,
      "ĠìĤ¬ê·Ī": 3717,
      "ĠíĶĦìĤ¬": 3718,
      "ëĥī": 3719,
      "Ġê²¬ëİĮ": 3720,
      "ĠìĪĺë¡Ŀ": 3721,
      "ëħĲìĿ¼": 3722,
      "ëĸł": 3723,
      "ìķĦì¹¨ìĹĲ": 3724,
      "ĠíĬ¹": 3725,
      "Ġë°Ķê¿Ķ": 3726,
      "ìĺ¤ëŀľë§ĮìĹĲ": 3727,
      "ìĸ´ëĬĲëį§": 3728,
      "ĠëĨĵìķĦì£¼ìĦ¸ìļĶ": 3729,
      "ĠëĥĦìĥĪ": 3730,
      "ãħİãħİ": 3731,
      "Ġì½Ķ": 3732,
      "Ġê±¸ë¦´": 3733,
      "ĠìĹ¬ëŁ¬": 3734,
      "Ġê¿¨ìĸ´": 3735,
      "¶Įíĥľ": 3736,
      "ĠíħĲëį°": 3737,
      "ĠëĬ¥ëł¥ìĿ´": 3738,
      "ìĥģíĻ©ìĿ´": 3739,
      "ëŃĶê°Ģ": 3740,
      "ìĹ°ìĺĪìĿ¸": 3741,
      "..": 3742,
      "ns": 3743,
      "sns": 3744,
      "¡Ģ": 3745,
      "¤Ħ": 3746,
      "¤ìĽĮ": 3747,
      "¦°": 3748,
      "§Ī": 3749,
      "¶Ī": 3750,
      "½ĳ": 3751,
      "ëĮ": 3752,
      "ķìĿ´": 3753,
      "ļê½ĥ": 3754,
      "ľì§ģ": 3755,
      "ł¥": 3756,
      "Ġì³": 3757,
      "Ġìĩ¼íķĳ": 3758,
      "Ġëĵł": 3759,
      "ìĿ´íķ´": 3760,
      "ìĿ´íĮħ": 3761,
      "ìĿ´ëĿ¼ë©´": 3762,
      "ìĿ´ìľłê°Ģ": 3763,
      "ëĭ¥": 3764,
      "ëĭī": 3765,
      "ìĸ´ì§Ħ": 3766,
      "ìĸ´ìŀ¥": 3767,
      "ëĤŃ": 3768,
      "Ġìŀĥ": 3769,
      "ìķĦëĭĪ": 3770,
      "ìķĦë¹ł": 3771,
      "ìķĦë¦Ħëĭ¤": 3772,
      "Ġíĳľ": 3773,
      "íķĺëŁ¬": 3774,
      "íķĺëĬĲëĿ¼": 3775,
      "ë§Ļ": 3776,
      "Ġê°Īë": 3777,
      "¸ë©´": 3778,
      "ĠìĹŃ": 3779,
      "ë³´ì§Ģ": 3780,
      "ë³´íĨµ": 3781,
      "ĠìŀĪìľ¼ëĭĪê¹ĮìļĶ": 3782,
      "ê¹Įë´Ĳ": 3783,
      "ìŀĲì±ħíķĺì§Ģ": 3784,
      "Ġê±°ìłĪ": 3785,
      "ìĦľìļ´": 3786,
      "ìľ¡": 3787,
      "ë¦½ëĭĪëĭ¤": 3788,
      "ëį°ìļĶ": 3789,
      "ê·ľì§ģ": 3790,
      "íķłê²ĮìļĶ": 3791,
      "ëłĩ": 3792,
      "ëłĮ": 3793,
      "Ġì§ĵ": 3794,
      "ë§Įìľ¼ë¡ľ": 3795,
      "ĠëĲ¨": 3796,
      "ĠìĹĨëĤĺë´ĲìļĶ": 3797,
      "ĠìĹĨê²łëĦ¤ìļĶ": 3798,
      "ëĿ¼ìĿ´": 3799,
      "ìĭľëĬĶ": 3800,
      "ìĭľê²łìĸ´ìļĶ": 3801,
      "ê±°ì§Ģ": 3802,
      "Ġì¢ĭìķĦíķĺê³ł": 3803,
      "Ġì¢ĭìķĦíķĺëĤĺ": 3804,
      "ìĿ¼ì°į": 3805,
      "Ġìĭ¶ëĦ¤": 3806,
      "ë¦¬ê²Į": 3807,
      "ìłķëıĦ": 3808,
      "Ġìĸ´ìłľ": 3809,
      "ìłľë¥¼": 3810,
      "Ġìĺ¬ë": 3811,
      "Ġìĺ¬ëĿ¼": 3812,
      "Ġìĺ¬ëł¤": 3813,
      "ĠìĥĿê°ģìĹĲ": 3814,
      "ĠìĥĿê°ģìĿĢ": 3815,
      "ĠìĥĿê°ģíķĺì§Ģ": 3816,
      "ĠìĥĿê°ģíķĺë©´": 3817,
      "ê°ĦìĿĺ": 3818,
      "Ġë§Įëĵł": 3819,
      "Ġë§Ĳê¹Į": 3820,
      "Ġë§ĲíķĺëĬĶ": 3821,
      "Ġë§Ĳíķł": 3822,
      "ìĤ¬ëŀĳíķĺëĬĶëį°": 3823,
      "ë©´ìłĳ": 3824,
      "Ġê°Ģê¹Į": 3825,
      "ĠëĤĺìĺ¬": 3826,
      "ĠëĤĺìĻĶìĸ´": 3827,
      "ë¡ľìĽĮ": 3828,
      "ëł¤ëıĦ": 3829,
      "Ġë°Ķìģľ": 3830,
      "ê·¸ëŁ¬ë©´": 3831,
      "ê·¸ëıĻìķĪ": 3832,
      "Ġìĭľê¸°": 3833,
      "ìĹĪìĸ´ìļĶ": 3834,
      "Ġê·¸ëŁ¬ë©´": 3835,
      "ĠìŀĲê³ł": 3836,
      "ĠìŀĲê²©ìĿ´": 3837,
      "ĠìĤ¬ëŀĳíķľ": 3838,
      "ĠìĤ¬ëŀĳíķľëĭ¤ë©´": 3839,
      "ìĹ°ìĿ¸": 3840,
      "íŀĪë": 3841,
      "ìĭ¬íĺ¸íĿ¡": 3842,
      "ë§Ĳíķ´ë³´ìĦ¸ìļĶ": 3843,
      "ë§ĲìĶĢ": 3844,
      "ìłĦìĹĲ": 3845,
      "ĠìĹ°ëĿ½íķĺì§Ģ": 3846,
      "ĠìĹ°ëĿ½íķĺë©´": 3847,
      "Ġì§Ģì³Ĳ": 3848,
      "ĠëĤ¨ìķĦ": 3849,
      "ìŀ¥ë©´": 3850,
      "ìŀ¥ìĹĲìĦľ": 3851,
      "Ġíŀĺëĵ¤ê²łì§Ģ": 3852,
      "ĠìĤ¬ìļ©": 3853,
      "ëª½": 3854,
      "Ġë§ĪìĿĮìĿĢ": 3855,
      "ĠìĿ¼ìĥģ": 3856,
      "ì§ĿëħĢëŀĳ": 3857,
      "ĠëĤ´ë³´ìĦ¸ìļĶ": 3858,
      "ĠëĤ´ìĿ¼": 3859,
      "ĠëĤ´ëł¤ëĨ": 3860,
      "ìĹĲìĦľëıĦ": 3861,
      "ì¢ĭìķĦíķĺë©´": 3862,
      "Ġê³łíĨµ": 3863,
      "Ġë¨¹ìĿĦê¹Į": 3864,
      "Ġë¨¹ìĸ´ìķ¼": 3865,
      "Ġì¢ĭê²łì§Ģë§Į": 3866,
      "ì¶©": 3867,
      "ìį¸ìĿ¸ëį°": 3868,
      "Ġìĭľê°ĦëıĦ": 3869,
      "Ġì¤ĳê°Ħ": 3870,
      "ĠíķĺëĦ¤": 3871,
      "ĠíķĺëĬĺ": 3872,
      "ĠíķĺëĤĺë´ĲìļĶ": 3873,
      "Ġë²ł": 3874,
      "ëĭ¹íĻ©": 3875,
      "ĠëĲĺê¸°ëıĦ": 3876,
      "ìŀĪìĿĦ": 3877,
      "Ġì¡¸ëł¤": 3878,
      "ëıĻê±°": 3879,
      "Ġì¶¥": 3880,
      "ìĨĮë¦¬": 3881,
      "ìĨĮíĻĶ": 3882,
      "ìĨĮë¦¬ë¥¼": 3883,
      "íĮ¨": 3884,
      "Ġìĸĳ": 3885,
      "ĠëĵľëĦ¤": 3886,
      "ìĪĺê°Ģ": 3887,
      "Ġê·¸ìĤ¬ëŀĮ": 3888,
      "ĠìĹ¬ìŀĲë¥¼": 3889,
      "ìħĢ": 3890,
      "Ġìī½ê²Į": 3891,
      "ĠìĹĨìĸ´ìĦľ": 3892,
      "ĠìŀĪìĸ´ìĦľ": 3893,
      "ĠìŀĬìĸ´ë²Ħë¦¬ìĦ¸ìļĶ": 3894,
      "ëĭ¬ëĭ¬": 3895,
      "ëĭ¬ì§¸": 3896,
      "ë°Ķë¡ľ": 3897,
      "Ġë§ĮëĤĺê¸°ë¡ľ": 3898,
      "ĠìĿ¸ìĤ¬": 3899,
      "ëĭµìĿ´": 3900,
      "ĠìĹ°ìķłë¥¼": 3901,
      "ìĿ´ëĿ¼ëĭĪ": 3902,
      "ĠìķĦëĭĪìķ¼": 3903,
      "Ġì°¨ë¶Ħ": 3904,
      "Ġì²ĺë": 3905,
      "Ġìĺ¤ë©´": 3906,
      "ìŀĲìĭłìĿ´": 3907,
      "ìĭľê°ĦìĿĦ": 3908,
      "Ġìłķë¦¬íķł": 3909,
      "ĠëĦ£": 3910,
      "ëĦĺ": 3911,
      "ìĹ°ëĿ½ìĿĦ": 3912,
      "Ġë°©ë²ķìĿ´ìĹĲìļĶ": 3913,
      "ĠìłľëĮĢë¡ľ": 3914,
      "ĠìŀĲìĭłìĿĺ": 3915,
      "ĠìľĦíĹĺ": 3916,
      "íĺ¼ìŀĲê°Ģ": 3917,
      "ë¹¡": 3918,
      "ë¹Į": 3919,
      "ĠëĳĲê·¼": 3920,
      "Ĥĺë´ħëĭĪëĭ¤": 3921,
      "ì§ĿìĤ¬ëŀĳìĿ´": 3922,
      "ìĹĨìĸ´ìļĶ": 3923,
      "ìĪłìĿ´": 3924,
      "Ġëĵ¤ìĸ´ìĻĢ": 3925,
      "Ġë§Įëĵ¤ìĸ´ìļĶ": 3926,
      "Ġë§Įëĵ¤ìĸ´ë³´ìĦ¸ìļĶ": 3927,
      "Ġê³łë°±íķ´ë³´ìĦ¸ìļĶ": 3928,
      "Ġê³³ìĹĲìĦľ": 3929,
      "ì½ľ": 3930,
      "ĠêµĲ": 3931,
      "êµŃìĸ´": 3932,
      "ìħ¨ëĤĺë´ĲìļĶ": 3933,
      "ë°°ê°Ģ": 3934,
      "Ġíķĺë©´ìĦľ": 3935,
      "ĠìķĦëĭĪë©´": 3936,
      "Ł½ëĦ¤ìļĶ": 3937,
      "ĠëĨĢê³ł": 3938,
      "Ġê°ĢëĬ¥íķł": 3939,
      "Ġíŀĺëĵ¤ìĸ´ìĦľ": 3940,
      "ëĨĢìĿ´": 3941,
      "ìĿ´ìĹĪìľ¼ë©´": 3942,
      "ìŀĬìĿĦ": 3943,
      "ìŀĬíĺĢ": 3944,
      "ëĤ¨ìŀĲì¹ľêµ¬ëŀĳ": 3945,
      "ëĤ¨ìŀĲëĵ¤ìĿĢ": 3946,
      "Ġìļ°ìĦł": 3947,
      "ĠíĶ¼íķ´": 3948,
      "ĠìĿ´ìĥģíķľ": 3949,
      "ê²©ì¦Ŀ": 3950,
      "ê²¼ìĸ´": 3951,
      "Ġê´Ģìĭ¬ìĿĦ": 3952,
      "ëĪĦêµ°": 3953,
      "ìĹ¬ëĵľ": 3954,
      "ĠìĿ´ë£¨": 3955,
      "ĠëıĻìĥĿ": 3956,
      "ĠíĳľíĺĦíķ´": 3957,
      "Ġê¿ĪìĿĦ": 3958,
      "Ġëĭ¹ìĭłìĿ´": 3959,
      "ĠëĪĦêµ¬ë": 3960,
      "ë´ĲëıĦ": 3961,
      "ĠíĻĶê°Ģ": 3962,
      "Ġë²Īíĺ¸": 3963,
      "ĠíĽĦíļĮíķł": 3964,
      "ê·¸ëħĢìĿĺ": 3965,
      "ê¿ĪìĹĲ": 3966,
      "ëģĿìĿ´": 3967,
      "ëģĿìĿĦ": 3968,
      "ĠìĿĺì§Ģ": 3969,
      "Ġê¶ģê¸ĪíķĺëĦ¤ìļĶ": 3970,
      "ĠìĤ¬ìĿ´ê°Ģ": 3971,
      "ĠìĹ¬íĸīìĿĦ": 3972,
      "ĠëĶ°ë¡ľ": 3973,
      "Ġë¹łë¥´": 3974,
      "ìŀ¬ë¥¼": 3975,
      "Ġê´ľì°®ìķĦì§Ī": 3976,
      "Ġë§ŀëĬĶê±¸ê¹Į": 3977,
      "ë©´ìĦľëıĦ": 3978,
      "Ġìļ´ëªħ": 3979,
      "Ġëĭ¤ëĲĺ": 3980,
      "ĠìķĬìķĺìĸ´ìļĶ": 3981,
      "ê³łë¯¼ìĿ´": 3982,
      "Ġë§ĮëĤĺëĬĶê²Į": 3983,
      "ì²«ìĤ¬ëŀĳ": 3984,
      "ĠìķĦëĭĪëĿ¼ê³ł": 3985,
      "Ġì¦Ĳê¸°ìĦ¸ìļĶ": 3986,
      "Ġë§ĺìĹĲ": 3987,
      "ĠìĤ¬ëŀĮëĵ¤ìĹĲê²Į": 3988,
      "ĠíĨµë³´": 3989,
      "Ġê¾¸ë": 3990,
      "Ġì§ĿëĤ¨íķľíħĮ": 3991,
      "ìĽłìĸ´": 3992,
      "Ġì§ĿëħĢê°Ģ": 3993,
      "ĠíĥľëıĦ": 3994,
      "ĠìĺĪë»ĲìļĶ": 3995,
      "ìĿ¸ìĥĿìĿĢ": 3996,
      "Ġëª¨ìĬµìĿĦ": 3997,
      "ë¶Ģëª¨ëĭĺìĿ´": 3998,
      "ì»¨": 3999
    },
    "merges": [
      [
        "Ġ",
        "ì"
      ],
      [
        ">",
        "<"
      ],
      [
        "a",
        "k"
      ],
      [
        "e",
        "r"
      ],
      [
        "e",
        "ak"
      ],
      [
        "o",
        "s"
      ],
      [
        "p",
        "eak"
      ],
      [
        "s",
        "peak"
      ],
      [
        "speak",
        "er"
      ],
      [
        "Ġ",
        "ë"
      ],
      [
        "ì",
        "Ŀ"
      ],
      [
        "í",
        "ķ"
      ],
      [
        ".",
        "<"
      ],
      [
        "ì",
        "ļ"
      ],
      [
        "b",
        "os"
      ],
      [
        "e",
        "os"
      ],
      [
        "r",
        "n"
      ],
      [
        "t",
        "u"
      ],
      [
        "tu",
        "rn"
      ],
      [
        "ìļ",
        "Ķ"
      ],
      [
        "Ġ",
        "ê"
      ],
      [
        "ìĿ",
        "´"
      ],
      [
        "ĺ",
        "ë"
      ],
      [
        "ì",
        "ķ"
      ],
      [
        "ê",
        "°"
      ],
      [
        "ì",
        "§"
      ],
      [
        "ë",
        "ĭ"
      ],
      [
        "ĸ",
        "´"
      ],
      [
        "Ĭ",
        "Ķ"
      ],
      [
        "ì",
        "Ħ"
      ],
      [
        "ì",
        "ĸ´"
      ],
      [
        "ê",
        "²"
      ],
      [
        "ì",
        "Ĺ"
      ],
      [
        "ë",
        "Ĥ"
      ],
      [
        "ê",
        "³"
      ],
      [
        "ì§",
        "Ģ"
      ],
      [
        "¬",
        "ë"
      ],
      [
        "íķ",
        "´"
      ],
      [
        "ì",
        "ŀ"
      ],
      [
        "Ġì",
        "ŀ"
      ],
      [
        "ìķ",
        "Ħ"
      ],
      [
        "ê°",
        "Ģ"
      ],
      [
        "ìĦ",
        "¸"
      ],
      [
        "ë",
        "ĬĶ"
      ],
      [
        "ê³",
        "ł"
      ],
      [
        "ìĿ",
        "Ħ"
      ],
      [
        "ì",
        "ł"
      ],
      [
        "ìĦ¸",
        "ìļĶ"
      ],
      [
        "Ġ",
        "í"
      ],
      [
        "ë",
        "³"
      ],
      [
        "Ġë",
        "§"
      ],
      [
        "ëĭ",
        "¤"
      ],
      [
        "Ġì",
        "ķ"
      ],
      [
        "íķ",
        "ĺë"
      ],
      [
        "ê",
        "¸"
      ],
      [
        "ı",
        "Ħ"
      ],
      [
        "ì",
        "ĭ"
      ],
      [
        "ë",
        "§"
      ],
      [
        "±",
        "°"
      ],
      [
        "íķ",
        "ĺ"
      ],
      [
        "Ĥ",
        "¬ë"
      ],
      [
        "¢",
        "ĭ"
      ],
      [
        "ìĹ",
        "Ĳ"
      ],
      [
        "Ĥ¬ë",
        "ŀ"
      ],
      [
        "Ġê",
        "°"
      ],
      [
        "ê²",
        "Į"
      ],
      [
        "ìĿ",
        "Ģ"
      ],
      [
        "ì",
        "ĺ"
      ],
      [
        "¸",
        "ë"
      ],
      [
        "ë",
        "ıĦ"
      ],
      [
        "Ġì",
        "Ĺ"
      ],
      [
        "ë³",
        "´"
      ],
      [
        "Ġìŀ",
        "Ī"
      ],
      [
        "ê",
        "¹"
      ],
      [
        "íķ",
        "ľ"
      ],
      [
        "©",
        "´"
      ],
      [
        "Ħ",
        "¤"
      ],
      [
        "Ī",
        "ë"
      ],
      [
        "Ġì",
        "¢ĭ"
      ],
      [
        "Ġë",
        "Ĥ"
      ],
      [
        "ì",
        "£"
      ],
      [
        "ê¹",
        "Į"
      ],
      [
        "ìŀ",
        "Ĳ"
      ],
      [
        "Ġê",
        "±°"
      ],
      [
        "Ġì",
        "ĭ"
      ],
      [
        "?",
        "<"
      ],
      [
        "Ġì",
        "Ŀ"
      ],
      [
        "ê¸",
        "°"
      ],
      [
        "íķĺë",
        "ĬĶ"
      ],
      [
        "į",
        "°"
      ],
      [
        "Ġì",
        "Ĥ¬ëŀ"
      ],
      [
        "ë",
        "Ŀ"
      ],
      [
        "ëĭ",
        "Ī"
      ],
      [
        "¼",
        "ë"
      ],
      [
        "Ġê",
        "²"
      ],
      [
        "¡",
        "ľ"
      ],
      [
        "ê",
        "µ"
      ],
      [
        "ìĦ",
        "ľ"
      ],
      [
        "ê²",
        "ł"
      ],
      [
        "ì",
        "¹"
      ],
      [
        "ë³´",
        "ìĦ¸ìļĶ"
      ],
      [
        "ì",
        "ľ"
      ],
      [
        "ë",
        "Ħ¤"
      ],
      [
        "ĥ",
        "Ŀ"
      ],
      [
        "ìĺ",
        "Ī"
      ],
      [
        "ĵ",
        "¤"
      ],
      [
        "Ġë",
        "°"
      ],
      [
        "ë",
        "¥"
      ],
      [
        "ë",
        "¦"
      ],
      [
        "ëĤ",
        "ĺ"
      ],
      [
        "ìĺĪ",
        "ìļĶ"
      ],
      [
        "¬",
        "´"
      ],
      [
        "ë",
        "į°"
      ],
      [
        "ì",
        "Ĭ"
      ],
      [
        "ìķ",
        "¼"
      ],
      [
        "ê",
        "·"
      ],
      [
        "íķ",
        "ł"
      ],
      [
        "ìĸ´",
        "ìļĶ"
      ],
      [
        "ĠìĤ¬ëŀ",
        "Į"
      ],
      [
        "Ġë",
        "ĭ"
      ],
      [
        "ë",
        "ł"
      ],
      [
        "Ġê±°",
        "ìĺĪìļĶ"
      ],
      [
        "Ġì",
        "Ī"
      ],
      [
        "´",
        "Ĳ"
      ],
      [
        "ì£",
        "ł"
      ],
      [
        "Ġì",
        "§"
      ],
      [
        "Ġê°",
        "Ļ"
      ],
      [
        "ĠìĿ",
        "´"
      ],
      [
        "Ġë",
        "³"
      ],
      [
        "Ģ",
        "ë"
      ],
      [
        "ë§",
        "Į"
      ],
      [
        "Ġì",
        "ł"
      ],
      [
        "ìĿ",
        "Į"
      ],
      [
        "ì",
        "Ľ"
      ],
      [
        "ì¹",
        "ľ"
      ],
      [
        "ëĤ",
        "ĺë"
      ],
      [
        "Ġ",
        "íķ´"
      ],
      [
        "Ġë",
        "ª"
      ],
      [
        "¤",
        "ë"
      ],
      [
        "ŀ",
        "ĺë"
      ],
      [
        "ìĿ",
        "¸"
      ],
      [
        "Ġë",
        "Ĳ"
      ],
      [
        "ë",
        "°"
      ],
      [
        "ìĿ",
        "ĺ"
      ],
      [
        "ĠìĹ",
        "Ĩ"
      ],
      [
        "Ġìķ",
        "Ħ"
      ],
      [
        "ìľ",
        "¼ë"
      ],
      [
        "ê°",
        "ģ"
      ],
      [
        "Ġì",
        "ĥĿ"
      ],
      [
        "ëĿ",
        "¼"
      ],
      [
        "ëĭĪ",
        "ëĭ¤"
      ],
      [
        "ìĭ",
        "ľ"
      ],
      [
        "Ġê",
        "·"
      ],
      [
        "ê",
        "±°"
      ],
      [
        "ĥ",
        "ģ"
      ],
      [
        "ì",
        "Ĥ¬ëŀ"
      ],
      [
        "Ġë§",
        "Ī"
      ],
      [
        "Ġì¢ĭ",
        "ìķĦ"
      ],
      [
        "ìĿ",
        "¼"
      ],
      [
        "í",
        "ĸ"
      ],
      [
        "Ġìĭ",
        "¶"
      ],
      [
        "êµ",
        "¬"
      ],
      [
        "´Ĳ",
        "ìļĶ"
      ],
      [
        "Ĥ",
        "¬"
      ],
      [
        "ëĦ¤",
        "ìļĶ"
      ],
      [
        "ë¦",
        "¬"
      ],
      [
        "ì",
        "°"
      ],
      [
        "ìł",
        "ķ"
      ],
      [
        "ìĭ",
        "ł"
      ],
      [
        "í",
        "ĺ"
      ],
      [
        "ëĤ",
        "¨"
      ],
      [
        "Ġê²",
        "ĥ"
      ],
      [
        "Ġì",
        "ĸ´"
      ],
      [
        "ìł",
        "ľ"
      ],
      [
        "Ġê",
        "³"
      ],
      [
        "Ġì",
        "ĺ"
      ],
      [
        "ì£",
        "¼"
      ],
      [
        "ë",
        "ŀ"
      ],
      [
        "íķĺ",
        "ê³ł"
      ],
      [
        "Ġê",
        "±"
      ],
      [
        "ĠìĪ",
        "ĺ"
      ],
      [
        "į",
        "Ķ"
      ],
      [
        "ë¥",
        "¼"
      ],
      [
        "Īë",
        "¬´"
      ],
      [
        "ĠìĥĿ",
        "ê°ģ"
      ],
      [
        "ê°",
        "Ħ"
      ],
      [
        "Ġë§",
        "Į"
      ],
      [
        "ë",
        "¶"
      ],
      [
        "í",
        "Ļ"
      ],
      [
        "Ġë³",
        "´"
      ],
      [
        "ìķĦ",
        "ìļĶ"
      ],
      [
        "Ġìķ",
        "Ĭ"
      ],
      [
        "Ħ",
        "Īë¬´"
      ],
      [
        "Ġë§",
        "Ĳ"
      ],
      [
        "ë³",
        "Ħ"
      ],
      [
        "ìĤ¬ëŀ",
        "ĳ"
      ],
      [
        "ë",
        "©´"
      ],
      [
        "Ġê°",
        "Ģ"
      ],
      [
        "Ġëĭ",
        "¤"
      ],
      [
        "ĠìĹ",
        "°"
      ],
      [
        "ì",
        "²"
      ],
      [
        "Ġí",
        "ŀĺë"
      ],
      [
        "ë§",
        "Ī"
      ],
      [
        "ëĤ",
        "´"
      ],
      [
        "Į",
        "Ģ"
      ],
      [
        "Ġì",
        "¤"
      ],
      [
        "ĵ",
        "ľ"
      ],
      [
        "Ġìķ",
        "Ī"
      ],
      [
        "ì",
        "¢ĭ"
      ],
      [
        "ì",
        "¤"
      ],
      [
        "ì",
        "Ī"
      ],
      [
        "ĠëĤ",
        "ĺ"
      ],
      [
        "Ġë§",
        "İ"
      ],
      [
        "íķ´",
        "ë³´ìĦ¸ìļĶ"
      ],
      [
        "ë",
        "¡ľ"
      ],
      [
        "ëĿ",
        "½"
      ],
      [
        "ëł",
        "¤"
      ],
      [
        "ì",
        "ĥģ"
      ],
      [
        "Ġê",
        "¸"
      ],
      [
        "¤",
        "ìĸ´"
      ],
      [
        "ëĬĶ",
        "ëį°"
      ],
      [
        "ìĹ",
        "¬"
      ],
      [
        "ķ",
        "Į"
      ],
      [
        "Ġë°",
        "Ķ"
      ],
      [
        "ì",
        "¡"
      ],
      [
        "Ġì",
        "°"
      ],
      [
        "ê·",
        "¸ë"
      ],
      [
        "ì¹ľ",
        "êµ¬"
      ],
      [
        "ì",
        "Ļ"
      ],
      [
        "íķĺ",
        "ì§Ģ"
      ],
      [
        "Ġìĭ",
        "ľ"
      ],
      [
        "ì§",
        "Ħ"
      ],
      [
        "Ġìĸ´",
        "ë"
      ],
      [
        "Ĺ",
        "¤ìĸ´"
      ],
      [
        "ë",
        "ĵ¤"
      ],
      [
        "í",
        "ħ"
      ],
      [
        "ìĹ",
        "Ī"
      ],
      [
        "ì",
        "Ĩ"
      ],
      [
        "Ġë",
        "ĦĪë¬´"
      ],
      [
        "Ġê·",
        "¸ë"
      ],
      [
        "í",
        "Ķ"
      ],
      [
        "Ġìŀ",
        "Ĳ"
      ],
      [
        "ĠìĤ¬ëŀ",
        "ĳ"
      ],
      [
        "ê¸",
        "Ī"
      ],
      [
        "ìķ",
        "ł"
      ],
      [
        "ë",
        "²"
      ],
      [
        "ĠìŀĪ",
        "ìĿĦ"
      ],
      [
        "Ġì",
        "Ħ"
      ],
      [
        "Ġë",
        "įĶ"
      ],
      [
        "ìļ",
        "´"
      ],
      [
        "¹",
        "Ħ"
      ],
      [
        "ìĹ",
        "°"
      ],
      [
        "Ġìŀ",
        "ĺ"
      ],
      [
        "ë",
        "ħ"
      ],
      [
        "ìľ¼ë",
        "©´"
      ],
      [
        "ê",
        "±"
      ],
      [
        "Ġê¸",
        "°"
      ],
      [
        "ìĽ",
        "Į"
      ],
      [
        "Ġë",
        "¨"
      ],
      [
        "í",
        "ŀ"
      ],
      [
        "į",
        "¸"
      ],
      [
        "Ġë",
        "ı"
      ],
      [
        "ì",
        "ĸ"
      ],
      [
        "Ġë",
        "¶"
      ],
      [
        "ë",
        "ı"
      ],
      [
        "Ġ",
        "íķ"
      ],
      [
        "ĠìĹ",
        "¬"
      ],
      [
        "Ĥ",
        "´"
      ],
      [
        "ìĭ",
        "¬"
      ],
      [
        "ë§",
        "Ĳ"
      ],
      [
        "ê¸",
        "¸"
      ],
      [
        "íĸ",
        "Ī"
      ],
      [
        "¬",
        "¼"
      ],
      [
        "ìł",
        "Ħ"
      ],
      [
        "íĻ",
        "Ķ"
      ],
      [
        "ĠìĹ°",
        "ëĿ½"
      ],
      [
        "ìł",
        "Ģ"
      ],
      [
        "ìŀĲ",
        "ì¹ľêµ¬"
      ],
      [
        "Ġì§",
        "Ģ"
      ],
      [
        "ĠëĤ",
        "¨"
      ],
      [
        "ìŀ",
        "¥"
      ],
      [
        "Ġíŀĺë",
        "ĵ¤"
      ],
      [
        "íķĺë",
        "©´"
      ],
      [
        "Ġê",
        "´"
      ],
      [
        "íħ",
        "Į"
      ],
      [
        "íŀ",
        "Ī"
      ],
      [
        "Ġì",
        "Ļ"
      ],
      [
        "ì",
        "ĥĿ"
      ],
      [
        "íķĺ",
        "ìĦ¸ìļĶ"
      ],
      [
        "Ġì",
        "Ĥ¬"
      ],
      [
        "ë",
        "ª"
      ],
      [
        "Ġìķ",
        "Į"
      ],
      [
        "ì",
        "Ĥ¬"
      ],
      [
        "ìľ¼ë",
        "¡ľ"
      ],
      [
        "¥",
        "¼"
      ],
      [
        "ĠìĤ¬ëŀĮ",
        "ìĿ´"
      ],
      [
        "ìĹĲ",
        "ìļĶ"
      ],
      [
        "Ġë§Ī",
        "ìĿĮ"
      ],
      [
        "ĠìĿ",
        "¼"
      ],
      [
        "ìĬ",
        "µ"
      ],
      [
        "Ġë",
        "ķĮ"
      ],
      [
        "Ġê²",
        "Į"
      ],
      [
        "ì§",
        "Ŀ"
      ],
      [
        "ĠëĤ",
        "´"
      ],
      [
        "¢",
        "Ģ"
      ],
      [
        "Ġìĸ´ë",
        "ĸ"
      ],
      [
        "ë¥",
        "´"
      ],
      [
        "ìĿ´",
        "ë³Ħ"
      ],
      [
        "ìĬ",
        "¤"
      ],
      [
        "Ł",
        "¬"
      ],
      [
        "ìĹĲ",
        "ìĦľ"
      ],
      [
        "íķľ",
        "íħĮ"
      ],
      [
        "Ġê°Ļ",
        "ìķĦìļĶ"
      ],
      [
        "Ġì",
        "¹"
      ],
      [
        "Ġí",
        "ĸ"
      ],
      [
        "ëĤĺë",
        "´ĲìļĶ"
      ],
      [
        "Ľ",
        "Ħ"
      ],
      [
        "Ġìł",
        "ķ"
      ],
      [
        "ìł",
        "ģ"
      ],
      [
        "ì§",
        "ģ"
      ],
      [
        "ë",
        "¯"
      ],
      [
        "ìĺ",
        "¤ë"
      ],
      [
        "íĺ",
        "¼"
      ],
      [
        "ĵ",
        "ł"
      ],
      [
        "Ġëª",
        "»"
      ],
      [
        "ë",
        "ĮĢ"
      ],
      [
        "ê¹Į",
        "ìļĶ"
      ],
      [
        "Ġì¢ĭìķĦ",
        "íķĺëĬĶ"
      ],
      [
        "ĥ",
        "Ģ"
      ],
      [
        "Ġë",
        "Ń"
      ],
      [
        "í",
        "ļ"
      ],
      [
        "ì¢ĭ",
        "ìķĦ"
      ],
      [
        "íķ´",
        "ìļĶ"
      ],
      [
        "Ġëª",
        "¨"
      ],
      [
        "Ġìĭ¶",
        "ìĸ´"
      ],
      [
        "Ġê³",
        "ł"
      ],
      [
        "ë§Ī",
        "ìĿĮ"
      ],
      [
        "Ġë¨",
        "¹"
      ],
      [
        "Ġì",
        "£"
      ],
      [
        "Ġì¢ĭ",
        "ê²ł"
      ],
      [
        "ĠìŀĪ",
        "ìĸ´ìļĶ"
      ],
      [
        "ì",
        "¶"
      ],
      [
        "ê°Ģ",
        "ë"
      ],
      [
        "Ġê±",
        "´"
      ],
      [
        "ĺë",
        "ıĦ"
      ],
      [
        "¦",
        "¬"
      ],
      [
        "ì",
        "į¸"
      ],
      [
        "Ġì",
        "¢Ģ"
      ],
      [
        "ì°",
        "®"
      ],
      [
        "í",
        "Ĭ"
      ],
      [
        "Ġìĭľ",
        "ê°Ħ"
      ],
      [
        "íļ",
        "Į"
      ],
      [
        "ìļ",
        "°"
      ],
      [
        "Ġì¤",
        "ĳ"
      ],
      [
        "í",
        "Ĺ¤ìĸ´"
      ],
      [
        "Ġë",
        "ģ"
      ],
      [
        "Ġì",
        "Ĩ"
      ],
      [
        "!",
        "<"
      ],
      [
        "ĠëĲ",
        "ł"
      ],
      [
        "Ġë°",
        "Ľ"
      ],
      [
        "Ġê°Ļ",
        "ìķĦ"
      ],
      [
        "ê",
        "´"
      ],
      [
        "íķĺ",
        "ê²Į"
      ],
      [
        "ë",
        "¬´"
      ],
      [
        "Ŀ",
        "¼"
      ],
      [
        "ìĿ´",
        "ìĹĲìļĶ"
      ],
      [
        "Ġ",
        "íķĺë"
      ],
      [
        "ìŀ",
        "ĺ"
      ],
      [
        "ë¶",
        "Ħ"
      ],
      [
        "ë",
        "¨"
      ],
      [
        "ĺë",
        "ĬĶ"
      ],
      [
        "Ĭ",
        "ĺ"
      ],
      [
        "ĳ",
        "Ĳ"
      ],
      [
        "¸ë",
        "ł"
      ],
      [
        "Ġë§İ",
        "ìĿ´"
      ],
      [
        "ì£¼",
        "ìĦ¸ìļĶ"
      ],
      [
        "Ġë",
        "²"
      ],
      [
        "ëĭ",
        "¹"
      ],
      [
        "ì¢ĭìķĦ",
        "íķĺëĬĶ"
      ],
      [
        "ê°",
        "Ĳ"
      ],
      [
        "Ġë°Ķ",
        "ëŀ"
      ],
      [
        "Ġë",
        "ĵ¤"
      ],
      [
        "êµ",
        "¬ë"
      ],
      [
        "ê±",
        "´"
      ],
      [
        "Ġì",
        "Ĥ´"
      ],
      [
        "ìķ",
        "Ī"
      ],
      [
        "Ġì¢ĭ",
        "ìĿĦ"
      ],
      [
        "ĠëĲ",
        "ĺ"
      ],
      [
        "Ġ",
        "íķľ"
      ],
      [
        "í",
        "Ĩ"
      ],
      [
        "ê³",
        "¼"
      ],
      [
        "ìĹĲ",
        "ê²Į"
      ],
      [
        "ìĬµ",
        "ëĭĪëĭ¤"
      ],
      [
        "ľ",
        "ì°®"
      ],
      [
        "Ġë§Ī",
        "ìĦ¸ìļĶ"
      ],
      [
        "ê·",
        "¸"
      ],
      [
        "ĠìķĦ",
        "ëĭ"
      ],
      [
        "Ġ",
        "íķł"
      ],
      [
        "ë¶",
        "Ģ"
      ],
      [
        "ìŀ",
        "Ī"
      ],
      [
        "ŀ",
        "ĺ"
      ],
      [
        "Ġì",
        "¡"
      ],
      [
        "Ġì",
        "ļ"
      ],
      [
        "Ġë",
        "Ĩ"
      ],
      [
        "ë³",
        "µ"
      ],
      [
        "ĠìĦ",
        "ł"
      ],
      [
        "ëı",
        "Ļ"
      ],
      [
        "Ġì",
        "¶"
      ],
      [
        "ëŀ",
        "ĳ"
      ],
      [
        "Ġë",
        "¬´"
      ],
      [
        "Ł",
        "°"
      ],
      [
        "Ġì",
        "ĥģ"
      ],
      [
        "ë¥",
        "¸"
      ],
      [
        "ìĻ",
        "Ģ"
      ],
      [
        "ê²ł",
        "ìĸ´ìļĶ"
      ],
      [
        "ĠëŃ",
        "Ĳ"
      ],
      [
        "¬",
        "¸"
      ],
      [
        "ħ",
        "ëĭĪëĭ¤"
      ],
      [
        "íĸ",
        "ī"
      ],
      [
        "ì§",
        "Ī"
      ],
      [
        "ĠìŀĪ",
        "ëĬĶ"
      ],
      [
        "ìĨ",
        "Į"
      ],
      [
        "ìŀĲì¹ľêµ¬",
        "ê°Ģ"
      ],
      [
        "ì",
        "Ķ"
      ],
      [
        "í",
        "Į"
      ],
      [
        "İ",
        "¸"
      ],
      [
        "ê²ł",
        "ì§Ģ"
      ],
      [
        "ì¡",
        "Į"
      ],
      [
        "Ġ",
        "íķĺëĬĶ"
      ],
      [
        "ìĭ",
        "¤"
      ],
      [
        "Ġë",
        "¯"
      ],
      [
        "Ġë",
        "Ĭ"
      ],
      [
        "Ġìķ",
        "Īë"
      ],
      [
        "ë¦",
        "¬ë"
      ],
      [
        "ĠìĿ´",
        "ë³Ħ"
      ],
      [
        "Ħ",
        "ìļĶ"
      ],
      [
        "ê²Į",
        "ìļĶ"
      ],
      [
        "Ġëģ",
        "Ŀ"
      ],
      [
        "ì",
        "ĥ"
      ],
      [
        "į",
        "ĺ"
      ],
      [
        "Ġì",
        "ĸ"
      ],
      [
        "Ġë",
        "ĵľ"
      ],
      [
        "Ġê±",
        "¸"
      ],
      [
        "ì¢ĭ",
        "ìĿĢ"
      ],
      [
        "í",
        "ı"
      ],
      [
        "ìĽ",
        "Ĳ"
      ],
      [
        "ìĪ",
        "ĺ"
      ],
      [
        "Ġíķ´",
        "ë³´ìĦ¸ìļĶ"
      ],
      [
        "ìĸ´",
        "ë"
      ],
      [
        "ëĤ",
        "ł"
      ],
      [
        "Ġì¢ĭ",
        "ìĿĢ"
      ],
      [
        "ì",
        "¦"
      ],
      [
        "Ġí",
        "Ĺ¤ìĸ´"
      ],
      [
        "ìľ",
        "¼"
      ],
      [
        "Ġìł",
        "Ħ"
      ],
      [
        "ê°Ģë",
        "´ĲìļĶ"
      ],
      [
        "ê°",
        "Ļ"
      ],
      [
        "Ġìĭ¶",
        "ëĭ¤"
      ],
      [
        "Ġì£",
        "¼"
      ],
      [
        "ì",
        "ģ"
      ],
      [
        "ëĤ",
        "ľ"
      ],
      [
        "ìĨ",
        "į"
      ],
      [
        "í",
        "ģ"
      ],
      [
        "Ġê·",
        "¸"
      ],
      [
        "ĠëĤ",
        "ĺë"
      ],
      [
        "ĠìĹ¬",
        "ìŀĲ"
      ],
      [
        "»",
        "ê²Į"
      ],
      [
        "ë",
        "¬¼"
      ],
      [
        "Ġí",
        "Ļ"
      ],
      [
        "ìĿ",
        "¸ë"
      ],
      [
        "ìł",
        "¸"
      ],
      [
        "ìĬ",
        "¤ë"
      ],
      [
        "Ġëı",
        "¼"
      ],
      [
        "ê³",
        "µ"
      ],
      [
        "ì¤",
        "ĳ"
      ],
      [
        "Ġíķ",
        "ĦìļĶ"
      ],
      [
        "ĠëĤ¨",
        "ìŀĲ"
      ],
      [
        "Ġë",
        "ĸ"
      ],
      [
        "Ġê´",
        "ľì°®"
      ],
      [
        "Į",
        "Ģë"
      ],
      [
        "Ġê²",
        "°"
      ],
      [
        "ì",
        "ħ"
      ],
      [
        "Ġë",
        "ĮĢ"
      ],
      [
        "Ġì",
        "ī"
      ],
      [
        "ê²",
        "°"
      ],
      [
        "ĠìĹĨ",
        "ìĸ´"
      ],
      [
        "ĺ",
        "Ĳ"
      ],
      [
        "Ġì",
        "Ĭ"
      ],
      [
        "ê²ł",
        "ëĦ¤ìļĶ"
      ],
      [
        "ê´",
        "Ģ"
      ],
      [
        "ìĿ´",
        "ìłľ"
      ],
      [
        "ëĭ¤",
        "ë©´"
      ],
      [
        "ê",
        "¾"
      ],
      [
        "ê²",
        "½"
      ],
      [
        "ĠìŀĪ",
        "ìĸ´"
      ],
      [
        "Ġì¹",
        "ľ"
      ],
      [
        "íķ´",
        "ëıĦ"
      ],
      [
        "ìĺ",
        "¤"
      ],
      [
        "ëħ",
        "Ħ"
      ],
      [
        "Ĥ",
        "ĺ"
      ],
      [
        "Ġì¡",
        "°"
      ],
      [
        "Ġì",
        "ľ"
      ],
      [
        "ìķ",
        "ĺ"
      ],
      [
        "Ġìŀ",
        "Ĭ"
      ],
      [
        "ìľ",
        "ł"
      ],
      [
        "Ķ",
        "Ķ"
      ],
      [
        "ëĭ",
        "¬"
      ],
      [
        "Ġëª¨",
        "ë¥´"
      ],
      [
        "°",
        "ëĿ¼"
      ],
      [
        "ĵ",
        "°"
      ],
      [
        "ŀ",
        "ĳ"
      ],
      [
        "ëĬĶ",
        "ê²Į"
      ],
      [
        "Ġí",
        "ĺ"
      ],
      [
        "ë°",
        "Ķ"
      ],
      [
        "ìĺ¤ë",
        "Ĭĺ"
      ],
      [
        "Ġë",
        "Ī"
      ],
      [
        "Ġí",
        "ĽĦ"
      ],
      [
        "ìĭ",
        "Ŀ"
      ],
      [
        "ì°",
        "¨"
      ],
      [
        "íķĺë",
        "ĭ"
      ],
      [
        "í",
        "ĽĦ"
      ],
      [
        "Ġí",
        "ĥĢ"
      ],
      [
        "ĠìĪ",
        "ĺëıĦ"
      ],
      [
        "ìĿ¸ë",
        "į°"
      ],
      [
        "ë",
        "Ĳ"
      ],
      [
        "ê°",
        "ľ"
      ],
      [
        "ìĿ´",
        "ëĦ¤ìļĶ"
      ],
      [
        "ìŀ",
        "ĳ"
      ],
      [
        "ë",
        "ĦĪë¬´"
      ],
      [
        "Ġë§",
        "ŀ"
      ],
      [
        "ë§",
        "İ"
      ],
      [
        "ħ",
        "Ģ"
      ],
      [
        "ł",
        "¤"
      ],
      [
        "ê¾",
        "¸"
      ],
      [
        "ë",
        "įĶ"
      ],
      [
        "ìķ¼",
        "ì§Ģ"
      ],
      [
        "Ġì°",
        "¾"
      ],
      [
        "Ġê°",
        "Ģë"
      ],
      [
        "ìĤ¬ëŀ",
        "Į"
      ],
      [
        "ìĸ",
        "µ"
      ],
      [
        "Ġìĸ´ëĸ",
        "»ê²Į"
      ],
      [
        "Ġë",
        "¬¼"
      ],
      [
        "Ġë§Į",
        "ëĤĺ"
      ],
      [
        "ì¡",
        "°"
      ],
      [
        "Ġíĸ",
        "Ī"
      ],
      [
        "Ġ",
        "íķĺê³ł"
      ],
      [
        "ĳ",
        "ľ"
      ],
      [
        "ê²",
        "¨"
      ],
      [
        "ê²ł",
        "ì£ł"
      ],
      [
        "íĬ",
        "¸"
      ],
      [
        "íĹ¤ìĸ´",
        "ì§Ħ"
      ],
      [
        "ĠìĨ",
        "Į"
      ],
      [
        "©",
        "ëĭĪëĭ¤"
      ],
      [
        "ë",
        "ĵł"
      ],
      [
        "í",
        "Ħ"
      ],
      [
        "ìļ",
        "¸"
      ],
      [
        "ĠìĿ",
        "¸"
      ],
      [
        "ì¹",
        "ĺ"
      ],
      [
        "Ġë",
        "Ķ"
      ],
      [
        "ì§",
        "ľ"
      ],
      [
        "ìĸ´",
        "ë³´ìĦ¸ìļĶ"
      ],
      [
        "ëĭ¤",
        "ê³ł"
      ],
      [
        "Ġìĭ",
        "«"
      ],
      [
        "ëĭ",
        "µ"
      ],
      [
        "ìĦ",
        "±"
      ],
      [
        "í",
        "Ĺ"
      ],
      [
        "ê³",
        "Ħ"
      ],
      [
        "ĠëĤ",
        "ł"
      ],
      [
        "Ġë°",
        "©"
      ],
      [
        "íķł",
        "ê¹Į"
      ],
      [
        "ë²",
        "ķ"
      ],
      [
        "ìĿĢ",
        "ëį°"
      ],
      [
        "Ģë",
        "¹Ħ"
      ],
      [
        "ì§Ģ",
        "ë§Į"
      ],
      [
        "Ġê°",
        "Ĳ"
      ],
      [
        "ĠìĹ°",
        "ìķł"
      ],
      [
        "íĶ",
        "Ħ"
      ],
      [
        "ĩ",
        "ê²Į"
      ],
      [
        "ìĿ´",
        "ëĿ¼"
      ],
      [
        "Ġê²ĥ",
        "ëıĦ"
      ],
      [
        "Ġìĺ",
        "¤"
      ],
      [
        "ë¯",
        "¼"
      ],
      [
        "íķ",
        "Ļ"
      ],
      [
        "Ġê´",
        "Ģ"
      ],
      [
        "Ġì¤ĳ",
        "ìļĶ"
      ],
      [
        "ë",
        "Ī"
      ],
      [
        "Ġ",
        "íķĺ"
      ],
      [
        "Ł",
        "´"
      ],
      [
        "Ħ¤",
        "ìļĶ"
      ],
      [
        "Ġì§",
        "Ħ"
      ],
      [
        "ĠìķĦ",
        "ëĭĪ"
      ],
      [
        "ëĤ´",
        "ê°Ģ"
      ],
      [
        "ê",
        "»"
      ],
      [
        "Ġê",
        "¹"
      ],
      [
        "Ġì°",
        "¨"
      ],
      [
        "Ġë",
        "¹"
      ],
      [
        "Ġìĭľê°Ħ",
        "ìĿ´"
      ],
      [
        "£",
        "¨"
      ],
      [
        "Ġì",
        "²"
      ],
      [
        "Ġì§",
        "Ŀ"
      ],
      [
        "Ġíĸ",
        "ī"
      ],
      [
        "í",
        "ĥĢ"
      ],
      [
        "Ġìķ",
        "ł"
      ],
      [
        "ê·",
        "¼"
      ],
      [
        "ë°",
        "±"
      ],
      [
        "Ġë",
        "¹Ħ"
      ],
      [
        "ëĤ¨",
        "ìĿ´"
      ],
      [
        "Ġìĺ",
        "¤ë"
      ],
      [
        "ĠìĻ",
        "ľ"
      ],
      [
        "ì§Ģ",
        "ëıĦ"
      ],
      [
        "ìŀĲ",
        "ìĭł"
      ],
      [
        "ĠìĹĨ",
        "ìĸ´ìļĶ"
      ],
      [
        "ĠëĬ",
        "Ĳ"
      ],
      [
        "¼",
        "ê¹Į"
      ],
      [
        "ë",
        "¹Ħ"
      ],
      [
        "Ġë",
        "ıĦ"
      ],
      [
        "ìĿ´",
        "ì£ł"
      ],
      [
        "ëĭ",
        "¨"
      ],
      [
        "ìĭľ",
        "ê°Ħ"
      ],
      [
        "ë",
        "ĵľ"
      ],
      [
        "Ħ",
        "ê²ĮìļĶ"
      ],
      [
        "Ĭ",
        "¥"
      ],
      [
        "ëĭ",
        "´"
      ],
      [
        "Ġëĭ",
        "¹"
      ],
      [
        "ëħ",
        "Ģ"
      ],
      [
        "ìĥĿ",
        "ê°ģ"
      ],
      [
        "íĺ",
        "Ħ"
      ],
      [
        "Ġì°¾",
        "ìķĦ"
      ],
      [
        "ìĿ´",
        "ìķ¼"
      ],
      [
        "ê±",
        "¸"
      ],
      [
        "ë§İ",
        "ìĿ´"
      ],
      [
        "íĦ",
        "°"
      ],
      [
        "ê²ł",
        "ìĸ´"
      ],
      [
        "ê·",
        "Ģ"
      ],
      [
        "ì¹ľ",
        "êµ¬ë"
      ],
      [
        "Ġë¶",
        "Ģ"
      ],
      [
        "ìĦ",
        "ł"
      ],
      [
        "ê¹Į",
        "ì§Ģ"
      ],
      [
        "ĵ",
        "¯"
      ],
      [
        "Ġë",
        "į°"
      ],
      [
        "ê±°",
        "ìĺĪìļĶ"
      ],
      [
        "ìłľ",
        "ê°Ģ"
      ],
      [
        "ë",
        "ĮĢë"
      ],
      [
        "Ġì",
        "Ľ"
      ],
      [
        "ì§Ģ",
        "ê¸Ī"
      ],
      [
        "ë³´",
        "ëĭ¤"
      ],
      [
        "ëĤĺë",
        "ĬĶ"
      ],
      [
        "ëĵ¤",
        "ìĿ´"
      ],
      [
        "´",
        "ħëĭĪëĭ¤"
      ],
      [
        "í",
        "ŀĺë"
      ],
      [
        "ì§",
        "ĳ"
      ],
      [
        "Ġìłķ",
        "ë¦¬"
      ],
      [
        "ĠìĹĨ",
        "ëĬĶ"
      ],
      [
        "Ġì¤",
        "Ģë¹Ħ"
      ],
      [
        "ë",
        "ģ"
      ],
      [
        "¬ë",
        "Ŀ¼"
      ],
      [
        "Ġí",
        "İ¸"
      ],
      [
        "ì²",
        "ľ"
      ],
      [
        "ë§ĪìĿĮ",
        "ìĿ´"
      ],
      [
        "Ġë°Ķëŀ",
        "Ħê²ĮìļĶ"
      ],
      [
        "ë",
        "¬¸"
      ],
      [
        "Ġí",
        "Ŀ"
      ],
      [
        "Ġì§",
        "ĳ"
      ],
      [
        "ì¤",
        "ĺ"
      ],
      [
        "³",
        "´"
      ],
      [
        "¼",
        "ìłĢ"
      ],
      [
        "Ġë",
        "Ħ"
      ],
      [
        "ìĭ",
        "¶"
      ],
      [
        "ìłĢ",
        "ëıĦ"
      ],
      [
        "¿",
        "Ī"
      ],
      [
        "ë",
        "Ħ"
      ],
      [
        "ë",
        "ĳĲ"
      ],
      [
        "ìĹ°",
        "ëĿ½"
      ],
      [
        "Ġëı¼",
        "ìļĶ"
      ],
      [
        "Ġë°©",
        "ë²ķ"
      ],
      [
        "ìļ",
        "©"
      ],
      [
        "¼ë",
        "©´"
      ],
      [
        "íĨ",
        "µ"
      ],
      [
        "Ġì",
        "į¸"
      ],
      [
        "Ġë",
        "ħ"
      ],
      [
        "íķ´",
        "ìķ¼"
      ],
      [
        "ìł",
        "Ĳ"
      ],
      [
        "ëĭ¹",
        "ìĭł"
      ],
      [
        "ĠìĦł",
        "ë¬¼"
      ],
      [
        "íģ",
        "¼"
      ],
      [
        "ìĿĦ",
        "ê¹Į"
      ],
      [
        "ê¸",
        "´"
      ],
      [
        "ë¦",
        "´"
      ],
      [
        "Ġìł",
        "ľ"
      ],
      [
        "ì²",
        "ĺë"
      ],
      [
        "ĠìŀĲ",
        "ìĭł"
      ],
      [
        "Ġìľ",
        "Ħ"
      ],
      [
        "ëª",
        "¨"
      ],
      [
        "§",
        "Į"
      ],
      [
        "ã",
        "ħ"
      ],
      [
        "ê²",
        "ĥ"
      ],
      [
        "êµ",
        "Ĳ"
      ],
      [
        "ìĽ",
        "Ģ"
      ],
      [
        "Ġë³´",
        "ìĦ¸ìļĶ"
      ],
      [
        "·",
        "¨"
      ],
      [
        "íķ´",
        "ìĦľ"
      ],
      [
        "ìĹĲ",
        "ëĬĶ"
      ],
      [
        "Ġê³",
        "Ħ"
      ],
      [
        "ĠìŀĪìĿĦ",
        "ê¹Į"
      ],
      [
        "íĺ¼",
        "ìŀĲ"
      ],
      [
        "į",
        "ëĭĪëĭ¤"
      ],
      [
        "íķ´",
        "ì£¼ìĦ¸ìļĶ"
      ],
      [
        "Ġëĭ¤",
        "ìĭľ"
      ],
      [
        "Ġì°",
        "¸"
      ],
      [
        "ë",
        "¹"
      ],
      [
        "Ġí",
        "Ķ"
      ],
      [
        "¸ë",
        "¦¬"
      ],
      [
        "ëĿ¼",
        "ê³ł"
      ],
      [
        "ì§Ģ",
        "ëĬĶ"
      ],
      [
        "Ġì¶",
        "Ķ"
      ],
      [
        "Ġë",
        "ĺĲ"
      ],
      [
        "Ġí",
        "Ĺ"
      ],
      [
        "ê¸°",
        "ê°Ģ"
      ],
      [
        "ĠìĿ´",
        "ìķ¼"
      ],
      [
        "Ġê¸°",
        "ëĭ¤"
      ],
      [
        "íĨ",
        "¡"
      ],
      [
        "ì",
        "³"
      ],
      [
        "ì",
        "¼"
      ],
      [
        "Ġë",
        "©"
      ],
      [
        "Ġë",
        "ĳĲ"
      ],
      [
        "ëĭĪ",
        "ê¹ĮìļĶ"
      ],
      [
        "Ġì¤",
        "Ħ"
      ],
      [
        "íĶ",
        "¼"
      ],
      [
        "ĠìĿ´ìķ¼",
        "ê¸°"
      ],
      [
        "Ġ",
        "íķĺì§Ģ"
      ],
      [
        "Ĥ",
        "ĺë"
      ],
      [
        "ìł",
        "ł"
      ],
      [
        "íĸĪ",
        "ìĸ´"
      ],
      [
        "ĠìĿ¼",
        "ìĿ´"
      ],
      [
        "ì§Ŀ",
        "ìĤ¬ëŀĳ"
      ],
      [
        "¯",
        "¸"
      ],
      [
        "ı",
        "¼"
      ],
      [
        "ìĹ",
        "Ĩ"
      ],
      [
        "ë³",
        "¼ê¹Į"
      ],
      [
        "Īë",
        "įĺ"
      ],
      [
        "Ġë³´",
        "ê³ł"
      ],
      [
        "ĠíĻ",
        "ķ"
      ],
      [
        "¬",
        "ìĸ´"
      ],
      [
        "êµ",
        "°"
      ],
      [
        "Ġìĺ",
        "Ī"
      ],
      [
        "ë²",
        "Ī"
      ],
      [
        "ĠëĲł",
        "ê¹Į"
      ],
      [
        "Ġë°Ľ",
        "ìķĦ"
      ],
      [
        "ĠìķĦëĭ",
        "Į"
      ],
      [
        "ìģ",
        "ľ"
      ],
      [
        "ê°",
        "ķ"
      ],
      [
        "ë³´",
        "ëĬĶ"
      ],
      [
        "Ġíķ´",
        "ìķ¼"
      ],
      [
        "ë",
        "Ń"
      ],
      [
        "ìŀĲ",
        "ê³ł"
      ],
      [
        "ìĪ",
        "ł"
      ],
      [
        "ĠìĻ",
        "Ķ"
      ],
      [
        "Ġë°Ķëŀ",
        "įëĭĪëĭ¤"
      ],
      [
        "Ġëĵ¤",
        "ìĸ´"
      ],
      [
        "íĮ",
        "Į"
      ],
      [
        "ì¦",
        "Ŀ"
      ],
      [
        "ĠìĬ",
        "¤"
      ],
      [
        "Ġíĸī",
        "ë³µ"
      ],
      [
        "°",
        "©"
      ],
      [
        "ĥ",
        "Ī"
      ],
      [
        "ìł",
        "Ī"
      ],
      [
        "Ġì¢ĭ",
        "ì£ł"
      ],
      [
        "Ġìĭľ",
        "ìŀĳ"
      ],
      [
        "ë²",
        "Ħ"
      ],
      [
        "Ġëĵľ",
        "ìĦ¸ìļĶ"
      ],
      [
        "íķĺëĭ",
        "¤"
      ],
      [
        "±",
        "ìłķ"
      ],
      [
        "¶",
        "ģ"
      ],
      [
        "Ġ",
        "íķĺìĦ¸ìļĶ"
      ],
      [
        "ì§Ģ",
        "ê³ł"
      ],
      [
        "ìŀ",
        "ł"
      ],
      [
        "ëĭ¤",
        "ë¥¸"
      ],
      [
        "ĠëĲ",
        "ĺë"
      ],
      [
        "Ġì¢ĭìķĦ",
        "ìļĶ"
      ],
      [
        "ìłķ",
        "ë§Ĳ"
      ],
      [
        "ëĤ¨",
        "ìŀĲì¹ľêµ¬ê°Ģ"
      ],
      [
        "Ġë§Į",
        "ëĵ¤"
      ],
      [
        "ì¤",
        "Ħ"
      ],
      [
        "Ġê³ł",
        "ë°±"
      ],
      [
        "í",
        "Ĥ"
      ],
      [
        "íķ",
        "¨"
      ],
      [
        "Ġí",
        "ģ"
      ],
      [
        "Ġê³",
        "³"
      ],
      [
        "ĠìķĬ",
        "ìķĦìļĶ"
      ],
      [
        "ê·¸ë",
        "Ł°"
      ],
      [
        "ìĸ",
        "¸"
      ],
      [
        "Ġê³ł",
        "ë¯¼"
      ],
      [
        "íĹ¤ìĸ´ì§Ħ",
        "ì§Ģ"
      ],
      [
        "ìŀ",
        "Ħ"
      ],
      [
        "Ġìĭ",
        "ł"
      ],
      [
        "ìĽ",
        "Ķ"
      ],
      [
        "ì²",
        "ĺ"
      ],
      [
        "ì²",
        "Ń"
      ],
      [
        "ë",
        "Ķ"
      ],
      [
        "ì",
        "½"
      ],
      [
        "Ġê",
        "µ"
      ],
      [
        "ì§",
        "¸"
      ],
      [
        "ĠìŀĲ",
        "ê¾¸"
      ],
      [
        "Ġë§ĪìĿĮ",
        "ìĿ´"
      ],
      [
        "Ġëĸ",
        "¨"
      ],
      [
        "í",
        "İ¸"
      ],
      [
        "ìķĦ",
        "ì§ģ"
      ],
      [
        "ĺëĬĶ",
        "ëį°"
      ],
      [
        "íķĺëĬĶ",
        "ê²Į"
      ],
      [
        "êµ",
        "Ń"
      ],
      [
        "Ġëª",
        "°ëĿ¼"
      ],
      [
        "Ġê³",
        "µ"
      ],
      [
        "Ġëĭ¤",
        "ë¥¸"
      ],
      [
        "ìĹ°",
        "ìķł"
      ],
      [
        "Ġë¨¹",
        "ê³ł"
      ],
      [
        "ìħ",
        "¨"
      ],
      [
        "¬ë",
        "ĬĶ"
      ],
      [
        "ìŀ",
        "¡"
      ],
      [
        "ëĭ¤",
        "ëĬĶ"
      ],
      [
        "íķĺ",
        "ê¸°"
      ],
      [
        "ë°",
        "ľ"
      ],
      [
        "Ġíŀĺë",
        "ĵľ"
      ],
      [
        "Ġëı",
        "Į"
      ],
      [
        "ì",
        "Ĥ´"
      ],
      [
        "íķ",
        "©ëĭĪëĭ¤"
      ],
      [
        "ìķ",
        "ĺë"
      ],
      [
        "ìĦľ",
        "ë¡ľ"
      ],
      [
        "Ġíķ´",
        "ìļĶ"
      ],
      [
        "ë°",
        "°"
      ],
      [
        "»",
        "¤"
      ],
      [
        "í",
        "ĥĿ"
      ],
      [
        "ìŀ",
        "ħëĭĪëĭ¤"
      ],
      [
        "Ġê·",
        "Ģ"
      ],
      [
        "ìĹ¬",
        "ìŀĲì¹ľêµ¬ê°Ģ"
      ],
      [
        "ĠìķĮ",
        "ìķĦ"
      ],
      [
        "ìĸ´ë",
        "ĸ"
      ],
      [
        "ì",
        "ĵ°"
      ],
      [
        "Ġ",
        "íķĺë©´"
      ],
      [
        "ìł",
        "ĳ"
      ],
      [
        "ìĻ",
        "Ķ"
      ],
      [
        "ë¦¬ë",
        "ĬĶ"
      ],
      [
        "Ġë",
        "¬¸"
      ],
      [
        "ìķĦ",
        "ë¬´"
      ],
      [
        "Ġíŀĺë",
        "ĵł"
      ],
      [
        "ĠìķĪë",
        "Ĳ"
      ],
      [
        "Ġì¡°",
        "ê¸Ī"
      ],
      [
        "Ġìĭ«",
        "ìĸ´"
      ],
      [
        "Ġì",
        "±"
      ],
      [
        "ë§",
        "Ľ"
      ],
      [
        "ì¹ľ",
        "ìĿ´"
      ],
      [
        "ĠìķĦëĭ",
        "Īë"
      ],
      [
        "ìĶ",
        "©"
      ],
      [
        "ê²°",
        "íĺ¼"
      ],
      [
        "Ł",
        "½"
      ],
      [
        "Ġë°",
        "°"
      ],
      [
        "ëª",
        "ħ"
      ],
      [
        "ìłģ",
        "ìĿ¸"
      ],
      [
        "´",
        "íĨ¡"
      ],
      [
        "í",
        "Ĵ"
      ],
      [
        "ë³´",
        "ê³ł"
      ],
      [
        "Īë",
        "¡ľ"
      ],
      [
        "ëł",
        "¥"
      ],
      [
        "ëł",
        "ĩê²Į"
      ],
      [
        "ĠìĥĿê°ģ",
        "íķ´ìļĶ"
      ],
      [
        "íĻ",
        "©"
      ],
      [
        "Ġë°Ķ",
        "ëĿ¼"
      ],
      [
        "Ġìĸ´ëĸ",
        "¨"
      ],
      [
        "ë¨",
        "¹"
      ],
      [
        "ĠëĨ",
        "Ģ"
      ],
      [
        "Ġê°Ģë",
        "Ĭ¥"
      ],
      [
        "ĥ",
        "¥"
      ],
      [
        "ë§",
        "¤"
      ],
      [
        "ìĬ",
        "¨"
      ],
      [
        "Ġë³",
        "Ģ"
      ],
      [
        "Ġíŀĺëĵ¤",
        "ìĸ´"
      ],
      [
        "Ġëĸ",
        "ł"
      ],
      [
        "ë",
        "©"
      ],
      [
        "ë",
        "Ĩ"
      ],
      [
        "ľ",
        "´"
      ],
      [
        "Ġì",
        "ĵ°"
      ],
      [
        "ìĿ´",
        "íĬ¸"
      ],
      [
        "ìĹ",
        "ħ"
      ],
      [
        "Ġê±",
        "±ìłķ"
      ],
      [
        "ìĪ",
        "ĺë"
      ],
      [
        "ë¯",
        "¸"
      ],
      [
        "Ġë²",
        "Ħ"
      ],
      [
        "©",
        "ë¶Ħ"
      ],
      [
        "Ġì",
        "Ĥ¬ë"
      ],
      [
        "ì§",
        "Ĳ"
      ],
      [
        "íķĺ",
        "ì£ł"
      ],
      [
        "ìĿ¸",
        "ê°Ģ"
      ],
      [
        "Ġì¢ĭê²ł",
        "ìĸ´ìļĶ"
      ],
      [
        "ìĬ¤ë",
        "Ł¬"
      ],
      [
        "µ",
        "ľ"
      ],
      [
        "ì",
        "ī"
      ],
      [
        "ĠìķĬ",
        "ëĬĶ"
      ],
      [
        "ĳľ",
        "íĺĦ"
      ],
      [
        "Ġëª°ëĿ¼",
        "ìļĶ"
      ],
      [
        "ĺ",
        "ìĿ´"
      ],
      [
        "Ł",
        "¼"
      ],
      [
        "ë§",
        "ī"
      ],
      [
        "¸ë",
        "¦"
      ],
      [
        "¸ë",
        "¡ľ"
      ],
      [
        "ìľ",
        "Ħ"
      ],
      [
        "ëĤĺ",
        "ìļĶ"
      ],
      [
        "ìĿ¸",
        "ì§Ģ"
      ],
      [
        "ì¡",
        "±"
      ],
      [
        "ëı",
        "Ī"
      ],
      [
        "íĻĶ",
        "ë¥¼"
      ],
      [
        "Ġë§ĪìĿĮ",
        "ìĿĦ"
      ],
      [
        "ê»",
        "ĺ"
      ],
      [
        "ë",
        "´ĲìļĶ"
      ],
      [
        "ìĿ´",
        "ìĹĪ"
      ],
      [
        "Ġìŀ",
        "ĺë"
      ],
      [
        "ê°Ģ",
        "ëĬĶ"
      ],
      [
        "ìĺ",
        "Ģ"
      ],
      [
        "Ġë¶",
        "Ģë"
      ],
      [
        "ĠìķĪë",
        "ı¼"
      ],
      [
        "Ĳ",
        "ëį°"
      ],
      [
        "ë°",
        "©"
      ],
      [
        "ì§Ŀ",
        "ëħĢ"
      ],
      [
        "Ġë¯",
        "¸"
      ],
      [
        "ê°Ļ",
        "ìĿ´"
      ],
      [
        "í",
        "İ"
      ],
      [
        "ĠìŀĪ",
        "ìĹĪ"
      ],
      [
        "ĠìŀĪ",
        "ìľ¼ë©´"
      ],
      [
        "ë¦",
        "Ħ"
      ],
      [
        "Ġê°Ļ",
        "ìĿ´"
      ],
      [
        "Ġìł",
        "ģ"
      ],
      [
        "íĺ",
        "¸"
      ],
      [
        "ĠìĤ¬",
        "ê·Ģ"
      ],
      [
        "³´",
        "ìĦ¸ìļĶ"
      ],
      [
        "¡",
        "Ŀ"
      ],
      [
        "í",
        "ĥ"
      ],
      [
        "ìŀ",
        "Ĭ"
      ],
      [
        "ê¸°",
        "ëıĦ"
      ],
      [
        "ëĤ¨",
        "ìŀĲ"
      ],
      [
        "Ġê·¸ë",
        "Ł´"
      ],
      [
        "ĠìĦ",
        "±"
      ],
      [
        "Ġìļ",
        "°"
      ],
      [
        "Ġì¹ľ",
        "êµ¬"
      ],
      [
        "Ġì§Ħ",
        "ì§ľ"
      ],
      [
        "ëĦ",
        "Ī"
      ],
      [
        "ĠíĶ",
        "¼"
      ],
      [
        "¶ģ",
        "ê¸Ī"
      ],
      [
        "ìĿ´",
        "ë"
      ],
      [
        "ìŀ",
        "¬"
      ],
      [
        "ĠìĿ´",
        "ìĥģ"
      ],
      [
        "íĺ",
        "Ģ"
      ],
      [
        "ëŀ",
        "ĺ"
      ],
      [
        "Ġíķł",
        "ê¹Į"
      ],
      [
        "íı",
        "°"
      ],
      [
        "Ġê²°",
        "íĺ¼"
      ],
      [
        "Īë¡ľ",
        "ìļ´"
      ],
      [
        "Ġìĸ´ëĸ¨",
        "ê¹ĮìļĶ"
      ],
      [
        "ë",
        "ĺĲ"
      ],
      [
        "Ĭ",
        "Ĳ"
      ],
      [
        "ê²",
        "©"
      ],
      [
        "ì¹",
        "¨"
      ],
      [
        "ŀĺë",
        "ıĦ"
      ],
      [
        "ĠëĲ",
        "Ĳ"
      ],
      [
        "ĠìķĬ",
        "ìĿĦ"
      ],
      [
        "ìĸ",
        "ĳ"
      ],
      [
        "¸ëł",
        "Ī"
      ],
      [
        "Ġê°Ĳ",
        "ìłķ"
      ],
      [
        "Ġê³Ħ",
        "ìĨį"
      ],
      [
        "ì",
        "Ĥ¬ë"
      ],
      [
        "ê²",
        "¼"
      ],
      [
        "ëĭ¤",
        "ê°Ģ"
      ],
      [
        "íķĺëĬĶ",
        "ëį°"
      ],
      [
        "ĠìĦ",
        "ľ"
      ],
      [
        "ì§Ŀ",
        "ëĤ¨"
      ],
      [
        "ĠëĤ´",
        "ê°Ģ"
      ],
      [
        "Ġìĸ",
        "¸"
      ],
      [
        "Ġìī",
        "¬"
      ],
      [
        "Ġì¹ľ",
        "êµ¬ë"
      ],
      [
        "Ġê´Ģ",
        "ìĭ¬"
      ],
      [
        "ì¼",
        "ľ"
      ],
      [
        "ì",
        "±"
      ],
      [
        "ì",
        "Ĥ"
      ],
      [
        "Ġ",
        "1"
      ],
      [
        "ë°",
        "Ľ"
      ],
      [
        "íĸ",
        "Īëįĺ"
      ],
      [
        "Ġë§Ĳ",
        "íķ´ë³´ìĦ¸ìļĶ"
      ],
      [
        "Ġë§İ",
        "ìķĦ"
      ],
      [
        "ĠìĨ",
        "į"
      ],
      [
        "ì¡Į",
        "ìĸ´"
      ],
      [
        "ĠëĪ",
        "Ī"
      ],
      [
        "ĠëĬĲ",
        "ëĤ"
      ],
      [
        "ë",
        "´"
      ],
      [
        "íķĺë",
        "Ħ¤"
      ],
      [
        "íĶ",
        "Ī"
      ],
      [
        "Ġë¶",
        "Ħ"
      ],
      [
        "ìĺ¤ë",
        "Ĭ"
      ],
      [
        "íĬ",
        "¸ëłĪ"
      ],
      [
        "¸ëł",
        "¥"
      ],
      [
        "¸ëł",
        "¨"
      ],
      [
        "Ġë¯",
        "¿"
      ],
      [
        "ìĥ",
        "Ī"
      ],
      [
        "ëĪ",
        "Ħ"
      ],
      [
        "ª",
        "¨"
      ],
      [
        "ë",
        "ķĮ"
      ],
      [
        "ìķ",
        "½"
      ],
      [
        "ìĹ",
        "¬ë"
      ],
      [
        "ĠìŀĪ",
        "ëĬĶëį°"
      ],
      [
        "Ġëĭ",
        "µ"
      ],
      [
        "ĠìĿ´",
        "ë"
      ],
      [
        "ë¶",
        "Ģë"
      ],
      [
        "Ġë§Ĳ",
        "ê³ł"
      ],
      [
        "Ġê·¸ë",
        "Ł°"
      ],
      [
        "Ġë¨",
        "¼ìłĢ"
      ],
      [
        "Ġíķ",
        "¨"
      ],
      [
        "ì¶",
        "Ķ"
      ],
      [
        "ĠëĨ",
        "ĵ"
      ],
      [
        "Ġíŀĺëĵľ",
        "ëĦ¤"
      ],
      [
        "¶",
        "Ģ"
      ],
      [
        "¶",
        "Ħ"
      ],
      [
        "ĥ",
        "Ĳ"
      ],
      [
        "Ġìŀ",
        "¬ë"
      ],
      [
        "Ġìł",
        "Ģ"
      ],
      [
        "¢",
        "ħ"
      ],
      [
        "Ġë",
        "ĵ¯"
      ],
      [
        "ìĸ´",
        "ëıĦ"
      ],
      [
        "Ġìŀ",
        "ł"
      ],
      [
        "Ġê°",
        "Ħ"
      ],
      [
        "ëĭĪ",
        "ê¹Į"
      ],
      [
        "ì°",
        "¸"
      ],
      [
        "ĠìĥĿê°ģ",
        "íķ´ë³´ìĦ¸ìļĶ"
      ],
      [
        "Ġëı",
        "Ļ"
      ],
      [
        "ìŀĪ",
        "ëĬĶ"
      ],
      [
        "ĠëĤĺë",
        "¥¼"
      ],
      [
        "ëĮĢë",
        "¡ľ"
      ],
      [
        "½",
        "ì§Ģ"
      ],
      [
        "ë",
        "į"
      ],
      [
        "Ġí",
        "ĳľíĺĦ"
      ],
      [
        "Ġë§Į",
        "íģ¼"
      ],
      [
        "Ġë§İ",
        "ìĿĢ"
      ],
      [
        "íħ",
        "Ĳëį°"
      ],
      [
        "íĶ",
        "Į"
      ],
      [
        "Ġê¸°",
        "ë¶Ħ"
      ],
      [
        "Ġìłķ",
        "ë§Ĳ"
      ],
      [
        "ĠìĦł",
        "íĥĿ"
      ],
      [
        "ì³",
        "Ĳ"
      ],
      [
        "Ġì",
        "¦"
      ],
      [
        "Ġì",
        "Ĥ"
      ],
      [
        "ê¸",
        "ī"
      ],
      [
        "ìĺ",
        "ģ"
      ],
      [
        "Ġê°Ļ",
        "ìĿĢëį°"
      ],
      [
        "Ġê¸°",
        "ìĸµ"
      ],
      [
        "ĠíĥĢ",
        "ëĬĶ"
      ],
      [
        "ëŃ",
        "Ĳ"
      ],
      [
        "í",
        "Ī"
      ],
      [
        "í",
        "ľ´"
      ],
      [
        "Ġê",
        "¿Ī"
      ],
      [
        "ìķ",
        "ĺëĬĶëį°"
      ],
      [
        "ê²ł",
        "ëĭ¤"
      ],
      [
        "Ġë°",
        "ĺ"
      ],
      [
        "ĠìĤ¬ëŀĮ",
        "ìĿĦ"
      ],
      [
        "íĺ",
        "ķ"
      ],
      [
        "Ġíĺ",
        "¼"
      ],
      [
        "ĠëĶ",
        "°ëĿ¼"
      ],
      [
        "Ġëĭ¹",
        "ìĭł"
      ],
      [
        "ĠëıĮ",
        "ìķĦ"
      ],
      [
        "í",
        "Ŀ"
      ],
      [
        "ĭ",
        "°"
      ],
      [
        "ê°",
        "Ī"
      ],
      [
        "Ġí",
        "ĥ"
      ],
      [
        "ëĭ¤",
        "ìĭľ"
      ],
      [
        "ê¸°",
        "ë¥¼"
      ],
      [
        "ĠìĤ¬ëŀĮ",
        "ìĿĢ"
      ],
      [
        "ëł",
        "Ī"
      ],
      [
        "ĠìĿ´",
        "ìłľ"
      ],
      [
        "ĠìķĬ",
        "ìķĦ"
      ],
      [
        "ìĻ",
        "ľ"
      ],
      [
        "ìĹĪ",
        "ìĸ´"
      ],
      [
        "Ġë¶",
        "Ī"
      ],
      [
        "Ġíķĺë",
        "£¨"
      ],
      [
        "Ġì£¼",
        "ìĦ¸ìļĶ"
      ],
      [
        "ê²½",
        "ìĵ°"
      ],
      [
        "ĠëĪ",
        "Ħ"
      ],
      [
        "íĽĦ",
        "íļĮ"
      ],
      [
        "Ġëį°",
        "ìĿ´íĬ¸"
      ],
      [
        "êµ°",
        "ìļĶ"
      ],
      [
        "ª",
        "»"
      ],
      [
        "ë",
        "´Ĳ"
      ],
      [
        "ê°",
        "ĳ"
      ],
      [
        "Ġí",
        "ı"
      ],
      [
        "Ġíķ´",
        "ëıĦ"
      ],
      [
        "Ġë³´",
        "ëĤ´"
      ],
      [
        "ëĤ´",
        "ìĿ¼"
      ],
      [
        "ì¶",
        "ľ"
      ],
      [
        "Ġíķĺë",
        "Ĥĺ"
      ],
      [
        "ê²łì§Ģ",
        "ë§Į"
      ],
      [
        "ĠíĻ",
        "Ķ"
      ],
      [
        "íĹ",
        "ĺ"
      ],
      [
        "ì²ĺë",
        "Ł¼"
      ],
      [
        "Ń",
        "ìĥģ"
      ],
      [
        "ê°Ģ",
        "ìļĶ"
      ],
      [
        "Ġí",
        "Į"
      ],
      [
        "ìĤ¬ëŀĳ",
        "ìĿ´"
      ],
      [
        "Ġê·¸ë",
        "ł"
      ],
      [
        "Ġì¢ĭê²ł",
        "ëĦ¤ìļĶ"
      ],
      [
        "ìľ¼",
        "ìĦ¸ìļĶ"
      ],
      [
        "Ġê²°",
        "ìłķ"
      ],
      [
        "Ĥĺë",
        "´ĲìļĶ"
      ],
      [
        "Ġë°ĶëĿ¼",
        "ìļĶ"
      ],
      [
        "ë",
        "ĶĶ"
      ],
      [
        "ì",
        "į"
      ],
      [
        "í",
        "ĳľ"
      ],
      [
        "Ł",
        "¬ë"
      ],
      [
        "Ġìķ",
        "ŀ"
      ],
      [
        "ìŀĲ",
        "ê¸°"
      ],
      [
        "Ġìĭ",
        "¬"
      ],
      [
        "ĠìĿ´",
        "ìľł"
      ],
      [
        "ĠìĿ´",
        "ëłĩê²Į"
      ],
      [
        "Ġìĭ¶",
        "ìĿĢ"
      ],
      [
        "Ġìĺ",
        "¬"
      ],
      [
        "ì£¼",
        "ëĬĶ"
      ],
      [
        "ìĤ¬ëŀĳ",
        "ìĿĢ"
      ],
      [
        "Ġìĸ´ë",
        "ĶĶ"
      ],
      [
        "íĸĪ",
        "ëĬĶëį°"
      ],
      [
        "ĠëķĮ",
        "ë¬¸"
      ],
      [
        "Ġë²",
        "Ī"
      ],
      [
        "ê°ľ",
        "ìĽĶ"
      ],
      [
        "Ġê¹",
        "¨"
      ],
      [
        "ĠëĬĲëĤ",
        "Į"
      ],
      [
        "íĬ¸ëłĪ",
        "ìĬ¤"
      ],
      [
        "ĭ",
        "¤"
      ],
      [
        "ëĭ",
        "¬ëĿ¼"
      ],
      [
        "ĠìĿ´",
        "íķ´"
      ],
      [
        "ê±°",
        "ëĿ¼"
      ],
      [
        "Ġë§Į",
        "ëĤ"
      ],
      [
        "Ġê°Ģ",
        "ê³ł"
      ],
      [
        "ì§Ŀ",
        "ëĤ¨ìĿ´"
      ],
      [
        "Ġì¢ĭê²ł",
        "ëĭ¤"
      ],
      [
        "Ġë¬¼",
        "ìĸ´"
      ],
      [
        "ìĽĢ",
        "ìĿ´"
      ],
      [
        "Ġìĸ¸",
        "ìłľ"
      ],
      [
        "Ġë",
        "´Ĳ"
      ],
      [
        "ë³",
        "Ģ"
      ],
      [
        "ìĭ",
        "¸"
      ],
      [
        "ìĺ",
        "¨"
      ],
      [
        "ìĺ",
        "¬"
      ],
      [
        "ĠëĲ",
        "ĺëĬĶ"
      ],
      [
        "ê±°",
        "ëĤĺ"
      ],
      [
        "Ġëĭ¤",
        "ê°Ģ"
      ],
      [
        "ì²",
        "´"
      ],
      [
        "Ġìĸ´ë",
        "ķĮ"
      ],
      [
        "ìłģ",
        "ìľ¼ë¡ľ"
      ],
      [
        "ĠëŃ",
        "ĺ"
      ],
      [
        "íĮ",
        "ħ"
      ],
      [
        "ĠëĬ",
        "¦"
      ],
      [
        "Ġìĸ",
        "¼"
      ],
      [
        "ëĪ",
        "Ī"
      ],
      [
        "ãħ",
        "ł"
      ],
      [
        "´",
        "ìĭ¬"
      ],
      [
        "¿",
        "Ĳ"
      ],
      [
        "ë",
        "ľ"
      ],
      [
        "Ġìŀ",
        "¡"
      ],
      [
        "Ġìĭ",
        "¤"
      ],
      [
        "ìĿ¸",
        "ê°Ģë´ĲìļĶ"
      ],
      [
        "Ġìĺ",
        "ģ"
      ],
      [
        "Ġìĺ",
        "Īë"
      ],
      [
        "Ġë§Į",
        "ëĤł"
      ],
      [
        "ĠëķĮ",
        "ê°Ģ"
      ],
      [
        "Ġìĸ´ëĸ",
        "¡"
      ],
      [
        "Ġì¹",
        "´íĨ¡"
      ],
      [
        "ìħ",
        "Ķ"
      ],
      [
        "ĠíĽĦ",
        "íļĮ"
      ],
      [
        "ł¤",
        "ê³ł"
      ],
      [
        "íĤ",
        "¤"
      ],
      [
        "Ġì±",
        "Ļ"
      ],
      [
        "ì",
        "·¨"
      ],
      [
        "Ġì",
        "·¨"
      ],
      [
        "Ġë",
        "į"
      ],
      [
        "Ġë",
        "ĵ"
      ],
      [
        "íķĺë",
        "Ħ¤ìļĶ"
      ],
      [
        "ëł",
        "¸"
      ],
      [
        "Ģë",
        "ŀĳ"
      ],
      [
        "ĠìķĦ",
        "íĶĦ"
      ],
      [
        "Ġë§Į",
        "ëĤĺë"
      ],
      [
        "ê·¸ë",
        "ħĢ"
      ],
      [
        "ìĶ",
        "¨"
      ],
      [
        "ê°Ļ",
        "ìĿĢ"
      ],
      [
        "ìģ",
        "ĺ"
      ],
      [
        "ì¡°",
        "ê¸Ī"
      ],
      [
        "¥",
        "¸"
      ],
      [
        "ì",
        "»¤"
      ],
      [
        "Ĵ",
        "Ģ"
      ],
      [
        "Ġê",
        "¼"
      ],
      [
        "ì§Ģ",
        "ì§Ģ"
      ],
      [
        "ì¹",
        "´"
      ],
      [
        "Ġìĸ´",
        "ëł¤"
      ],
      [
        "íĻ",
        "ķ"
      ],
      [
        "ì¤",
        "Ģ"
      ],
      [
        "ìĥ",
        "Īë¡ľìļ´"
      ],
      [
        "ĮĢë",
        "¡ľ"
      ],
      [
        "Ġìľ",
        "ł"
      ],
      [
        "ìĭľê°Ħ",
        "ìĿ´"
      ],
      [
        "ì±",
        "ħ"
      ],
      [
        "ê",
        "¿Ī"
      ],
      [
        "ë",
        "¡"
      ],
      [
        "ë",
        "Ł¬"
      ],
      [
        "Ġì",
        "Ħ¤"
      ],
      [
        "Ġìŀ",
        "ħ"
      ],
      [
        "ë§",
        "Ŀ"
      ],
      [
        "ëĿ¼",
        "ëıĦ"
      ],
      [
        "ë¦¬",
        "ìĦ¸ìļĶ"
      ],
      [
        "ëĤ¨",
        "ìŀĲì¹ľêµ¬"
      ],
      [
        "Ġê°Ģ",
        "ë³´ìĦ¸ìļĶ"
      ],
      [
        "ìĹ¬",
        "ìŀĲ"
      ],
      [
        "ìłĢ",
        "ëĬĶ"
      ],
      [
        "ë¶Ģ",
        "íĦ°"
      ],
      [
        "Ġëª¨ë¥´",
        "ê²łìĸ´"
      ],
      [
        "ëĲ",
        "ĺ"
      ],
      [
        "ìĿ´ëĿ¼",
        "ëıĦ"
      ],
      [
        "ëģ",
        "Ŀ"
      ],
      [
        "ì",
        "©"
      ],
      [
        "Ġì",
        "µľ"
      ],
      [
        "ì§Ģ",
        "ë§ī"
      ],
      [
        "íķĺë",
        "Ĥĺ"
      ],
      [
        "Īë",
        "Ħ¤"
      ],
      [
        "ĠìĿ",
        "ĺ"
      ],
      [
        "ĠìķĦ",
        "íĮĮ"
      ],
      [
        "ì°",
        "©"
      ],
      [
        "íĻ",
        "ľ"
      ],
      [
        "Ġë§Ĳ",
        "íķ´"
      ],
      [
        "ìĪ",
        "Ļ"
      ],
      [
        "ê·¸ë",
        "Ł´"
      ],
      [
        "ì§ģ",
        "ìłĳ"
      ],
      [
        "Ġì¢ĭê²ł",
        "ìĸ´"
      ],
      [
        "ì¶",
        "ķ"
      ],
      [
        "ê´",
        "ľì°®"
      ],
      [
        "ê°Ĳ",
        "ìĿ´"
      ],
      [
        "ì¦",
        "ĺ"
      ],
      [
        "Ġë¬¼",
        "ìĸ´ë³´ìĦ¸ìļĶ"
      ],
      [
        "ĠìķĦëĭĪ",
        "ìĹĲìļĶ"
      ],
      [
        "Ġì°¾ìķĦ",
        "ë³´ìĦ¸ìļĶ"
      ],
      [
        "ê",
        "¼"
      ],
      [
        "Ġê",
        "¶ģê¸Ī"
      ],
      [
        "ìĿ´",
        "ìłł"
      ],
      [
        "ìķ",
        "Į"
      ],
      [
        "Ġí",
        "Ĩ"
      ],
      [
        "ë³´",
        "ë©´"
      ],
      [
        "ê¸°",
        "ëĭ¤"
      ],
      [
        "ĠìĪ",
        "ľ"
      ],
      [
        "ëĤĺë",
        "´Ĳ"
      ],
      [
        "ĠìķĦ",
        "ì§ģ"
      ],
      [
        "íĻĶ",
        "ê°Ģ"
      ],
      [
        "ĠìĹ°ëĿ½",
        "ìĿ´"
      ],
      [
        "ĠìĤ¬",
        "ìĿ´"
      ],
      [
        "ìĥ",
        "ī"
      ],
      [
        "Ġê³µ",
        "ë¶Ģ"
      ],
      [
        "´ìĭ¬",
        "íŀĪ"
      ],
      [
        "ì",
        "¢Ģ"
      ],
      [
        "Ġ",
        "3"
      ],
      [
        "¸ë",
        "ŀĺ"
      ],
      [
        "Ġìĭ",
        "¸"
      ],
      [
        "íĻ",
        "ĺ"
      ],
      [
        "ĠìĹ¬",
        "íĸī"
      ],
      [
        "Ġê·¸",
        "ë§Į"
      ],
      [
        "ìĬ¤ë",
        "Ł½"
      ],
      [
        "Ġíĺ",
        "Ħ"
      ],
      [
        "ĠëĶ",
        "°"
      ],
      [
        "»",
        "Ĳ"
      ],
      [
        "½",
        "ĥ"
      ],
      [
        "ĠìŀĪ",
        "ì£ł"
      ],
      [
        "ëĿ",
        "¼ë©´"
      ],
      [
        "¼ë",
        "¥¸"
      ],
      [
        "ëĤĺë",
        "´ħëĭĪëĭ¤"
      ],
      [
        "ĠìĥĿê°ģ",
        "íķ´"
      ],
      [
        "ĠìķĬ",
        "ìĿĢ"
      ],
      [
        "Ġê°Ģ",
        "ëĬĶ"
      ],
      [
        "ê·¸ë",
        "ł"
      ],
      [
        "ì¹ľêµ¬",
        "ê°Ģ"
      ],
      [
        "ì¶",
        "©ë¶Ħ"
      ],
      [
        "ë¨",
        "¼ìłĢ"
      ],
      [
        "ë¨",
        "¸ë¦¬"
      ],
      [
        "ìķĺ",
        "ìĸ´"
      ],
      [
        "Ġë¹",
        "ł"
      ],
      [
        "ê±¸",
        "ê¹Į"
      ],
      [
        "íŀĺë",
        "ĵ¤"
      ],
      [
        "ìļĶ",
        "ì¦ĺ"
      ],
      [
        "ì§Ģ",
        "ìļĶ"
      ],
      [
        "ìŀ",
        "¬ë"
      ],
      [
        "Ġí",
        "ĴĢ"
      ],
      [
        "Ġìķ",
        "½"
      ],
      [
        "íķľ",
        "ê°Ģë´ĲìļĶ"
      ],
      [
        "êµ",
        "´"
      ],
      [
        "Ġê·¸ë",
        "ħĢ"
      ],
      [
        "Ġì¢ĭìĿĦ",
        "ê¹Į"
      ],
      [
        "íı",
        "Ń"
      ],
      [
        "ĠìĹ¬ìŀĲ",
        "ìķł"
      ],
      [
        "íķĺëĭ",
        "Ī"
      ],
      [
        "ĠìĽ",
        "Ĳ"
      ],
      [
        "Ġëħ",
        "¸ëł¥"
      ],
      [
        "ê²ĥ",
        "ëıĦ"
      ],
      [
        "Ġì¶Ķ",
        "ì²ľ"
      ],
      [
        "ìĤ",
        "°"
      ],
      [
        "Ġíķ¨",
        "ê»ĺ"
      ],
      [
        "Ġíĺ¼",
        "ìŀĲ"
      ],
      [
        "ìĿ´",
        "ëĦ¤"
      ],
      [
        "ë¦",
        "°"
      ],
      [
        "ìĬ",
        "´"
      ],
      [
        "ĠìĥĿ",
        "ê²¼"
      ],
      [
        "ìĿ¼",
        "ê¹Į"
      ],
      [
        "ë¦¬",
        "ê°Ģ"
      ],
      [
        "ìĪ",
        "ľ"
      ],
      [
        "ĠìĻ",
        "Ģ"
      ],
      [
        "ìĶ",
        "Ģ"
      ],
      [
        "Ġê´ľì°®",
        "ìķĦ"
      ],
      [
        "Ġë§ŀ",
        "ëĬĶ"
      ],
      [
        "ĠíĿ",
        "ĺë"
      ],
      [
        "íĴ",
        "į"
      ],
      [
        "Ġìŀĺë",
        "ª»"
      ],
      [
        "ìĺ¤ëĬ",
        "ĺëıĦ"
      ],
      [
        "ĺ",
        "ĳ"
      ],
      [
        "ìĿ´",
        "ëĤĺ"
      ],
      [
        "ìĸ´",
        "ìķ¼"
      ],
      [
        "ëĤ",
        "¬"
      ],
      [
        "ëĭ¤",
        "ìĿĮ"
      ],
      [
        "íķĺë",
        "£¨"
      ],
      [
        "ĠìŀĪ",
        "ëĤĺë´ĲìļĶ"
      ],
      [
        "ìĬ",
        "¬"
      ],
      [
        "Ġë³",
        "Ħ"
      ],
      [
        "¤ë",
        "©´"
      ],
      [
        "ĠìķĦ",
        "ë¬´"
      ],
      [
        "ë¦¬",
        "ê³ł"
      ],
      [
        "ĠìĥĿê°ģ",
        "ìĿ´"
      ],
      [
        "ë©´",
        "ìĦľ"
      ],
      [
        "ìĹ¬",
        "ìŀĲì¹ľêµ¬"
      ],
      [
        "ìĹ¬",
        "íĸī"
      ],
      [
        "ê·¸ë",
        "ĥ¥"
      ],
      [
        "ì§Ħ",
        "ì§ľ"
      ],
      [
        "ĠìĤ¬ëŀĳ",
        "ìĿ´"
      ],
      [
        "ìļ´",
        "ëıĻ"
      ],
      [
        "ìĽĮ",
        "ìļĶ"
      ],
      [
        "ëª",
        "»"
      ],
      [
        "Ġìļ",
        "´"
      ],
      [
        "ê³µ",
        "ë¶Ģ"
      ],
      [
        "ĠëıĦ",
        "ìĽĢìĿ´"
      ],
      [
        "ìĭ¶",
        "ìĸ´"
      ],
      [
        "ë",
        "ĳ"
      ],
      [
        "ĳ",
        "ìĽĲ"
      ],
      [
        "Ġì",
        "į"
      ],
      [
        "ëĤ",
        "¼"
      ],
      [
        "ê³",
        "¤"
      ],
      [
        "Ġë§",
        "Ľ"
      ],
      [
        "Ġê°",
        "Ī"
      ],
      [
        "Ġë°",
        "ľ"
      ],
      [
        "Ġëĭ",
        "¬ëĿ¼"
      ],
      [
        "Ġë³",
        "µ"
      ],
      [
        "ëĤĺë",
        "§Į"
      ],
      [
        "ìĭł",
        "ìĿ´"
      ],
      [
        "íĶ",
        "Ķ"
      ],
      [
        "ĠëĤ¨ìŀĲ",
        "ìķł"
      ],
      [
        "Ġìĺ¤",
        "ìĦ¸ìļĶ"
      ],
      [
        "Ġë¶Ģ",
        "ëĭ´"
      ],
      [
        "ëĮĢë",
        "°©"
      ],
      [
        "Ġê·Ģ",
        "ì°®"
      ],
      [
        "ª¨",
        "ëĭ"
      ],
      [
        "Ġì±Ļ",
        "ê²¨"
      ],
      [
        "Ġ",
        "2"
      ],
      [
        "íķ´",
        "ì§Ģ"
      ],
      [
        "Ġëĭ",
        "¤ë"
      ],
      [
        "ĠìĪ",
        "ł"
      ],
      [
        "Ġê°Ļ",
        "ìĿĢ"
      ],
      [
        "Ġë³",
        "¼"
      ],
      [
        "ëĤĺë",
        "¥¼"
      ],
      [
        "ĠëĲ",
        "ľ"
      ],
      [
        "ĠìķĬ",
        "ìķĺ"
      ],
      [
        "Ġë§Ĳ",
        "ìķĦìļĶ"
      ],
      [
        "ìĤ¬ëŀĳ",
        "íķĺëĬĶ"
      ],
      [
        "Ġê·¸ë",
        "¦¬"
      ],
      [
        "ĠìĹ°ëĿ½",
        "íķ´ë³´ìĦ¸ìļĶ"
      ],
      [
        "ĠìķĮ",
        "ëł¤"
      ],
      [
        "ĠìĿ¼",
        "ìĸ´"
      ],
      [
        "Ġì£",
        "½"
      ],
      [
        "ê±´",
        "ê°ķ"
      ],
      [
        "Ġë¬´",
        "ìĬ¨"
      ],
      [
        "íĸī",
        "ë³µ"
      ],
      [
        "ĠíĹ¤ìĸ´",
        "ì§Ħ"
      ],
      [
        "Ġê´ľì°®",
        "ìķĦìļĶ"
      ],
      [
        "Ġì¤ĳìļĶ",
        "íķľ"
      ],
      [
        "ë¦´",
        "ê²ĮìļĶ"
      ],
      [
        "ìĸ´ëĸ",
        "¤"
      ],
      [
        "ĠëķĮë¬¸",
        "ìĹĲ"
      ],
      [
        "Ġëį",
        "ľ"
      ],
      [
        "Ħ",
        "ìłĦ"
      ],
      [
        "Ġë",
        "´"
      ],
      [
        "Ġë",
        "¿Ĳ"
      ],
      [
        "ìĿ´",
        "ëĬĶ"
      ],
      [
        "ì§",
        "ĵ"
      ],
      [
        "ê³ł",
        "ë¯¼"
      ],
      [
        "ë³",
        "¸"
      ],
      [
        "Ġë§",
        "ī"
      ],
      [
        "¸ë",
        "ĵľ"
      ],
      [
        "Ġê²",
        "½"
      ],
      [
        "Ġëĭ",
        "¨"
      ],
      [
        "ëł",
        "¨"
      ],
      [
        "Ġìĭ¶",
        "ìĿĢëį°"
      ],
      [
        "Ġê³",
        "¼"
      ],
      [
        "ĠìĥĿê°ģ",
        "ìĿĦ"
      ],
      [
        "Ġë§Į",
        "ëĤĺëĬĶ"
      ],
      [
        "ì²",
        "«"
      ],
      [
        "ëł¤",
        "ë³´ìĦ¸ìļĶ"
      ],
      [
        "ĠìĦ",
        "¸"
      ],
      [
        "ĠëĮĢ",
        "íķľ"
      ],
      [
        "Ġìĺ¤ë",
        "ŀĺ"
      ],
      [
        "ĠëĦ",
        "ĺ"
      ],
      [
        "Ġìłľ",
        "ìĿ¼"
      ],
      [
        "ĠìķĦëĭĪë",
        "Ŀ¼"
      ],
      [
        "Ġì¦",
        "Ĳ"
      ],
      [
        "ëľ",
        "»"
      ],
      [
        "ê",
        "½ĥ"
      ],
      [
        "ìĹ",
        "Ħ"
      ],
      [
        "ìŀ",
        "ħ"
      ],
      [
        "Ġìŀ",
        "¥"
      ],
      [
        "ì£",
        "¼ë"
      ],
      [
        "ê¸°",
        "ë¶Ħ"
      ],
      [
        "êµ¬",
        "ëĤĺ"
      ],
      [
        "ëŀ",
        "Ģ"
      ],
      [
        "Ġê°Ģ",
        "ìł¸"
      ],
      [
        "Ġëĭ¤",
        "ë¥´"
      ],
      [
        "ëł¤",
        "ê³ł"
      ],
      [
        "íķĺë©´",
        "ìĦľ"
      ],
      [
        "ĠìĤ´",
        "ê³ł"
      ],
      [
        "ĠìķĦëĭ",
        "Ĳ"
      ],
      [
        "ìŀĪ",
        "ê²Į"
      ],
      [
        "ìĬ¤ë",
        "¡ľ"
      ],
      [
        "Ġìī",
        "½ì§Ģ"
      ],
      [
        "Ġìŀ¬ë",
        "¯¸"
      ],
      [
        "ë",
        "¬"
      ],
      [
        "ë",
        "ĵ¯"
      ],
      [
        "Ġì",
        "ĥ"
      ],
      [
        "ëĭ",
        "¬ë"
      ],
      [
        "Ġìŀ",
        "Ķ"
      ],
      [
        "ë§Į",
        "ìĹĲ"
      ],
      [
        "ĠìĹĨ",
        "ìĿĦ"
      ],
      [
        "íĸ",
        "¥"
      ],
      [
        "Ġë§Ĳ",
        "ìĿĦ"
      ],
      [
        "ĠëĤĺ",
        "ê°Ģ"
      ],
      [
        "ìĹ°",
        "ìĿ´"
      ],
      [
        "ĠìĹ¬",
        "ìŀĲì¹ľêµ¬"
      ],
      [
        "ìĭ¬",
        "íķĺìĦ¸ìļĶ"
      ],
      [
        "íĸĪ",
        "ëĤĺë´ĲìļĶ"
      ],
      [
        "ĠìķĮ",
        "ìķĺëĬĶëį°"
      ],
      [
        "íĬ",
        "¸ë"
      ],
      [
        "ĠíĹ¤ìĸ´",
        "ì¡Į"
      ],
      [
        "ì¹ľêµ¬ë",
        "ŀĳ"
      ],
      [
        "ĠíĻķ",
        "ìĿ¸"
      ],
      [
        "ëĶ",
        "°"
      ],
      [
        "Ġëĸ¨",
        "ìĸ´"
      ],
      [
        "¸ëĵľ",
        "íı°"
      ],
      [
        "ì",
        "¢ħ"
      ],
      [
        "ĩ",
        "´"
      ],
      [
        "ìĿ´",
        "ê°Ģ"
      ],
      [
        "ìĿ´",
        "ëŀĳ"
      ],
      [
        "Ġë§",
        "Īë"
      ],
      [
        "íķĺ",
        "ê²łìĸ´ìļĶ"
      ],
      [
        "íķľ",
        "ì§Ģ"
      ],
      [
        "Ġê°Ļ",
        "ìķł"
      ],
      [
        "Ġíķ´",
        "ë³¼ê¹Į"
      ],
      [
        "ìĹĪ",
        "ëĬĶëį°"
      ],
      [
        "Ġì§Ģ",
        "ëĤĺ"
      ],
      [
        "Ġì§Ģ",
        "ëĤ´"
      ],
      [
        "ĠìĤ¬ëŀĮìĿ´",
        "ëŀĳ"
      ],
      [
        "ë¬´",
        "ìĬ¨"
      ],
      [
        "ê°Ĳ",
        "ìĿĦ"
      ],
      [
        "ê·¸",
        "ê²Į"
      ],
      [
        "íı",
        "ī"
      ],
      [
        "ĠíĸĪ",
        "ëĬĶëį°"
      ],
      [
        "ê³Ħ",
        "ìĨį"
      ],
      [
        "ê»",
        "´"
      ],
      [
        "ĠìĽ",
        "ĥ"
      ],
      [
        "íŀĺë",
        "ĵł"
      ],
      [
        "Ġíģ",
        "°"
      ],
      [
        "ìĪĺë",
        "¡Ŀ"
      ],
      [
        "íıŃ",
        "íĴį"
      ],
      [
        "ìķ",
        "Īë"
      ],
      [
        "ëĤ",
        "¬ë"
      ],
      [
        "Ġê°",
        "ĸ"
      ],
      [
        "ìŀĲ",
        "ê¾¸"
      ],
      [
        "ê¸°",
        "ë¡ľ"
      ],
      [
        "ë§Į",
        "íģ¼"
      ],
      [
        "Ġìł",
        "Ĳ"
      ],
      [
        "ìĤ¬ëŀĳ",
        "ìĿĺ"
      ],
      [
        "ĠìĤ¬ëŀĳ",
        "íķĺëĬĶ"
      ],
      [
        "ìĸ",
        "¼"
      ],
      [
        "Ġíķ",
        "Ńìĥģ"
      ],
      [
        "ëª",
        "©"
      ],
      [
        "ìĿ´ë³Ħ",
        "ìĿĦ"
      ],
      [
        "Ġíķľ",
        "ëĭ¬"
      ],
      [
        "Ġìļ",
        "©"
      ],
      [
        "Ġìĥģ",
        "íĻ©"
      ],
      [
        "ĠëĮĢ",
        "íĻĶë¥¼"
      ],
      [
        "ê²°",
        "êµŃ"
      ],
      [
        "ĠìĬ",
        "¬"
      ],
      [
        "ëĲ",
        "ľ"
      ],
      [
        "ìŀĲìĭł",
        "ìĿĦ"
      ],
      [
        "ë¹",
        "ł"
      ],
      [
        "ĠëĲĺë",
        "Ĥĺ"
      ],
      [
        "ìĸ¸",
        "ìłł"
      ],
      [
        "Ġìĭł",
        "ê²½ìĵ°"
      ],
      [
        "ì²ĺ",
        "ìĿĮ"
      ],
      [
        "ì½",
        "Ķ"
      ],
      [
        "Ġêµ",
        "¬"
      ],
      [
        "ëł¥",
        "ìĿ´"
      ],
      [
        "ë§¤",
        "ìĿ¼"
      ],
      [
        "ìĬ¤ëŁ¬",
        "ìļ´"
      ],
      [
        "°",
        "Į"
      ],
      [
        "ģ",
        "Ķ"
      ],
      [
        "ł",
        "¨"
      ],
      [
        "Ġí",
        "ĭ°"
      ],
      [
        "Ġë§",
        "ĺ"
      ],
      [
        "ë°",
        "ĺ"
      ],
      [
        "ĠìĹĨ",
        "ëĦ¤"
      ],
      [
        "Ġì¢ĭìķĦ",
        "íķł"
      ],
      [
        "ĠëĤĺ",
        "íķľíħĮ"
      ],
      [
        "ìĥģ",
        "ëĮĢë°©"
      ],
      [
        "Ġê¸",
        "¸"
      ],
      [
        "Ġì§Ģ",
        "ê¸Ī"
      ],
      [
        "ëª",
        "¸"
      ],
      [
        "ë¥´",
        "ëĬĶ"
      ],
      [
        "íĹ¤ìĸ´",
        "ì§Ģê³ł"
      ],
      [
        "ĠìŀĲìĭł",
        "ìĿĦ"
      ],
      [
        "ìĸ´ëĸ",
        "»ê²Į"
      ],
      [
        "Ġë¬¸",
        "ìłľ"
      ],
      [
        "íĥ",
        "ľ"
      ],
      [
        "ì¶©ë¶Ħ",
        "íŀĪ"
      ],
      [
        "´",
        "Ī"
      ],
      [
        "µ",
        "ê´Ģ"
      ],
      [
        "í",
        "ĩ´"
      ],
      [
        "Ķ",
        "ì§ģ"
      ],
      [
        "ìĦ¸",
        "ìĥģ"
      ],
      [
        "Ġí",
        "ŀĺ"
      ],
      [
        "Ġë§",
        "¤"
      ],
      [
        "ĠìĹ",
        "Ħ"
      ],
      [
        "Ġê±°",
        "ëĿ¼"
      ],
      [
        "ëĤĺ",
        "ê³ł"
      ],
      [
        "Ģë",
        "Ł¬"
      ],
      [
        "Ġë§Ī",
        "ìĭľ"
      ],
      [
        "Ġì¢ĭìķĦ",
        "íķ´"
      ],
      [
        "Ġìĭ¶",
        "ìĸ´ìļĶ"
      ],
      [
        "ëĤ¨",
        "ì¹ľ"
      ],
      [
        "ë¶",
        "Ī"
      ],
      [
        "Ġë§Ĳ",
        "ìĶĢ"
      ],
      [
        "ê·¸ë",
        "ŀĺëıĦ"
      ],
      [
        "ĠìĤ¬ëŀĳ",
        "ìĿĦ"
      ],
      [
        "Ġëı",
        "Ī"
      ],
      [
        "ĠìĹ°ëĿ½",
        "ìĿĦ"
      ],
      [
        "ìłģ",
        "ìĿ´"
      ],
      [
        "Ġì£",
        "¼ë"
      ],
      [
        "ĠëĲĺ",
        "ìĹĪ"
      ],
      [
        "Ġì¶",
        "ķ"
      ],
      [
        "ìľ¼",
        "ëĭĪê¹ĮìļĶ"
      ],
      [
        "ĠìĬ",
        "µê´Ģ"
      ],
      [
        "Ġì¤ĳìļĶ",
        "íķ´ìļĶ"
      ],
      [
        "ìĻĶ",
        "ìĸ´"
      ],
      [
        "ĠìĤ¬ë",
        "ĬĶ"
      ],
      [
        "£",
        "Į"
      ],
      [
        "¨",
        "ë¦¬"
      ],
      [
        "ê",
        "¿"
      ],
      [
        "ĺë",
        "©´"
      ],
      [
        "ĺë",
        "¯¸"
      ],
      [
        "ê°Ģ",
        "ê³ł"
      ],
      [
        "ĠìŀĪ",
        "ëĭ¤ë©´"
      ],
      [
        "ì¹",
        "ł"
      ],
      [
        "ĠìĤ¬ëŀĮ",
        "ëĵ¤"
      ],
      [
        "ĠìĤ¬ëŀĮ",
        "íķľíħĮ"
      ],
      [
        "Ġê²ĥ",
        "ìĿ´"
      ],
      [
        "įĶ",
        "ëĭĪ"
      ],
      [
        "Ġë³´",
        "ëĬĶ"
      ],
      [
        "Ġê·¸ë",
        "ĥ¥"
      ],
      [
        "Ġë¶",
        "Ļ"
      ],
      [
        "ë¯",
        "¸ëł¨"
      ],
      [
        "Ġë¨¹",
        "ìĸ´"
      ],
      [
        "Ġë²",
        "Į"
      ],
      [
        "ê±´",
        "ê°Ģ"
      ],
      [
        "ëıĻ",
        "ìķĪ"
      ],
      [
        "Ġê±¸",
        "ê¹Į"
      ],
      [
        "ĠíĹ¤ìĸ´",
        "ì§Ģ"
      ],
      [
        "Ġë§ĮëĤĺ",
        "ê³ł"
      ],
      [
        "Ġìĺ¤ë",
        "Ĭĺ"
      ],
      [
        "ì¹ľêµ¬ë",
        "ĵ¤"
      ],
      [
        "ìĹĨ",
        "ìĿ´"
      ],
      [
        "ĠìĻĶ",
        "ìĸ´"
      ],
      [
        "ì§ĿëħĢ",
        "ê°Ģ"
      ],
      [
        "Ġê·¸ëł",
        "ĩ"
      ],
      [
        "ĠëŃĺ",
        "ê¹Į"
      ],
      [
        "Ġëĵ",
        "£"
      ],
      [
        "ĠíĨ",
        "µ"
      ],
      [
        "í",
        "ĭ"
      ],
      [
        "Ĳ",
        "ĺ"
      ],
      [
        "Ġì",
        "»¤"
      ],
      [
        "Ġê",
        "¾"
      ],
      [
        "ê°",
        "Ķ"
      ],
      [
        "ìĸ´",
        "ë²Ħ"
      ],
      [
        "Ġí",
        "ļ"
      ],
      [
        "Ġí",
        "ĥĪ"
      ],
      [
        "Īë",
        "ĮĢ"
      ],
      [
        "Ġì§",
        "ģ"
      ],
      [
        "ê±°",
        "ìķ¼"
      ],
      [
        "ë§Ī",
        "ìĦ¸ìļĶ"
      ],
      [
        "ìĨ",
        "Ĳ"
      ],
      [
        "Ġìĸ´ëĸ",
        "¤"
      ],
      [
        "ìĿ´ë³Ħ",
        "ìĿĢ"
      ],
      [
        "Ġëª»",
        "íķĺ"
      ],
      [
        "ë§ĪìĿĮ",
        "ìĿĦ"
      ],
      [
        "Ġëģ",
        "Ĭ"
      ],
      [
        "Ġìĥģ",
        "ê´Ģ"
      ],
      [
        "Ġë¯",
        "¸ëł¨"
      ],
      [
        "ë¦¬ë",
        "¥¼"
      ],
      [
        "íı",
        "¬"
      ],
      [
        "Ġíĺ",
        "¸"
      ],
      [
        "ê°ľ",
        "íĮħ"
      ],
      [
        "Ġì§Ŀ",
        "ëĤ¨"
      ],
      [
        "ìį",
        "¨"
      ],
      [
        "ìģĺ",
        "ê²Į"
      ],
      [
        "Ġê¼",
        "Ń"
      ],
      [
        "ĠìĪľ",
        "ê°Ħ"
      ],
      [
        "°",
        "Ľ"
      ],
      [
        "¹",
        "ë³µ"
      ],
      [
        "íķ´",
        "ì§Ī"
      ],
      [
        "Ġë§",
        "Ŀ"
      ],
      [
        "ìĹĲ",
        "ëıĦ"
      ],
      [
        "Ġê°",
        "ĳ"
      ],
      [
        "ĠìĿ",
        "¼ë"
      ],
      [
        "ìĽ",
        "ł"
      ],
      [
        "ìĿ¼",
        "ì§¸"
      ],
      [
        "ì°",
        "¬"
      ],
      [
        "ĠìĹ°",
        "ìĬµ"
      ],
      [
        "ëł¤",
        "ìļĶ"
      ],
      [
        "Ġì°",
        "į"
      ],
      [
        "Ġíķ",
        "©ëĭĪëĭ¤"
      ],
      [
        "íĻĶ",
        "ìŀ¥"
      ],
      [
        "Ġì¹",
        "ĺ"
      ],
      [
        "Ġìĭľê°Ħ",
        "ìĿĦ"
      ],
      [
        "íļĮ",
        "ìĤ¬"
      ],
      [
        "Ġì¡",
        "´"
      ],
      [
        "ĠëŃĲ",
        "ê°Ģ"
      ],
      [
        "íģ",
        "¬"
      ],
      [
        "Ġëª¨ë¥´",
        "ê²łìĸ´ìļĶ"
      ],
      [
        "Ġê´Ģ",
        "ê³Ħ"
      ],
      [
        "Ġíķĺ",
        "ì£ł"
      ],
      [
        "Ġì§Ŀ",
        "ëħĢ"
      ],
      [
        "ĠìľĦ",
        "ë¡ľ"
      ],
      [
        "Ġë©",
        "ĭ"
      ],
      [
        "ĠíĻķ",
        "ìĭ¤"
      ],
      [
        "ĠìĬ¤",
        "íĬ¸ëłĪìĬ¤"
      ],
      [
        "ìķĦì§ģ",
        "ëıĦ"
      ],
      [
        "ìī",
        "¬"
      ],
      [
        "Ġëĭµ",
        "ëĭµ"
      ],
      [
        "Ġíĥ",
        "ľ"
      ],
      [
        "Ġíı",
        "¬"
      ],
      [
        "Ġìĸ´ëĸ¡",
        "íķ´"
      ],
      [
        "ì»¤",
        "íĶ¼"
      ],
      [
        "ê·¸ëł",
        "ĩê²Į"
      ],
      [
        "ĠìĹĦ",
        "ì²Ń"
      ],
      [
        "ìĸ´",
        "ìłľ"
      ],
      [
        "Ġìĭ",
        "Ŀ"
      ],
      [
        "ê¸°",
        "ëĬĶ"
      ],
      [
        "Ġë§İ",
        "ìķĺ"
      ],
      [
        "ìĹ¬",
        "ì¹ľ"
      ],
      [
        "Ġê·¸ë",
        "ŀĺ"
      ],
      [
        "Ġê¸°",
        "ëĮĢ"
      ],
      [
        "ĠìĤ¬",
        "ìĦ¸ìļĶ"
      ],
      [
        "Ġìłķ",
        "ëıĦ"
      ],
      [
        "ìį¸",
        "ëĤ¨"
      ],
      [
        "Ġì¶",
        "©ë¶Ħ"
      ],
      [
        "ĠíķĺëĬĶ",
        "ëį°"
      ],
      [
        "ĠëĤĺë",
        "§Į"
      ],
      [
        "ĠìĹ¬ìŀĲ",
        "ê°Ģ"
      ],
      [
        "íĹ",
        "Ī"
      ],
      [
        "ì²ľ",
        "íŀĪ"
      ],
      [
        "Ġíģ",
        "¬"
      ],
      [
        "¬ëĬĶ",
        "ëį°"
      ],
      [
        "ĠìĦľ",
        "ë¡ľ"
      ],
      [
        "ëĭ¬ëĿ¼",
        "ê³ł"
      ],
      [
        "ĠìĺĪë",
        "»Ĳ"
      ],
      [
        "Ġë³Ħ",
        "ë¡ľ"
      ],
      [
        "Ġë§Īë",
        "ł¨"
      ],
      [
        "ĭ",
        "Ī"
      ],
      [
        "Ĵ",
        "¤"
      ],
      [
        "ĵ",
        "Ŀ"
      ],
      [
        "ìĿ",
        "ĳ"
      ],
      [
        "Ġê",
        "¿"
      ],
      [
        "ìĿ´",
        "ë©´"
      ],
      [
        "ì§Ģ",
        "ê°Ģ"
      ],
      [
        "¬ë",
        "¦¬"
      ],
      [
        "ìŀ",
        "Ķ"
      ],
      [
        "ë§",
        "¨"
      ],
      [
        "íķĺ",
        "ê¸¸"
      ],
      [
        "Ġê°",
        "Ķ"
      ],
      [
        "ĠëĤ",
        "ľ"
      ],
      [
        "ê¸°",
        "ê¹Įì§Ģ"
      ],
      [
        "¼ë",
        "¡ľ"
      ],
      [
        "ìĬ",
        "¹"
      ],
      [
        "ĠìĤ¬ëŀĮ",
        "ëıĦ"
      ],
      [
        "ëł",
        "µ"
      ],
      [
        "ìĿ¸",
        "ìĥĿ"
      ],
      [
        "ë°",
        "¥"
      ],
      [
        "ĠìķĦ",
        "ëĬĶ"
      ],
      [
        "ìĿ¼",
        "ìĿ´"
      ],
      [
        "ë¦¬",
        "ì§Ģ"
      ],
      [
        "ì°",
        "į"
      ],
      [
        "ì£¼",
        "ê³ł"
      ],
      [
        "ĠìķĬ",
        "ì£ł"
      ],
      [
        "ë§Ī",
        "ì§Ģë§ī"
      ],
      [
        "Ġë°Ķ",
        "ë"
      ],
      [
        "ì¡",
        "´"
      ],
      [
        "ĠìĹ°ëĿ½",
        "íķ´"
      ],
      [
        "Ġë§ĪìĿĮ",
        "ìĹĲ"
      ],
      [
        "Ġëª¨",
        "ìĬµ"
      ],
      [
        "Ġëª¨",
        "ëĳĲ"
      ],
      [
        "ë§ĪìĿĮ",
        "ìĹĲ"
      ],
      [
        "ë§ĪìĿĮ",
        "ìĿĺ"
      ],
      [
        "ìļ°",
        "ë¦¬"
      ],
      [
        "Ŀ¼",
        "ê³ł"
      ],
      [
        "ĠëĲĺ",
        "ê¸¸"
      ],
      [
        "ê°Ļ",
        "ìķĦ"
      ],
      [
        "ìĺ¤ëĬĺ",
        "ìĿĢ"
      ],
      [
        "ĠìĿ¸",
        "ìłķ"
      ],
      [
        "ĠíĿ",
        "Ĳ"
      ],
      [
        "ĠëĦ",
        "Ī"
      ],
      [
        "Ġì¶Ķ",
        "ìĸµ"
      ],
      [
        "ĠìĺĪ",
        "ìĿĺ"
      ],
      [
        "Ġë°ĽìķĦ",
        "ëĵ¤ìĿ´"
      ],
      [
        "íİ",
        "´"
      ],
      [
        "Ġì¹ľêµ¬",
        "ê°Ģ"
      ],
      [
        "ë¶Ģë",
        "ª¨ëĭ"
      ],
      [
        "Ġëĭ¤ê°Ģ",
        "ê°Ģ"
      ],
      [
        "ìĹĦ",
        "ë§Ī"
      ],
      [
        "º",
        "¼"
      ],
      [
        "ì",
        "»"
      ],
      [
        "ħ",
        "ķ"
      ],
      [
        "Ġë",
        "´ĲìļĶ"
      ],
      [
        "ìķ",
        "ŀ"
      ],
      [
        "ê°",
        "Īë"
      ],
      [
        "ìĸ´",
        "ìĦľ"
      ],
      [
        "ê³ł",
        "ë°±"
      ],
      [
        "ìł",
        "Ģëŀĳ"
      ],
      [
        "ë§",
        "ĺ"
      ],
      [
        "ê¹",
        "Ĳ"
      ],
      [
        "Īë",
        "¬¼"
      ],
      [
        "Īë",
        "°©"
      ],
      [
        "Ġë°",
        "ĺë"
      ],
      [
        "ĠìĿ´",
        "ìĸ´"
      ],
      [
        "ëĤ¨",
        "íİ¸"
      ],
      [
        "Ġê°Ģ",
        "ìŀ¥"
      ],
      [
        "Ġíŀĺë",
        "Ĥ´"
      ],
      [
        "ĠëĤĺ",
        "ìĻĢ"
      ],
      [
        "ëı",
        "¼"
      ],
      [
        "Ġíŀĺëĵ¤",
        "ìĹĪ"
      ],
      [
        "ìĺ¤ë",
        "ŀĺ"
      ],
      [
        "ĠëŃ",
        "Ķ"
      ],
      [
        "íĹ¤ìĸ´",
        "ì§Ģ"
      ],
      [
        "Ġë°Ľ",
        "ê³ł"
      ],
      [
        "ĠìĤ´",
        "íİ´"
      ],
      [
        "ĠìķĦëĭĮ",
        "ëį°"
      ],
      [
        "Ġì¡°ê¸Ī",
        "ìĶ©"
      ],
      [
        "ë¨¹",
        "ê³ł"
      ],
      [
        "ìĬ¤ëŁ¬",
        "ìĽĮ"
      ],
      [
        "ê²©",
        "ìĿ´"
      ],
      [
        "Ġë³µ",
        "ìŀ¡"
      ],
      [
        "ë",
        "ĥĪ"
      ],
      [
        "İ",
        "Į"
      ],
      [
        "ŀ",
        "ľ"
      ],
      [
        "ł",
        "Ģ"
      ],
      [
        "íķ",
        "ĳ"
      ],
      [
        "ìĹ",
        "ĩ"
      ],
      [
        "íķ´",
        "ì¤ĺ"
      ],
      [
        "ìķĦ",
        "ìĦľ"
      ],
      [
        "ëĭ¤",
        "ëĭĪ"
      ],
      [
        "ê¸",
        "Ģ"
      ],
      [
        "íķĺ",
        "ìĭľ"
      ],
      [
        "ĠìĹ",
        "´ìĭ¬íŀĪ"
      ],
      [
        "ĠìŀĪ",
        "ëĤĺ"
      ],
      [
        "ëĤĺë",
        "©´"
      ],
      [
        "ĠìĹĨ",
        "ìĿ´"
      ],
      [
        "Ġê·",
        "¹ë³µ"
      ],
      [
        "ê±°",
        "ë¦¬"
      ],
      [
        "ìłķ",
        "ìĿ´"
      ],
      [
        "Ġìĸ´",
        "ì©"
      ],
      [
        "Ġìĺ",
        "¨"
      ],
      [
        "ĠëĤĺ",
        "ìĿĦ"
      ],
      [
        "ĠëĤĺ",
        "ìĦľ"
      ],
      [
        "ĠìŀĲ",
        "ì£¼"
      ],
      [
        "Ġì§Ģ",
        "ì¼ľ"
      ],
      [
        "ì¶",
        "°"
      ],
      [
        "ê°Ģë",
        "´ħëĭĪëĭ¤"
      ],
      [
        "ĠëĲĺ",
        "ìĸ´"
      ],
      [
        "ĠëĤ¨ìŀĲ",
        "ê°Ģ"
      ],
      [
        "ĠìŀĬ",
        "íĺĢ"
      ],
      [
        "ĠíĸĪ",
        "ìĸ´"
      ],
      [
        "ìŀĲìĭł",
        "ìĿĺ"
      ],
      [
        "Ġìłķë¦¬",
        "ê°Ģ"
      ],
      [
        "Ġì§ĳ",
        "ìĹĲ"
      ],
      [
        "ĠìľĦ",
        "íķ´"
      ],
      [
        "ì³",
        "¤"
      ],
      [
        "ì§ĿëĤ¨",
        "íķľíħĮ"
      ],
      [
        "Ġë¯¿",
        "ìĸ´ìļĶ"
      ],
      [
        "Ġì£¼ë",
        "¬´"
      ],
      [
        "Ġë°Ķë",
        "Ģ"
      ],
      [
        "ë",
        "ŀĺëıĦ"
      ],
      [
        "ë",
        "ĥĲ"
      ],
      [
        "ì",
        "µľ"
      ],
      [
        "Ĥ",
        "¤"
      ],
      [
        "Ġì",
        "ĵ"
      ],
      [
        "Ġë",
        "ķ"
      ],
      [
        "íķ",
        "¸ëĵľíı°"
      ],
      [
        "ìĦ",
        "¤"
      ],
      [
        "¬ë",
        "ł¤"
      ],
      [
        "ëĬĶ",
        "ì§Ģ"
      ],
      [
        "Ġí",
        "Ħ"
      ],
      [
        "Ġí",
        "Ĥ¤"
      ],
      [
        "¸ë",
        "ŀĺë"
      ],
      [
        "íķľ",
        "ê²Į"
      ],
      [
        "ì¹",
        "´íĨ¡"
      ],
      [
        "ëĤĺ",
        "íķľíħĮ"
      ],
      [
        "ê·",
        "¹"
      ],
      [
        "ĠìĿ´",
        "ê²¨"
      ],
      [
        "Ģë",
        "¡ľ"
      ],
      [
        "ëĤĺë",
        "ıĦ"
      ],
      [
        "ĠìķĦ",
        "íĶĪ"
      ],
      [
        "ê±°",
        "ìļ´"
      ],
      [
        "Ġê°Ģ",
        "ìĦľ"
      ],
      [
        "ĠëĤĺ",
        "ìķĦ"
      ],
      [
        "ĠìŀĲ",
        "ì²´"
      ],
      [
        "ìĸ",
        "¼ë¥¸"
      ],
      [
        "ĠìĹ¬",
        "ì¹ľ"
      ],
      [
        "íĸĪ",
        "ìĸ´ìļĶ"
      ],
      [
        "ìłĦ",
        "íĻĶ"
      ],
      [
        "ìŀ¥",
        "ìĿ´"
      ],
      [
        "Ġíŀĺëĵ¤",
        "ëĭ¤"
      ],
      [
        "Ġíŀĺëĵ¤",
        "ê²Į"
      ],
      [
        "¸ëł",
        "¤"
      ],
      [
        "ê²łì§Ģ",
        "ìļĶ"
      ],
      [
        "ĠëĬĲ",
        "ê»´"
      ],
      [
        "Ġê¸°ëĭ¤",
        "ëł¤"
      ],
      [
        "ë§Ľ",
        "ìŀĪê²Į"
      ],
      [
        "ìĿ´ìĹĪ",
        "ìĿĦ"
      ],
      [
        "íĪ",
        "¬"
      ],
      [
        "ì¡°ê¸Ī",
        "ë§Į"
      ],
      [
        "Ġìļ´",
        "ëıĻ"
      ],
      [
        "Ġë¿Ĳ",
        "ìĿ´ìĹĲìļĶ"
      ],
      [
        "Ġíļ",
        "Į"
      ],
      [
        "©",
        "ìłĦ"
      ],
      [
        "µ",
        "ìĪĻ"
      ],
      [
        "Ġì",
        "¢ħ"
      ],
      [
        "Ġë",
        "ĳ"
      ],
      [
        "ìĿ´",
        "ì§Ģ"
      ],
      [
        "ìĦ",
        "Ŀ"
      ],
      [
        "ìĹ",
        "Ń"
      ],
      [
        "ìŀ",
        "ĸ"
      ],
      [
        "ìķĦ",
        "ìķ¼"
      ],
      [
        "ê°Ģ",
        "ì¡±"
      ],
      [
        "íķľ",
        "ëĭ¤ë©´"
      ],
      [
        "ĠëĤ",
        "«"
      ],
      [
        "¼ë",
        "¦¬"
      ],
      [
        "ë¦",
        "¼"
      ],
      [
        "ĠìĤ¬ëŀĮ",
        "ëĵ¤ìĿ´"
      ],
      [
        "Ġíķ´",
        "ì£¼ìĦ¸ìļĶ"
      ],
      [
        "Ġëª",
        "°"
      ],
      [
        "ìĿ¸",
        "ìĹ°ìĿ´"
      ],
      [
        "ë°",
        "¤"
      ],
      [
        "Ġìĭ¶",
        "ëĦ¤ìļĶ"
      ],
      [
        "Ġë³´",
        "ìĹ¬"
      ],
      [
        "Ġê°Ģ",
        "ìĬ´"
      ],
      [
        "ë§Ī",
        "ëĭ¤"
      ],
      [
        "ìĪ",
        "Ń"
      ],
      [
        "ĠëĤĺ",
        "ìĺ¤"
      ],
      [
        "Ġì°",
        "©"
      ],
      [
        "ëĵ¤",
        "ìĿĢ"
      ],
      [
        "Ġíķ",
        "Ļ"
      ],
      [
        "ìĭ¬",
        "ìľ¼ë¡ľ"
      ],
      [
        "ìĥĿ",
        "íĻľ"
      ],
      [
        "ĠìĤ¬",
        "ê·"
      ],
      [
        "ìĤ¬",
        "ê·Ģ"
      ],
      [
        "ì§ģ",
        "ìŀ¥"
      ],
      [
        "ê°Ĳ",
        "ê¸°"
      ],
      [
        "Ġë¬´",
        "ìĭľ"
      ],
      [
        "Ġìĸ",
        "ĺ"
      ],
      [
        "ì¦",
        "Ĳ"
      ],
      [
        "ĠìłĦ",
        "ìĹĲ"
      ],
      [
        "ĠìłĦ",
        "íĻĶ"
      ],
      [
        "ì¤ĳ",
        "ìĹĲ"
      ],
      [
        "ĠíķĦìļĶ",
        "íķľ"
      ],
      [
        "Ġìī",
        "¬ìĸ´"
      ],
      [
        "ì§Ģê¸Ī",
        "ëıĦ"
      ],
      [
        "ĠíĶ",
        "Ħ"
      ],
      [
        "ĠëĳĲ",
        "ëł¤"
      ],
      [
        "Ġë§Įëĵ¤",
        "ìĸ´"
      ],
      [
        "íĤ",
        "¨"
      ],
      [
        "ë©",
        "ĭ"
      ],
      [
        "ĠìŀĪìĹĪ",
        "ëĤĺë´ĲìļĶ"
      ],
      [
        "Ġë§ĮëĤ",
        "¬ìĸ´"
      ],
      [
        "Ġìĺģ",
        "íĻĶ"
      ],
      [
        "Ġê·Ģì°®",
        "ìķĦ"
      ],
      [
        "Ġì£¼ë¬´",
        "ìĦ¸ìļĶ"
      ],
      [
        "ë",
        "ĥ"
      ],
      [
        "Ġë",
        "ĮĢë¡ľ"
      ],
      [
        "íķ",
        "Ħ"
      ],
      [
        "ìļ",
        "ķ"
      ],
      [
        "ìĿ´",
        "ê³ł"
      ],
      [
        "ìķ",
        "ħ"
      ],
      [
        "Ġìŀ",
        "ĳ"
      ],
      [
        "ë§",
        "ŀ"
      ],
      [
        "íķĺ",
        "ê²łëĦ¤ìļĶ"
      ],
      [
        "Ġê°",
        "ľ"
      ],
      [
        "íķľ",
        "ëį°"
      ],
      [
        "Ġê²",
        "¬ë"
      ],
      [
        "ì¹",
        "Ń"
      ],
      [
        "ëĤĺ",
        "ìģľ"
      ],
      [
        "ĠìĪ",
        "ĺë"
      ],
      [
        "ëĤĺë",
        "Ħ¤"
      ],
      [
        "Ġëª",
        "©"
      ],
      [
        "ĠìĹĨ",
        "ì£ł"
      ],
      [
        "Ġë§Ī",
        "ì£¼"
      ],
      [
        "ëŀ",
        "Į"
      ],
      [
        "Ġë³´",
        "ë©´"
      ],
      [
        "ë§Ī",
        "ìĬ¤"
      ],
      [
        "ëı",
        "ħ"
      ],
      [
        "ĠìĹ°ëĿ½",
        "íķĺê³ł"
      ],
      [
        "ĠìĤ¬",
        "ì§Ħ"
      ],
      [
        "ë¥´",
        "ê³ł"
      ],
      [
        "ìĬ¤",
        "íĬ¸ëłĪìĬ¤"
      ],
      [
        "ê°Ģë",
        "´Ĳ"
      ],
      [
        "ë¨",
        "¸ë¦"
      ],
      [
        "ìĨĮ",
        "ê°ľíĮħ"
      ],
      [
        "Ġëĵľ",
        "ëĬĶ"
      ],
      [
        "ëĤł",
        "ìĶ¨"
      ],
      [
        "ĠíĹ¤ìĸ´",
        "ì§Ĳ"
      ],
      [
        "ĠëĤĺë",
        "Ī"
      ],
      [
        "ìł¸",
        "ìļĶ"
      ],
      [
        "ë§İ",
        "ìĿĢ"
      ],
      [
        "ĠìĿ¸",
        "ìĥĿ"
      ],
      [
        "ĠëĤł",
        "ìĿ´"
      ],
      [
        "Ġë¹",
        "Į"
      ],
      [
        "Ġì§Ŀ",
        "ìĤ¬ëŀĳ"
      ],
      [
        "ëĭ¹ìĭł",
        "ìĿ´"
      ],
      [
        "ëĭ¹ìĭł",
        "ìĿĺ"
      ],
      [
        "Ġê³³",
        "ìľ¼ë¡ľ"
      ],
      [
        "ìĸ¸",
        "ìłľ"
      ],
      [
        "íİ",
        "ĺ"
      ],
      [
        "ìĤ¬ë",
        "¥¼"
      ],
      [
        "ìĹ¬ë",
        "³´ìĦ¸ìļĶ"
      ],
      [
        "Ġìµľ",
        "ê³ł"
      ],
      [
        "Ġëĭ¤ë",
        "ħĢ"
      ],
      [
        "ì§ĵ",
        "ë§Ĳ"
      ],
      [
        "Ġë¨¹ìĸ´",
        "ìķ¼ì§Ģ"
      ],
      [
        "Ġëª»íķĺ",
        "ê²łìĸ´"
      ],
      [
        "¹",
        "ł"
      ],
      [
        "ë",
        "įĺ"
      ],
      [
        "í",
        "ĭ°"
      ],
      [
        "Ġë",
        "ľ"
      ],
      [
        "ìĿ",
        "¼ë"
      ],
      [
        "Ġìŀ",
        "¬"
      ],
      [
        "ì£",
        "¼ë©´"
      ],
      [
        "Ġê±°",
        "ì£ł"
      ],
      [
        "ĠìĿ",
        "½"
      ],
      [
        "Ġë°",
        "¥"
      ],
      [
        "Ġê°Ļ",
        "ìĬµëĭĪëĭ¤"
      ],
      [
        "Ġëª",
        "ĩ"
      ],
      [
        "ĠìĹĨ",
        "ëĦ¤ìļĶ"
      ],
      [
        "ĠìĥĿ",
        "ê¸¸"
      ],
      [
        "ìĿ¼",
        "ìĿĦ"
      ],
      [
        "ìłķ",
        "ìĭł"
      ],
      [
        "Ġë§İ",
        "ìķĦìļĶ"
      ],
      [
        "ìĹ¬",
        "ì¹ľìĿ´"
      ],
      [
        "ê·¸ë",
        "¶Ħ"
      ],
      [
        "ë²",
        "Į"
      ],
      [
        "ìļ´",
        "ëªħ"
      ],
      [
        "ëħ",
        "Ĳ"
      ],
      [
        "Ġê´",
        "´"
      ],
      [
        "ĠìķĮ",
        "ê²Į"
      ],
      [
        "ĠëĲĺ",
        "ì§Ģ"
      ],
      [
        "Ġì£¼",
        "ëĬĶ"
      ],
      [
        "Ġì£¼",
        "ë§Ĳ"
      ],
      [
        "Ġë¹",
        "¨ë¦¬"
      ],
      [
        "Ġì§Ŀ",
        "ëĤ¨ìĿ´"
      ],
      [
        "Ġíĸī",
        "ëıĻ"
      ],
      [
        "ĠëıĦ",
        "ìĻĢ"
      ],
      [
        "íĺĦ",
        "ìĭ¤"
      ],
      [
        "Ġë¶Ģ",
        "ì¡±"
      ],
      [
        "Ġíİ¸",
        "ìĿ´"
      ],
      [
        "ìŀł",
        "ìĭľ"
      ],
      [
        "Ġê³łë¯¼",
        "ìĿ´ìķ¼"
      ],
      [
        "ìķĺë",
        "Ĥĺë´ĲìļĶ"
      ],
      [
        "ìķĦë¬´",
        "ëŀĺëıĦ"
      ],
      [
        "Ġë°°",
        "ìļ°"
      ],
      [
        "ìĿ´ë",
        "Ł°"
      ],
      [
        "ë´",
        "Ħ"
      ],
      [
        "Ġìŀ¬ë",
        "°Į"
      ],
      [
        "Ġìĸ¸ìłľ",
        "ëĤĺ"
      ],
      [
        "Ġìĸ¼",
        "ë§Ī"
      ],
      [
        "ìĬ¬",
        "íĶĪ"
      ],
      [
        "ĠëĤ¨ìŀĲìķł",
        "ê°Ģ"
      ],
      [
        "Ġíŀĺ",
        "ìĿ´"
      ],
      [
        "Ġë§İìķĺ",
        "ìĸ´ìļĶ"
      ],
      [
        "ĠìĺĪìĿĺ",
        "ê°Ģ"
      ],
      [
        "!",
        "!<"
      ],
      [
        "¬",
        "ìľ¼ë©´"
      ],
      [
        "½",
        "ê²Į"
      ],
      [
        "ê",
        "¶ģê¸Ī"
      ],
      [
        "ë",
        "ĸ"
      ],
      [
        "ë",
        "ĺĳ"
      ],
      [
        "ìĿ´",
        "ìĥģ"
      ],
      [
        "ìĹ",
        "ĪëĦ¤"
      ],
      [
        "ìķĦ",
        "ì¹¨"
      ],
      [
        "ê°Ģ",
        "ìĦ¸ìļĶ"
      ],
      [
        "Ġí",
        "Ĭ"
      ],
      [
        "ê¸°",
        "ìĸµ"
      ],
      [
        "ì¹",
        "ĺë"
      ],
      [
        "Ġëĭ",
        "¬"
      ],
      [
        "Ġì§",
        "ľ"
      ],
      [
        "ĠìķĦ",
        "íĶĶ"
      ],
      [
        "ìĭł",
        "ê²½ìĵ°"
      ],
      [
        "Ġìĺ",
        "·"
      ],
      [
        "ìĤ¬ëŀĳ",
        "ìĹĲ"
      ],
      [
        "Ġê°Ģ",
        "ì§Ģ"
      ],
      [
        "Ġë°Ķ",
        "ê¿"
      ],
      [
        "íĶ",
        "¼ë"
      ],
      [
        "íĸĪ",
        "ìľ¼ë©´"
      ],
      [
        "Ġíŀĺëĵ¤",
        "ìĸ´ìļĶ"
      ],
      [
        "ĠìķĮ",
        "ë°Ķ"
      ],
      [
        "ìĺ¤ë",
        "ŀľ"
      ],
      [
        "Ġê±´",
        "ì§Ģ"
      ],
      [
        "ìį¸",
        "ëĤ¨ìĿ´"
      ],
      [
        "Ġì¤ĳ",
        "ìĹĲ"
      ],
      [
        "Ġë°Ľ",
        "ìĿĦ"
      ],
      [
        "ë¨",
        "¸"
      ],
      [
        "Ġë²",
        "ķ"
      ],
      [
        "ê±´",
        "ì§Ģ"
      ],
      [
        "Ġìļ",
        "ķ"
      ],
      [
        "ĠëĨ",
        "Ĵ"
      ],
      [
        "ĠëĨ",
        "ĢëŁ¬"
      ],
      [
        "Ġë¬´",
        "ìĦľ"
      ],
      [
        "Ġìĥģ",
        "ëĮĢ"
      ],
      [
        "Ġìĥģ",
        "ì²ĺë"
      ],
      [
        "ìľ¼",
        "ëĭĪ"
      ],
      [
        "ĠíķĦìļĶ",
        "íķ´ìļĶ"
      ],
      [
        "Ġê´ľì°®",
        "ìĿĦê¹Į"
      ],
      [
        "Ġì¡°",
        "ìĭ¬íķĺìĦ¸ìļĶ"
      ],
      [
        "ìľł",
        "ê°Ģ"
      ],
      [
        "ë°Ķ",
        "ëŀĮ"
      ],
      [
        "ĠíĥĢ",
        "ê³ł"
      ],
      [
        "ìĦ±",
        "ê³µ"
      ],
      [
        "ìĿ´ëĿ¼",
        "ëĬĶ"
      ],
      [
        "Ġì¤ĳìļĶ",
        "íķĺì§Ģ"
      ],
      [
        "Ġì²",
        "«"
      ],
      [
        "Ġì²",
        "ľ"
      ],
      [
        "Ġìķł",
        "ê°Ģ"
      ],
      [
        "Ġë¹Ħ",
        "ìĭ¸"
      ],
      [
        "ì²ľ",
        "ì²ľíŀĪ"
      ],
      [
        "Ġíĸīë³µ",
        "íķ´"
      ],
      [
        "ë©",
        "Ķ"
      ],
      [
        "ĠìķĬìķĦ",
        "ëıĦ"
      ],
      [
        "Ġê·¸ëł",
        "ĩê²Į"
      ],
      [
        "Ł¬ë",
        "©´"
      ],
      [
        "Ġìķŀ",
        "ìĹĲ"
      ],
      [
        "íĻĺ",
        "ìĬ¹"
      ],
      [
        "ĠíĺĦ",
        "ìĭ¤"
      ],
      [
        "ĠíĿĺë",
        "łĢ"
      ],
      [
        "ĠíĻķìĿ¸",
        "íķ´ë³´ìĦ¸ìļĶ"
      ],
      [
        "ëĤ¬ë",
        "Ħ¤"
      ],
      [
        "¯",
        "¼"
      ],
      [
        "·",
        "ê°Īë"
      ],
      [
        "¼",
        "íķĳ"
      ],
      [
        "í",
        "į"
      ],
      [
        "Ģ",
        "ìĿ´"
      ],
      [
        "ĩ",
        "¼íķĳ"
      ],
      [
        "Ĳ",
        "ìĸ´"
      ],
      [
        "ĵ",
        "ê³ł"
      ],
      [
        "ĸ",
        "ìĹĲ"
      ],
      [
        "ìĿ´",
        "ëłĩê²Į"
      ],
      [
        "ìĦ",
        "Ń"
      ],
      [
        "íķ´",
        "ìķ¼ì§Ģ"
      ],
      [
        "ìķĦ",
        "ë³´ìĦ¸ìļĶ"
      ],
      [
        "ê°Ģ",
        "ëĦ¤"
      ],
      [
        "Īë",
        "Ħ¤ìļĶ"
      ],
      [
        "ì£",
        "½"
      ],
      [
        "ëĤĺ",
        "ì¤ĳìĹĲ"
      ],
      [
        "Ġëĭ",
        "´"
      ],
      [
        "ëł",
        "¤ë"
      ],
      [
        "Ġì§",
        "Īë"
      ],
      [
        "Ġìł",
        "ĳ"
      ],
      [
        "Ġìĸ´",
        "ëłµ"
      ],
      [
        "ĠìĥĿê°ģ",
        "ëĤĺ"
      ],
      [
        "Ġë§Į",
        "ëĤ¨"
      ],
      [
        "Ġëĭ¤",
        "ë¥¼"
      ],
      [
        "ĠìķĪ",
        "íķ´"
      ],
      [
        "ì¤",
        "Ģë¹Ħ"
      ],
      [
        "ìĻ",
        "ĦìłĦ"
      ],
      [
        "ìĹĪ",
        "ëĤĺë´ĲìļĶ"
      ],
      [
        "ĠìĤ¬ëŀĳ",
        "íķ´ì£¼ìĦ¸ìļĶ"
      ],
      [
        "Ġìŀĺ",
        "íķł"
      ],
      [
        "ëı",
        "Į"
      ],
      [
        "ìĭ¬",
        "ìĿĦ"
      ],
      [
        "Ġíŀĺëĵ¤",
        "ì£ł"
      ],
      [
        "ĠëķĮ",
        "ê¹Įì§Ģ"
      ],
      [
        "ìĿ´ë³Ħ",
        "íĽĦ"
      ],
      [
        "ë¯",
        "¿"
      ],
      [
        "ĠìĨ",
        "Ķì§ģ"
      ],
      [
        "ê°Ĳ",
        "ìłķ"
      ],
      [
        "ĠëŃĲ",
        "ìķ¼"
      ],
      [
        "ĠìŀĪëĬĶ",
        "ì§Ģ"
      ],
      [
        "ĠëģĿ",
        "ëĤ´"
      ],
      [
        "ìĸ´ë",
        "ĬĲ"
      ],
      [
        "ĠíķĦìļĶ",
        "íķ´"
      ],
      [
        "íķĻ",
        "êµĲ"
      ],
      [
        "Ġìłľ",
        "ê°Ģ"
      ],
      [
        "ëª¨",
        "ëĵł"
      ],
      [
        "ìĽĢ",
        "ìĿĦ"
      ],
      [
        "ĠíĹ",
        "Ī"
      ],
      [
        "Ġêµ",
        "¬ë"
      ],
      [
        "ĠìķĪëĲ",
        "ĺ"
      ],
      [
        "ìŀ¬",
        "íļĮ"
      ],
      [
        "ĠëĲĲ",
        "ìĸ´"
      ],
      [
        "ìĺ¤ëĬ",
        "ĺë"
      ],
      [
        "ĠëĨĵ",
        "ìķĦ"
      ],
      [
        "ĠìķĮëł¤",
        "ì¤ĺ"
      ],
      [
        "Ġê°Ģìł¸",
        "ë³´ìĦ¸ìļĶ"
      ],
      [
        "ĠìķĦëĭĲ",
        "ê¹ĮìļĶ"
      ],
      [
        "Ġìĭłê²½ìĵ°",
        "ì§Ģ"
      ],
      [
        "Ġê·¸ëŀĺ",
        "ìļĶ"
      ],
      [
        "ëĤ¨íİ¸",
        "ìĿ´"
      ],
      [
        "ĠìĤ´íİ´",
        "ë³´ìĦ¸ìļĶ"
      ],
      [
        "¤",
        "ìķĦ"
      ],
      [
        "©",
        "°"
      ],
      [
        "ë",
        "£Į"
      ],
      [
        "Ĳ",
        "ľ"
      ],
      [
        "Ġì",
        "Ķ"
      ],
      [
        "Ġë",
        "ĥ"
      ],
      [
        "íķ",
        "Ńìĥģ"
      ],
      [
        "ê²",
        "¬"
      ],
      [
        "ê²",
        "ģ"
      ],
      [
        "ìĹ",
        "Ķ"
      ],
      [
        "ìĹ",
        "´ìĭ¬íŀĪ"
      ],
      [
        "íķ´",
        "ì§ĢëĬĶ"
      ],
      [
        "ìĭ",
        "Ń"
      ],
      [
        "íķĺ",
        "ê²łì£ł"
      ],
      [
        "ĠìĹ",
        "´"
      ],
      [
        "íķľ",
        "ëĭ¤ê³ł"
      ],
      [
        "ĠëĤ",
        "ĺëĬĶ"
      ],
      [
        "ĠìĿ",
        "Į"
      ],
      [
        "ĠìĿ",
        "ĺë¯¸"
      ],
      [
        "ê²ł",
        "ìĬµëĭĪëĭ¤"
      ],
      [
        "Ġíķ´",
        "ë´ĲìļĶ"
      ],
      [
        "ĠìĥĿ",
        "ìĿ¼"
      ],
      [
        "ìĭľ",
        "ìĽĲ"
      ],
      [
        "ĠìķĬ",
        "ê¸¸"
      ],
      [
        "ĠëĤĺ",
        "ìģľ"
      ],
      [
        "ìĥģ",
        "ëĮĢ"
      ],
      [
        "ìĥģ",
        "ì²ĺ"
      ],
      [
        "Ġìĭľ",
        "ì¼ľ"
      ],
      [
        "ë²",
        "½"
      ],
      [
        "Ġìŀĺ",
        "íķ´"
      ],
      [
        "Ġìŀĺ",
        "íķĺëĬĶ"
      ],
      [
        "Ġìŀĺ",
        "íķĺê³ł"
      ],
      [
        "ëħ",
        "¸"
      ],
      [
        "ëħ",
        "¸ëł¥"
      ],
      [
        "ìĿ´ë³Ħ",
        "ìĿ´"
      ],
      [
        "ìĿ´ë³Ħ",
        "íķľì§Ģ"
      ],
      [
        "Ġë¨¹",
        "ìľ¼ë©´"
      ],
      [
        "ĠìĨ",
        "Ĳ"
      ],
      [
        "ë¨",
        "¼"
      ],
      [
        "Ġìļ",
        "¸"
      ],
      [
        "Ġìļ",
        "Ķ"
      ],
      [
        "ĠìĿ´ë³Ħ",
        "ìĿĦ"
      ],
      [
        "Ġê·¸",
        "ê²Į"
      ],
      [
        "ìħ",
        "ĺ"
      ],
      [
        "ĠíĽĦ",
        "íıŃíĴį"
      ],
      [
        "ìĭĿ",
        "ìĿĦ"
      ],
      [
        "ìĤ¬ëŀĮ",
        "ìĿĢ"
      ],
      [
        "ìĿ´ëĿ¼",
        "ê³ł"
      ],
      [
        "Ġê´Ģ",
        "ë¦¬"
      ],
      [
        "Ġíķĺ",
        "ìħ¨"
      ],
      [
        "Ġì²",
        "Ļ"
      ],
      [
        "Ġì²",
        "Ń"
      ],
      [
        "ìĥĿê°ģ",
        "ë³´ëĭ¤"
      ],
      [
        "ĠìŀĲìĭł",
        "ìĿ´"
      ],
      [
        "ãħ",
        "İ"
      ],
      [
        "ĠìķĦëĭĮ",
        "ì§Ģ"
      ],
      [
        "Ġê³³",
        "ìĿ´"
      ],
      [
        "ĠìķĪëĲ",
        "ĺëĬĶ"
      ],
      [
        "ë§Ľ",
        "ìŀĪëĬĶ"
      ],
      [
        "Ġë²Ħ",
        "íħ"
      ],
      [
        "ĠíĶ¼",
        "ê³¤"
      ],
      [
        "Ġê°Ĳìłķ",
        "ìĿĦ"
      ],
      [
        "ì¶Ķ",
        "ìĸµ"
      ],
      [
        "¶Ģ",
        "íĦ°"
      ],
      [
        "Ġê°Ħ",
        "ëĭ¤"
      ],
      [
        "Ġê¸°ë¶Ħ",
        "ìĿ´"
      ],
      [
        "ìĺģ",
        "íĻĶ"
      ],
      [
        "ĠëĪĦ",
        "êµ¬"
      ],
      [
        "ĠíĮ",
        "Į"
      ],
      [
        "ëĶĶ",
        "ìĸ´"
      ],
      [
        "Ġìĸ¼",
        "êµ´"
      ],
      [
        "ì¶ķ",
        "íķĺ"
      ],
      [
        "Ġìį",
        "¨"
      ],
      [
        "ëĶ°",
        "ëľ»"
      ],
      [
        "ìĸ¸ìłł",
        "ê°Ħ"
      ],
      [
        "Ġê°ĳ",
        "ìŀĲê¸°"
      ],
      [
        "~",
        "<"
      ],
      [
        "ë",
        "ĵ"
      ],
      [
        "ë",
        "Ł½"
      ],
      [
        "į",
        "¤"
      ],
      [
        "Ŀ",
        "¼ë©´"
      ],
      [
        "Ġì",
        "½"
      ],
      [
        "Ġì",
        "Į"
      ],
      [
        "Ġë",
        "´ħëĭĪëĭ¤"
      ],
      [
        "Ġë",
        "ĺĳ"
      ],
      [
        "ìĿ",
        "ĺë"
      ],
      [
        "íķ",
        "ĦìļĶ"
      ],
      [
        "ìĿ´",
        "ìĸ´"
      ],
      [
        "ìĿ´",
        "ë²Ī"
      ],
      [
        "ìķ",
        "¼ë"
      ],
      [
        "ë§",
        "Īë"
      ],
      [
        "ë³´",
        "ìĹ¬"
      ],
      [
        "ë³´",
        "ëĬĶê²Į"
      ],
      [
        "íķľ",
        "ë²Ī"
      ],
      [
        "ìŀĲ",
        "ìĹ°"
      ],
      [
        "ĠìĿ",
        "ĳìĽĲ"
      ],
      [
        "ê¸°",
        "ë§Į"
      ],
      [
        "ê²ł",
        "ëĦ¤"
      ],
      [
        "ìĽ",
        "ĥ"
      ],
      [
        "¤ë",
        "į¤"
      ],
      [
        "ĠìĹĨ",
        "ëĭ¤ë©´"
      ],
      [
        "ĠìķĦ",
        "ì¹¨"
      ],
      [
        "Ġë§Ī",
        "ìħĶ"
      ],
      [
        "Ġë§Ī",
        "ì§Ģë§ī"
      ],
      [
        "ì°",
        "½"
      ],
      [
        "ëĤ¨",
        "ì¹ľìĿ´"
      ],
      [
        "ĠìķĬ",
        "ê³ł"
      ],
      [
        "Ġë§Ĳ",
        "ìĿ´"
      ],
      [
        "ì²",
        "Ļ"
      ],
      [
        "ĵľ",
        "ë¦´ê²ĮìļĶ"
      ],
      [
        "ìĥģ",
        "ìĿ´ìĹĲìļĶ"
      ],
      [
        "ê·¸ë",
        "ŀĺ"
      ],
      [
        "ìĻ",
        "¸"
      ],
      [
        "Ġìĸ´ë",
        "ĬĲ"
      ],
      [
        "ĠìĤ¬ëŀĳ",
        "íķĺê³ł"
      ],
      [
        "íĸĪ",
        "ëĭ¤"
      ],
      [
        "ĠëķĮ",
        "ëıĦ"
      ],
      [
        "Ġì¹",
        "´"
      ],
      [
        "Ġëª»",
        "íķĺëĬĶ"
      ],
      [
        "ëĮĢ",
        "ìļĶ"
      ],
      [
        "Ġì¢ĭê²ł",
        "ì£ł"
      ],
      [
        "ê°Ģë",
        "ģĶ"
      ],
      [
        "íĹ¤ìĸ´",
        "ì§Ĳ"
      ],
      [
        "Ġë°Ľ",
        "ëĬĶ"
      ],
      [
        "Ġíķĺë",
        "ĭ¤"
      ],
      [
        "Ġë²",
        "Ĺ"
      ],
      [
        "ëĭ¹",
        "íŀĪ"
      ],
      [
        "ë¦¬ë",
        "©´"
      ],
      [
        "Ġìĸ",
        "¼ë¥¸"
      ],
      [
        "ìĺ¤",
        "ìĦ¸ìļĶ"
      ],
      [
        "ĠìŀĬ",
        "ì§Ģ"
      ],
      [
        "Ġë§ĮëĤĺ",
        "ì§Ģ"
      ],
      [
        "ĠëĶ",
        "±"
      ],
      [
        "ëĭµ",
        "ëĭµ"
      ],
      [
        "Ġê¹",
        "Ĭ"
      ],
      [
        "Ġê¹",
        "Į"
      ],
      [
        "ìĥĿê°ģ",
        "ìĿ´"
      ],
      [
        "ì§ĳ",
        "ìĹĲ"
      ],
      [
        "ëģ",
        "¼"
      ],
      [
        "ĠíĿ",
        "Ķ"
      ],
      [
        "ìĭ¶",
        "ëĭ¤"
      ],
      [
        "ëĭ¹ìĭł",
        "ìĿĢ"
      ],
      [
        "ëª¨",
        "ë¥´ëĬĶ"
      ],
      [
        "ĠíĹ",
        "·ê°Īë"
      ],
      [
        "Ġë©",
        "Ģ"
      ],
      [
        "ĠìķĬëĬĶ",
        "ëĭ¤ë©´"
      ],
      [
        "Ġë¶Ģë",
        "¶Ħ"
      ],
      [
        "ĠìĤ¬ê·Ģ",
        "ê³ł"
      ],
      [
        "Ġìļ°",
        "ìļ¸"
      ],
      [
        "Ġê´Ģìĭ¬",
        "ìĿ´"
      ],
      [
        "ĠìĿ´ìľł",
        "ê°Ģ"
      ],
      [
        "Ġìĸ´ëł¤",
        "ìĽĮ"
      ],
      [
        "ĠìĦ¤",
        "ëłĪ"
      ],
      [
        "ìĬ¤ëŁ½",
        "ê²Į"
      ],
      [
        "Ġìķ½",
        "ìĨį"
      ],
      [
        "ĠíĹ¤ìĸ´ì§Ħ",
        "ì§Ģ"
      ],
      [
        "ìķĪë",
        "ħķ"
      ],
      [
        "ìī¬",
        "ìļ´"
      ],
      [
        "ĠëŃĶ",
        "ì§Ģ"
      ],
      [
        "ìŀĸ",
        "ìķĦìļĶ"
      ],
      [
        "Ġì§ľ",
        "ì¦Ŀ"
      ],
      [
        "íį",
        "¼"
      ],
      [
        "»",
        "Ķ"
      ],
      [
        "ë",
        "¡Ŀ"
      ],
      [
        "ì",
        "´Ī"
      ],
      [
        "í",
        "ĳ"
      ],
      [
        "í",
        "ĥģ"
      ],
      [
        "Ġ",
        "6"
      ],
      [
        "ı",
        "Ļ"
      ],
      [
        "Ł",
        "ģ"
      ],
      [
        "Ġì",
        "´"
      ],
      [
        "ìĿ´",
        "ëĭ¤"
      ],
      [
        "ìĿ´",
        "ë°"
      ],
      [
        "ì§",
        "§"
      ],
      [
        "ì§",
        "Īë"
      ],
      [
        "ìĹ",
        "´"
      ],
      [
        "íķ´",
        "ìł¸"
      ],
      [
        "ìŀ",
        "ĺë"
      ],
      [
        "ê°Ģ",
        "ë¥¼"
      ],
      [
        "ê°Ģ",
        "ìĬ´"
      ],
      [
        "Ġí",
        "İ"
      ],
      [
        "ë³",
        "¼"
      ],
      [
        "Ġë§",
        "¨"
      ],
      [
        "íķĺë",
        "įĺ"
      ],
      [
        "íķĺë",
        "ł¤"
      ],
      [
        "íķĺë",
        "Ĥĺë"
      ],
      [
        "ê¸",
        "Īë°©"
      ],
      [
        "¸ë",
        "¥¼"
      ],
      [
        "ĠìŀĪ",
        "ìĬµëĭĪëĭ¤"
      ],
      [
        "íķľ",
        "ëĭ¤"
      ],
      [
        "íķľ",
        "ê±°"
      ],
      [
        "íķľ",
        "ëĭ¬"
      ],
      [
        "ìŀĲ",
        "ëĬĶ"
      ],
      [
        "ĵ¤",
        "ìĸ´"
      ],
      [
        "ìķ¼",
        "ì£ł"
      ],
      [
        "Ġì§",
        "§"
      ],
      [
        "Ġì§",
        "Ī"
      ],
      [
        "Ġë³",
        "¼ê¹Į"
      ],
      [
        "Ġì¢ĭìķĦ",
        "íķĺê²Į"
      ],
      [
        "Ġê²ĥ",
        "ìĿĦ"
      ],
      [
        "Ġê²ĥ",
        "ë³´ëĭ¤"
      ],
      [
        "Ġìĸ´",
        "ìļ"
      ],
      [
        "Ġë§Ĳ",
        "íķĺìĦ¸ìļĶ"
      ],
      [
        "Ġê°Ģ",
        "ì§Ģê³ł"
      ],
      [
        "ê·¸ë",
        "¦¬"
      ],
      [
        "ìĻ",
        "¸ë¡ľ"
      ],
      [
        "ëĵ¤",
        "ìĿĦ"
      ],
      [
        "ĠìĤ¬ëŀĳ",
        "ìĿĢ"
      ],
      [
        "Ġê¸°",
        "íļĮ"
      ],
      [
        "ĠëĤ¨",
        "ì¹ľ"
      ],
      [
        "ĠìĻ",
        "¸ë¡ľ"
      ],
      [
        "ĠìĻ",
        "ĦìłĦ"
      ],
      [
        "ĠìķĮ",
        "ê³ł"
      ],
      [
        "ĠìĿ¼",
        "ìĿĢ"
      ],
      [
        "ĠìĿ¼",
        "ì°į"
      ],
      [
        "ìĬµ",
        "ê´Ģ"
      ],
      [
        "ìĿ´ë³Ħ",
        "ìĿĺ"
      ],
      [
        "ìĬ¤",
        "ìĬ¤ë¡ľ"
      ],
      [
        "Ġìłķ",
        "ìĭł"
      ],
      [
        "Ġì¢ĭìķĦíķĺëĬĶ",
        "ê²Į"
      ],
      [
        "ìļ°",
        "ê³ł"
      ],
      [
        "ìŀĺ",
        "íķł"
      ],
      [
        "Ġë°Ķëŀ",
        "Į"
      ],
      [
        "ĠìĿ´ë³Ħ",
        "ìĿĢ"
      ],
      [
        "Ġëª¨ë¥´",
        "ëĬĶ"
      ],
      [
        "ĠëĪ",
        "Īë¬¼"
      ],
      [
        "ëĲ",
        "ł"
      ],
      [
        "Ġë§ŀ",
        "ì¶°"
      ],
      [
        "ĠìĨĮ",
        "ì¤ĳ"
      ],
      [
        "ì¹ĺ",
        "ê°Ģ"
      ],
      [
        "ëĭµ",
        "ëĭĪëĭ¤"
      ],
      [
        "Ġìĺ¤",
        "ëĬĶ"
      ],
      [
        "Ġì°¨",
        "ëĭ¨"
      ],
      [
        "íĥĢ",
        "ìĿ¼"
      ],
      [
        "Ġëį°",
        "ëł¤"
      ],
      [
        "ì§Ģê¸Ī",
        "ìĿĢ"
      ],
      [
        "Ġì¤Ģë¹Ħ",
        "ê°Ģ"
      ],
      [
        "ãħ",
        "ľ"
      ],
      [
        "ĠíĹ",
        "¤ìķĦ"
      ],
      [
        "ĠìĬ¤",
        "ìĬ¤ë¡ľ"
      ],
      [
        "ìŀł",
        "ê¹Ĳ"
      ],
      [
        "íķ¨",
        "ê»ĺ"
      ],
      [
        "ëĶ",
        "±"
      ],
      [
        "Ġëĸ¨",
        "ëł¤"
      ],
      [
        "Ġë³Ģ",
        "íĻĶê°Ģ"
      ],
      [
        "ìľĦ",
        "ë¡ľ"
      ],
      [
        "ĠìĦ±",
        "ê³µ"
      ],
      [
        "ìĤ¬ë",
        "ĬĶ"
      ],
      [
        "Ġìī¬",
        "ê³ł"
      ],
      [
        "Ġìī¬",
        "ìļ´"
      ],
      [
        "ĠìĿ´ë",
        "Ł°"
      ],
      [
        "Ġì¦",
        "Ŀ"
      ],
      [
        "ĠëĬ¦",
        "ì§Ģ"
      ],
      [
        "Ġìĭ¤",
        "ìĪĺ"
      ],
      [
        "ì±ħ",
        "íķĺì§Ģ"
      ],
      [
        "ëĭ¤ìĿĮ",
        "ìĹĲëĬĶ"
      ],
      [
        "ĠìķĬìķĺ",
        "ìľ¼ë©´"
      ],
      [
        "Ġìĥ",
        "Īë¡ľìļ´"
      ],
      [
        "ĠíĹ¤ìĸ´ì¡Į",
        "ìĬµëĭĪëĭ¤"
      ],
      [
        "Ġê°ĸ",
        "ê³ł"
      ],
      [
        "íĩ´",
        "ê·¼"
      ],
      [
        "Ġíĥľ",
        "ìĸ´"
      ],
      [
        "ìĿ´ë°",
        "į"
      ],
      [
        "?",
        "?<"
      ],
      [
        "¸",
        "ìĹħ"
      ],
      [
        "ê",
        "º¼"
      ],
      [
        "ë",
        "Ĭ¥"
      ],
      [
        "Ġ",
        "5"
      ],
      [
        "Ħ",
        "ìĥĪ"
      ],
      [
        "Ń",
        "ìłľ"
      ],
      [
        "ìĿ´",
        "ê¸¸"
      ],
      [
        "íķ´",
        "ì¡Į"
      ],
      [
        "ê³ł",
        "ìĥĿ"
      ],
      [
        "Ġí",
        "ľ´"
      ],
      [
        "Īë",
        "²"
      ],
      [
        "ìŀĲ",
        "ë¦¬"
      ],
      [
        "Ġê±°",
        "ê¸°ê¹Įì§Ģ"
      ],
      [
        "ĠìĿ",
        "µìĪĻ"
      ],
      [
        "ëĤĺ",
        "ìĿ´"
      ],
      [
        "ëĤĺ",
        "ìĦľ"
      ],
      [
        "Ġê°Ļ",
        "ëĦ¤ìļĶ"
      ],
      [
        "Ģë",
        "ħ"
      ],
      [
        "ìĿĮ",
        "ìĿ´"
      ],
      [
        "Ġíķ´",
        "ìĦľ"
      ],
      [
        "Ġëª",
        "¸"
      ],
      [
        "ĠìĥĿ",
        "ê¸°"
      ],
      [
        "ìĭľ",
        "ì¼ľ"
      ],
      [
        "Ġë§Ī",
        "ìļĶ"
      ],
      [
        "ìĭł",
        "ê°Ģë´ĲìļĶ"
      ],
      [
        "ìĭł",
        "ê²½"
      ],
      [
        "ëŀ",
        "Ĳ"
      ],
      [
        "Ġê±",
        "¸ë¦"
      ],
      [
        "Ġë³´",
        "ì§Ģ"
      ],
      [
        "Ġê°Ģ",
        "ê¸°"
      ],
      [
        "Ġê°Ģ",
        "ìķ¼"
      ],
      [
        "Ġê°Ģ",
        "ìķ¼ì§Ģ"
      ],
      [
        "ì¤",
        "¬ìľ¼ë©´"
      ],
      [
        "ìĪ",
        "¨"
      ],
      [
        "Ġê¸",
        "´"
      ],
      [
        "ĠìŀĲ",
        "ìĹ°"
      ],
      [
        "Ġë¨",
        "¸ë¦¬"
      ],
      [
        "Ġë¶",
        "Īë"
      ],
      [
        "ìĭ¬",
        "ìĿ´"
      ],
      [
        "ìłĦ",
        "íŀĪ"
      ],
      [
        "ĠëĤ¨",
        "ìŀĲì¹ľêµ¬"
      ],
      [
        "ìŀ¥",
        "ìĿĦ"
      ],
      [
        "Ġë§ĪìĿĮ",
        "ìĿĺ"
      ],
      [
        "Ġíĸ",
        "¥"
      ],
      [
        "Ġëª»",
        "íķ´"
      ],
      [
        "Ġëª¨",
        "ëĵł"
      ],
      [
        "Ġê³ł",
        "ìĥĿ"
      ],
      [
        "Ġë¨¹",
        "ìĿĦ"
      ],
      [
        "Ġì¤ĳ",
        "ìĿ¸ëį°"
      ],
      [
        "ìķĪ",
        "ê²½"
      ],
      [
        "ĠëĲĺ",
        "ê³ł"
      ],
      [
        "Ġíķľ",
        "ë²Ī"
      ],
      [
        "ĠëģĿ",
        "ëĤ¬"
      ],
      [
        "ìģ",
        "ĺë"
      ],
      [
        "ĠìŀĬ",
        "ëĬĶ"
      ],
      [
        "ìľł",
        "ë¥¼"
      ],
      [
        "Ġê°Ģë",
        "©´"
      ],
      [
        "Ġë¬¼",
        "ìĸ´ë"
      ],
      [
        "ĠìĨĮ",
        "ìĭĿ"
      ],
      [
        "ĠìĨĮ",
        "ê°ľ"
      ],
      [
        "Ġìĭ«",
        "ëĭ¤"
      ],
      [
        "ìĦ±",
        "ìĿ´"
      ],
      [
        "ë¹Ħ",
        "ê°Ģ"
      ],
      [
        "ĠëıĦ",
        "ìłĦ"
      ],
      [
        "ì¹ľêµ¬ë",
        "¥¼"
      ],
      [
        "ëĿ¼ê³ł",
        "ìļĶ"
      ],
      [
        "ì¼",
        "Ģ"
      ],
      [
        "ìĹĨ",
        "ëĬĶ"
      ],
      [
        "Ġë°ĽìķĦ",
        "ëĵ¤"
      ],
      [
        "ëŃ",
        "ĺ"
      ],
      [
        "ĠëĲĺë",
        "Ħ¤"
      ],
      [
        "ì¤Ħ",
        "ê¹Į"
      ],
      [
        "Ġìĭł",
        "ê²½"
      ],
      [
        "Ġë¬¸",
        "ìłľê°Ģ"
      ],
      [
        "ìī",
        "½ì§Ģ"
      ],
      [
        "ì§ĿëħĢ",
[...]
